<unk>	0
<endofline>	0
<endoftext>	0
er	-0
en	-1
ch	-2
▁d	-3
in	-4
▁s	-5
ie	-6
nd	-7
te	-8
▁w	-9
▁a	-10
ein	-11
▁u	-12
ich	-13
▁und	-14
es	-15
▁g	-16
▁h	-17
ei	-18
▁da	-19
▁n	-20
▁m	-21
▁i	-22
▁er	-23
▁S	-24
▁die	-25
▁ein	-26
▁der	-27
st	-28
an	-29
ll	-30
▁z	-31
ar	-32
au	-33
▁b	-34
▁v	-35
em	-36
▁k	-37
▁ih	-38
ten	-39
▁au	-40
▁zu	-41
▁D	-42
ach	-43
el	-44
▁sie	-45
ss	-46
gen	-47
▁K	-48
▁H	-49
▁f	-50
ber	-51
▁den	-52
or	-53
icht	-54
eh	-55
▁so	-56
ter	-57
it	-58
▁in	-59
▁M	-60
▁l	-61
▁war	-62
▁G	-63
▁ha	-64
ig	-65
▁A	-66
sch	-67
▁W	-68
▁das	-69
▁B	-70
re	-71
▁sch	-72
▁nicht	-73
ag	-74
ck	-75
on	-76
un	-77
▁es	-78
ir	-79
▁sein	-80
▁T	-81
▁F	-82
▁„	-83
▁E	-84
mm	-85
et	-86
ben	-87
al	-88
der	-89
▁auf	-90
och	-91
▁sich	-92
▁Sch	-93
▁an	-94
as	-95
▁dem	-96
ls	-97
▁wie	-98
ur	-99
ön	-100
ah	-101
ge	-102
▁ich	-103
den	-104
▁mit	-105
and	-106
lich	-107
▁aber	-108
de	-109
▁ge	-110
ann	-111
pr	-112
▁t	-113
▁hat	-114
▁wo	-115
▁ver	-116
▁L	-117
▁ihn	-118
am	-119
▁als	-120
▁ihm	-121
ing	-122
rau	-123
▁du	-124
chen	-125
▁j	-126
ro	-127
▁ihr	-128
▁P	-129
▁R	-130
▁spr	-131
ol	-132
at	-133
agte	-134
▁von	-135
eu	-136
nder	-137
▁hin	-138
▁all	-139
ür	-140
▁St	-141
▁un	-142
▁N	-143
hr	-144
▁ist	-145
be	-146
aus	-147
▁her	-148
▁»	-149
hl	-150
▁aus	-151
ne	-152
▁sprach	-153
▁Z	-154
▁eine	-155
▁st	-156
iel	-157
▁Da	-158
▁hatte	-159
önig	-160
fen	-161
ut	-162
▁r	-163
enn	-164
lein	-165
eit	-166
▁einen	-167
▁J	-168
▁V	-169
▁mein	-170
▁vor	-171
▁König	-172
.“	-173
▁lie	-174
▁Der	-175
etz	-176
ehr	-177
▁auch	-178
ssen	-179
anz	-180
▁sagte	-181
ück	-182
omm	-183
eg	-184
▁o	-185
ehen	-186
sen	-187
▁Er	-188
ier	-189
▁um	-190
▁ges	-191
llte	-192
ill	-193
über	-194
rei	-195
und	-196
▁wieder	-197
▁noch	-198
▁kam	-199
ra	-200
le	-201
▁nach	-202
▁mir	-203
▁Her	-204
▁U	-205
pf	-206
▁daß	-207
▁dass	-208
▁wei	-209
lo	-210
▁des	-211
cht	-212
▁wir	-213
ser	-214
ste	-215
mmer	-216
▁I	-217
▁‚	-218
▁bei	-219
nn	-220
um	-221
rin	-222
ang	-223
▁was	-224
ort	-225
wei	-226
▁be	-227
!“	-228
ief	-229
se	-230
nen	-231
mal	-232
ung	-233
▁wenn	-234
▁über	-235
▁denn	-236
▁ganz	-237
ab	-238
▁im	-239
ft	-240
▁ander	-241
nte	-242
chte	-243
▁ging	-244
▁seine	-245
acht	-246
▁Als	-247
▁gro	-248
ör	-249
schen	-250
lte	-251
▁fr	-252
▁kein	-253
▁will	-254
▁bi	-255
ng	-256
ind	-257
lei	-258
▁nur	-259
ick	-260
▁Die	-261
ald	-262
sten	-263
▁re	-264
▁wer	-265
ug	-266
la	-267
▁mu	-268
hn	-269
▁gew	-270
uch	-271
llen	-272
ommen	-273
▁doch	-274
achte	-275
▁einem	-276
▁Mann	-277
eben	-278
▁sah	-279
ass	-280
▁mich	-281
ät	-282
▁bes	-283
▁klein	-284
▁für	-285
her	-286
▁Mä	-287
ster	-288
ot	-289
▁schön	-290
ien	-291
ff	-292
▁en	-293
zen	-294
▁–	-295
▁waren	-296
▁Au	-297
▁nun	-298
▁Ges	-299
▁wä	-300
ahr	-301
▁Haus	-302
▁geh	-303
▁soll	-304
▁Frau	-305
▁habe	-306
▁dann	-307
gel	-308
▁kon	-309
▁Sie	-310
▁man	-311
etzt	-312
▁zur	-313
▁wollte	-314
▁ger	-315
▁Tag	-316
▁dir	-317
▁alle	-318
il	-319
▁tr	-320
tete	-321
▁zum	-322
▁Ge	-323
ken	-324
zu	-325
▁ste	-326
▁wur	-327
rü	-328
lie	-329
old	-330
rm	-331
▁kann	-332
angen	-333
isch	-334
auf	-335
▁dich	-336
▁Und	-337
ßen	-338
he	-339
.‘	-340
▁ab	-341
▁nie	-342
ater	-343
▁nichts	-344
ger	-345
ges	-346
▁vo	-347
▁sei	-348
agen	-349
urch	-350
hen	-351
reu	-352
▁Herr	-353
▁mehr	-354
rie	-355
ahm	-356
▁zwei	-357
▁konnte	-358
rä	-359
▁seinen	-360
leich	-361
▁einmal	-362
▁kön	-363
▁unter	-364
igen	-365
tw	-366
▁rief	-367
▁stand	-368
▁haben	-369
imm	-370
▁schon	-371
▁bis	-372
▁dein	-373
▁wohl	-374
,“	-375
achen	-376
ange	-377
▁viel	-378
ru	-379
▁am	-380
▁schw	-381
lle	-382
▁fort	-383
.«	-384
▁durch	-385
▁Pf	-386
▁So	-387
ern	-388
▁Schw	-389
▁alles	-390
ige	-391
▁einer	-392
?“	-393
▁schl	-394
▁drei	-395
▁Vater	-396
bt	-397
was	-398
▁nahm	-399
▁wurde	-400
▁hei	-401
twor	-402
ähl	-403
▁seiner	-404
eute	-405
▁gl	-406
▁immer	-407
▁Sp	-408
utter	-409
äu	-410
▁et	-411
▁je	-412
▁Das	-413
▁O	-414
▁sel	-415
▁Aber	-416
▁seinem	-417
aum	-418
▁hät	-419
▁Prin	-420
pp	-421
▁fü	-422
!«	-423
che	-424
▁Es	-425
▁antwor	-426
▁gef	-427
ochter	-428
▁dies	-429
▁dar	-430
kommen	-431
ze	-432
bei	-433
ul	-434
elt	-435
▁Ko	-436
▁Schlo	-437
▁ihnen	-438
▁gesch	-439
amm	-440
bst	-441
▁fragte	-442
under	-443
▁etwas	-444
dchen	-445
▁ent	-446
▁Ihr	-447
▁wäre	-448
▁Hand	-449
▁Ka	-450
▁p	-451
ingen	-452
▁antwortete	-453
ank	-454
br	-455
▁werden	-456
ße	-457
zähl	-458
▁uns	-459
▁Augen	-460
▁Bl	-461
▁sp	-462
▁ja	-463
▁Gl	-464
orgen	-465
▁setz	-466
eld	-467
cken	-468
«,	-469
är	-470
sste	-471
ungen	-472
sse	-473
ad	-474
lten	-475
▁hör	-476
▁Men	-477
▁ihre	-478
Ich	-479
▁alte	-480
▁le	-481
erk	-482
▁sollte	-483
aß	-484
▁Wald	-485
▁gel	-486
▁dr	-487
▁hier	-488
ans	-489
▁ob	-490
▁andern	-491
▁Ver	-492
asser	-493
▁hätte	-494
▁gu	-495
mit	-496
üt	-497
▁Prinz	-498
tel	-499
▁mü	-500
end	-501
▁wel	-502
bar	-503
▁hast	-504
▁wird	-505
▁hinein	-506
▁oder	-507
▁br	-508
mann	-509
ehm	-510
▁lange	-511
og	-512
▁Nacht	-513
▁sehen	-514
bl	-515
▁Wasser	-516
▁gut	-517
▁erzähl	-518
est	-519
▁bin	-520
▁Mutter	-521
ert	-522
esen	-523
▁zw	-524
▁jetzt	-525
▁Zeit	-526
▁get	-527
▁gab	-528
▁weiter	-529
▁Mädchen	-530
▁Ich	-531
ess	-532
tern	-533
dlich	-534
▁selbst	-535
▁muß	-536
▁dachte	-537
▁meine	-538
än	-539
▁vers	-540
nt	-541
ahl	-542
na	-543
ün	-544
▁gar	-545
▁sind	-546
▁Herz	-547
nde	-548
unge	-549
lichen	-550
,‘	-551
assen	-552
▁hatten	-553
▁arm	-554
▁komm	-555
▁recht	-556
ckte	-557
eln	-558
alt	-559
bend	-560
▁gleich	-561
all	-562
▁Ho	-563
▁Ein	-564
sche	-565
▁weil	-566
erd	-567
▁ei	-568
tet	-569
▁sehr	-570
hne	-571
▁ins	-572
▁Wie	-573
gt	-574
lö	-575
▁Kopf	-576
▁zurück	-577
ling	-578
inder	-579
▁Leben	-580
üng	-581
▁damit	-582
▁sag	-583
unde	-584
bte	-585
ust	-586
▁machte	-587
itt	-588
ammen	-589
▁erw	-590
unden	-591
▁ward	-592
uhr	-593
alten	-594
▁heraus	-595
▁wen	-596
tes	-597
fe	-598
▁hinaus	-599
liche	-600
▁eu	-601
▁kamen	-602
▁Wei	-603
▁keine	-604
▁kleine	-605
▁Schloss	-606
▁voll	-607
▁Hause	-608
▁ihren	-609
itten	-610
▁An	-611
▁vom	-612
▁Männ	-613
sammen	-614
▁diese	-615
ohn	-616
▁darau	-617
“,	-618
ahren	-619
orden	-620
▁Welt	-621
▁setzte	-622
▁To	-623
▁Nun	-624
▁Gold	-625
llt	-626
ffen	-627
▁Bru	-628
▁bist	-629
ott	-630
▁Re	-631
ragen	-632
▁ließ	-633
ade	-634
▁gen	-635
▁reich	-636
dem	-637
▁Bet	-638
▁sonder	-639
vor	-640
äng	-641
ielt	-642
▁zog	-643
▁Leute	-644
uß	-645
▁Geld	-646
▁bald	-647
gte	-648
irt	-649
▁Fr	-650
▁Morgen	-651
▁machen	-652
▁dieser	-653
▁Ste	-654
ander	-655
aar	-656
fel	-657
nst	-658
▁zusammen	-659
▁endlich	-660
▁Hans	-661
▁gehen	-662
▁Kinder	-663
blick	-664
eister	-665
Das	-666
▁Ar	-667
▁Schl	-668
▁Menschen	-669
ht	-670
adt	-671
▁Weg	-672
immer	-673
▁dort	-674
▁andere	-675
?«	-676
▁kommen	-677
ied	-678
▁Kind	-679
ri	-680
▁euch	-681
▁bl	-682
geben	-683
▁versch	-684
sel	-685
▁hörte	-686
auer	-687
essin	-688
kam	-689
sst	-690
äch	-691
lt	-692
aft	-693
▁lang	-694
▁Gesch	-695
ühr	-696
ache	-697
▁darauf	-698
iger	-699
agt	-700
▁Freu	-701
▁Sohn	-702
▁Tage	-703
▁Am	-704
eter	-705
▁Be	-706
▁Schn	-707
▁fiel	-708
▁gerade	-709
unk	-710
▁Klei	-711
▁Prinzessin	-712
▁kleinen	-713
egte	-714
▁Son	-715
▁blie	-716
▁alten	-717
aufen	-718
▁ihrem	-719
von	-720
aten	-721
ller	-722
▁Stadt	-723
▁Tochter	-724
rö	-725
ast	-726
itte	-727
inn	-728
▁Abend	-729
Es	-730
geg	-731
▁Land	-732
▁verl	-733
▁Sold	-734
▁erst	-735
mand	-736
▁Jüng	-737
▁ersch	-738
▁Ro	-739
allen	-740
ren	-741
▁sagen	-742
sam	-743
▁Baum	-744
ack	-745
▁Hä	-746
hin	-747
äum	-748
heit	-749
ehmen	-750
▁liess	-751
▁ho	-752
▁groß	-753
üre	-754
▁Königst	-755
eine	-756
▁hinter	-757
ehe	-758
kt	-759
os	-760
▁Euch	-761
ke	-762
▁beiden	-763
ogen	-764
▁fand	-765
▁glau	-766
▁unser	-767
dig	-768
▁tat	-769
▁ohne	-770
▁großen	-771
is	-772
▁mö	-773
▁geb	-774
▁lag	-775
▁tun	-776
▁gewesen	-777
me	-778
nten	-779
▁ganze	-780
▁kl	-781
äger	-782
▁wür	-783
▁heim	-784
▁beg	-785
elte	-786
Was	-787
▁weit	-788
▁führ	-789
▁davon	-790
unter	-791
att	-792
▁fuhr	-793
chten	-794
olden	-795
▁eines	-796
▁wenig	-797
▁Bruder	-798
▁lassen	-799
▁Königstochter	-800
▁Jäger	-801
euer	-802
▁Un	-803
▁Dien	-804
▁trat	-805
▁Hau	-806
ahre	-807
ächt	-808
immel	-809
gleich	-810
atz	-811
▁hol	-812
▁Nach	-813
▁nieder	-814
wand	-815
▁jen	-816
len	-817
▁Du	-818
llten	-819
▁golden	-820
itz	-821
▁Mü	-822
ischen	-823
▁wollen	-824
▁niemand	-825
▁Rei	-826
▁Wol	-827
issen	-828
Ja	-829
lagen	-830
▁stie	-831
▁darin	-832
cher	-833
ochen	-834
▁sondern	-835
öl	-836
reich	-837
▁schlug	-838
keit	-839
▁Spr	-840
▁gem	-841
▁Alte	-842
▁geben	-843
▁schne	-844
▁Kna	-845
▁weg	-846
▁Se	-847
rot	-848
uchs	-849
▁verg	-850
olz	-851
▁Fl	-852
▁Arm	-853
uchen	-854
▁Gott	-855
▁Freude	-856
▁bet	-857
▁hielt	-858
▁musste	-859
▁Sei	-860
▁Tisch	-861
arten	-862
▁Stück	-863
▁könnte	-864
cke	-865
orn	-866
ringen	-867
▁sprang	-868
uh	-869
▁pr	-870
nete	-871
▁legte	-872
▁bef	-873
achten	-874
ogel	-875
▁Erde	-876
des	-877
erg	-878
▁Wirt	-879
▁gest	-880
▁Peter	-881
▁lief	-882
▁Gra	-883
▁allein	-884
Du	-885
▁erh	-886
▁Glas	-887
▁Stu	-888
▁neu	-889
▁Königin	-890
gef	-891
iff	-892
▁blei	-893
eider	-894
oren	-895
▁Türe	-896
undert	-897
▁Jüngling	-898
fte	-899
licher	-900
kann	-901
▁junge	-902
art	-903
fer	-904
▁erzählte	-905
gesch	-906
itter	-907
▁aller	-908
▁herum	-909
ler	-910
ider	-911
▁Teu	-912
enster	-913
▁ihrer	-914
▁Hö	-915
▁Rie	-916
▁Tür	-917
▁muss	-918
▁Br	-919
▁eben	-920
▁flo	-921
ähr	-922
▁we	-923
▁Teufel	-924
▁gingen	-925
▁schönen	-926
ört	-927
▁Dann	-928
▁große	-929
▁gesehen	-930
▁weiß	-931
▁also	-932
▁ganzen	-933
ppe	-934
▁fin	-935
anken	-936
▁fing	-937
▁kommt	-938
kte	-939
zeit	-940
▁Lei	-941
▁Jahre	-942
▁Pferd	-943
▁sonst	-944
▁Schneider	-945
eim	-946
einen	-947
reund	-948
▁vier	-949
schaft	-950
ere	-951
iser	-952
▁Wagen	-953
▁Fenster	-954
raten	-955
▁sol	-956
gehen	-957
▁Himmel	-958
▁können	-959
▁Fü	-960
▁Tier	-961
rechen	-962
▁Herzen	-963
▁schöne	-964
Ach	-965
▁Bo	-966
hlen	-967
▁trug	-968
▁werde	-969
▁wurden	-970
raut	-971
▁tot	-972
▁meinen	-973
▁wunder	-974
▁erf	-975
▁lieb	-976
ner	-977
▁Vogel	-978
ieb	-979
▁zei	-980
▁zer	-981
▁Wolf	-982
▁Glück	-983
▁Kü	-984
age	-985
▁beh	-986
▁lau	-987
▁gegen	-988
▁herab	-989
▁ü	-990
▁ber	-991
auber	-992
▁kannst	-993
▁sollst	-994
▁Ä	-995
stand	-996
▁still	-997
uer	-998
▁Mit	-999
▁meinem	-1000
▁hö	-1001
▁Bauer	-1002
us	-1003
▁Vor	-1004
▁hal	-1005
▁saß	-1006
▁hinauf	-1007
▁keinen	-1008
▁All	-1009
▁fol	-1010
▁blieb	-1011
frau	-1012
▁Dar	-1013
geh	-1014
zte	-1015
▁Hof	-1016
▁warf	-1017
▁Stein	-1018
▁stehen	-1019
▁Kleider	-1020
▁wollten	-1021
▁Brü	-1022
▁jungen	-1023
▁sagten	-1024
▁mußte	-1025
▁würde	-1026
ckt	-1027
lück	-1028
▁Man	-1029
▁Blum	-1030
▁Auf	-1031
we	-1032
▁dazu	-1033
▁Fuchs	-1034
amen	-1035
▁Bett	-1036
▁viele	-1037
▁welche	-1038
▁nä	-1039
▁Gef	-1040
▁Feuer	-1041
▁Kaiser	-1042
▁grü	-1043
dien	-1044
▁Stra	-1045
▁brau	-1046
▁schle	-1047
▁ä	-1048
rig	-1049
▁Gesicht	-1050
▁allen	-1051
▁Zimmer	-1052
▁kr	-1053
▁ro	-1054
▁Gew	-1055
▁schnell	-1056
aben	-1057
schl	-1058
▁Gem	-1059
▁Soldat	-1060
▁bö	-1061
iehen	-1062
▁schn	-1063
▁besch	-1064
zt	-1065
▁He	-1066
▁Ta	-1067
lter	-1068
▁Brüder	-1069
▁diesen	-1070
▁herein	-1071
▁schwar	-1072
▁brachte	-1073
sp	-1074
▁hü	-1075
ünsch	-1076
▁In	-1077
lafen	-1078
auen	-1079
▁geht	-1080
▁daran	-1081
▁gross	-1082
zer	-1083
ickte	-1084
▁frei	-1085
meister	-1086
▁lieber	-1087
▁schrie	-1088
als	-1089
▁fl	-1090
pfen	-1091
▁Frem	-1092
▁anderen	-1093
ßt	-1094
uhe	-1095
ichte	-1096
▁schien	-1097
oll	-1098
mals	-1099
ücken	-1100
▁Kauf	-1101
▁fest	-1102
▁hervor	-1103
▁geworden	-1104
inge	-1105
▁dan	-1106
▁hinab	-1107
mä	-1108
▁Ei	-1109
▁Ende	-1110
▁oben	-1111
▁Herrn	-1112
ist	-1113
ütte	-1114
itzen	-1115
▁trau	-1116
▁Schiff	-1117
▁sieben	-1118
ndlich	-1119
▁willst	-1120
ts	-1121
ehn	-1122
öff	-1123
ech	-1124
▁bat	-1125
▁los	-1126
ssohn	-1127
▁herr	-1128
eil	-1129
ßer	-1130
▁Kr	-1131
beit	-1132
▁Trau	-1133
aden	-1134
▁Jahr	-1135
▁deine	-1136
bald	-1137
▁eigen	-1138
▁gesagt	-1139
▁schwer	-1140
▁wu	-1141
ichter	-1142
▁Hund	-1143
▁tief	-1144
▁glück	-1145
▁Schwes	-1146
▁diesem	-1147
?‘	-1148
ob	-1149
▁Kl	-1150
▁gute	-1151
▁jeder	-1152
▁gekommen	-1153
so	-1154
ührt	-1155
▁wahr	-1156
Nun	-1157
für	-1158
weg	-1159
▁Braut	-1160
▁Stimm	-1161
▁Diener	-1162
▁meiner	-1163
▁Or	-1164
▁Ent	-1165
▁Ged	-1166
▁Kammer	-1167
▁besser	-1168
▁standen	-1169
arr	-1170
gend	-1171
▁Hü	-1172
bsch	-1173
▁Ung	-1174
▁oft	-1175
▁Wenn	-1176
pt	-1177
▁lei	-1178
▁arme	-1179
▁Schei	-1180
▁Me	-1181
haus	-1182
▁Gei	-1183
▁Doch	-1184
▁Schm	-1185
▁führte	-1186
▁Fel	-1187
ichen	-1188
▁Haar	-1189
bracht	-1190
▁Bes	-1191
ertig	-1192
änder	-1193
▁dabei	-1194
▁genug	-1195
▁sahen	-1196
▁Endlich	-1197
öpf	-1198
üss	-1199
▁Has	-1200
▁zwar	-1201
▁stieg	-1202
▁Arbeit	-1203
roh	-1204
▁kü	-1205
nis	-1206
uss	-1207
▁em	-1208
▁grö	-1209
essen	-1210
▁könne	-1211
▁darüber	-1212
ild	-1213
reck	-1214
▁fün	-1215
kla	-1216
lau	-1217
sehen	-1218
▁Jung	-1219
▁freu	-1220
▁verw	-1221
▁gehört	-1222
ehrte	-1223
tlich	-1224
▁Holz	-1225
▁neben	-1226
▁anders	-1227
▁finden	-1228
üh	-1229
ell	-1230
eiten	-1231
▁drau	-1232
▁einz	-1233
▁Junge	-1234
▁gi	-1235
▁Geb	-1236
▁Ger	-1237
äuber	-1238
▁star	-1239
rieden	-1240
▁kleines	-1241
▁e	-1242
▁El	-1243
▁Pfer	-1244
▁Wein	-1245
▁zwöl	-1246
▁Schne	-1247
▁fertig	-1248
ap	-1249
pfte	-1250
▁gek	-1251
▁Hoch	-1252
▁Zwei	-1253
▁daher	-1254
▁schau	-1255
nden	-1256
uchte	-1257
▁Knabe	-1258
▁beide	-1259
▁erblick	-1260
ik	-1261
nü	-1262
hle	-1263
▁Tod	-1264
gegen	-1265
▁Feld	-1266
▁Schul	-1267
▁Tages	-1268
▁seines	-1269
▁erwider	-1270
ften	-1271
klav	-1272
▁Tor	-1273
lassen	-1274
▁Sklav	-1275
▁leben	-1276
▁Stimme	-1277
▁Königssohn	-1278
▁sprachen	-1279
ieren	-1280
▁beim	-1281
▁getan	-1282
▁solle	-1283
▁konnten	-1284
▁Männchen	-1285
wo	-1286
men	-1287
Wenn	-1288
▁Gro	-1289
▁Krä	-1290
elfen	-1291
iefen	-1292
▁wusste	-1293
▁erwiderte	-1294
ha	-1295
wie	-1296
▁geg	-1297
annen	-1298
erkte	-1299
▁aufs	-1300
▁wein	-1301
▁Fisch	-1302
▁welch	-1303
▁Gr	-1304
▁Kn	-1305
▁Brot	-1306
▁herbei	-1307
▁möchte	-1308
▁müssen	-1309
geb	-1310
▁Pl	-1311
▁Schr	-1312
▁Klein	-1313
▁dafür	-1314
▁bleiben	-1315
▁,	-1316
uft	-1317
▁hä	-1318
▁Schla	-1319
▁gemacht	-1320
▁grossen	-1321
▁erzählen	-1322
▁Bär	-1323
▁Bür	-1324
▁Sonne	-1325
ock	-1326
▁Al	-1327
komm	-1328
▁Wal	-1329
▁übr	-1330
▁Lust	-1331
▁letz	-1332
▁Darauf	-1333
▁Räuber	-1334
▁prächt	-1335
▁Hir	-1336
▁Kir	-1337
chter	-1338
gessen	-1339
▁We	-1340
ucht	-1341
▁heute	-1342
▁bringen	-1343
▁Kaufmann	-1344
▁goldenen	-1345
▁’	-1346
schw	-1347
▁Ang	-1348
▁verk	-1349
liches	-1350
▁erste	-1351
▁gerne	-1352
▁wolle	-1353
bel	-1354
det	-1355
▁Ne	-1356
inger	-1357
zogen	-1358
▁Hals	-1359
▁eins	-1360
▁Haupt	-1361
▁spiel	-1362
▁umher	-1363
▁Garten	-1364
▁Stunde	-1365
▁Hochzeit	-1366
So	-1367
Nein	-1368
unger	-1369
▁seid	-1370
▁Mensch	-1371
▁Zauber	-1372
▁Zw	-1373
▁zuf	-1374
▁Berg	-1375
▁flog	-1376
▁Spiel	-1377
▁Scheik	-1378
▁dritten	-1379
▁Jungfrau	-1380
net	-1381
▁Tro	-1382
▁wuß	-1383
▁hoch	-1384
▁sass	-1385
▁ersten	-1386
iß	-1387
die	-1388
ult	-1389
dern	-1390
teten	-1391
▁nehmen	-1392
▁schlief	-1393
get	-1394
öhn	-1395
▁Häu	-1396
▁anf	-1397
zlich	-1398
▁sech	-1399
▁essen	-1400
▁guten	-1401
▁Königs	-1402
▁einige	-1403
▁liegen	-1404
abt	-1405
urm	-1406
▁best	-1407
▁erlö	-1408
▁ged	-1409
▁fünf	-1410
▁weiss	-1411
▁pf	-1412
teil	-1413
▁Dor	-1414
▁läng	-1415
▁tanz	-1416
▁wissen	-1417
egt	-1418
▁Mo	-1419
rich	-1420
▁Spie	-1421
ziehen	-1422
▁Boden	-1423
▁Stief	-1424
▁helfen	-1425
▁zweite	-1426
▁	-1427
ahe	-1428
iss	-1429
ßte	-1430
werk	-1431
▁hundert	-1432
agd	-1433
▁Dr	-1434
▁Tre	-1435
▁rei	-1436
iges	-1437
▁bew	-1438
▁hie	-1439
▁Wort	-1440
▁jeden	-1441
▁Prinzen	-1442
▁sollten	-1443
das	-1444
loß	-1445
▁Vö	-1446
▁bekommen	-1447
alb	-1448
ffe	-1449
▁Ja	-1450
hnen	-1451
▁Mar	-1452
▁öff	-1453
▁langen	-1454
zw	-1455
gew	-1456
▁Le	-1457
gest	-1458
setz	-1459
halten	-1460
▁Jahren	-1461
▁Meister	-1462
▁glaubte	-1463
Wo	-1464
▁Kat	-1465
ennen	-1466
▁Gest	-1467
▁habt	-1468
▁vorn	-1469
▁Essen	-1470
▁Unter	-1471
▁zwölf	-1472
▁verspr	-1473
du	-1474
äug	-1475
▁Lö	-1476
▁Sa	-1477
▁ans	-1478
▁gern	-1479
▁Hände	-1480
▁wirst	-1481
▁freund	-1482
▁meinte	-1483
eug	-1484
uck	-1485
▁Te	-1486
ugen	-1487
▁Lie	-1488
▁Sult	-1489
▁auss	-1490
▁vorbei	-1491
▁worden	-1492
üssel	-1493
▁lass	-1494
▁indem	-1495
▁wären	-1496
▁Augenblick	-1497
Sie	-1498
ele	-1499
▁Dam	-1500
▁feh	-1501
▁Meer	-1502
▁dunk	-1503
▁Schloß	-1504
▁verste	-1505
einander	-1506
▁Fe	-1507
▁Kä	-1508
pfel	-1509
ehren	-1510
▁dick	-1511
▁Rücken	-1512
▁zeigte	-1513
err	-1514
urz	-1515
▁ar	-1516
ppen	-1517
▁hab	-1518
eiden	-1519
▁Luft	-1520
äuglein	-1521
▁gegeben	-1522
▁Hex	-1523
ochte	-1524
ückte	-1525
▁Wind	-1526
▁paar	-1527
▁Seite	-1528
▁armen	-1529
▁bekam	-1530
▁glücklich	-1531
Die	-1532
bten	-1533
▁begeg	-1534
▁keiner	-1535
▁sitzen	-1536
▁he	-1537
▁Kun	-1538
▁ster	-1539
▁Alles	-1540
▁dahin	-1541
▁holen	-1542
▁Ohr	-1543
▁Was	-1544
▁ung	-1545
innen	-1546
▁heil	-1547
▁tragen	-1548
usik	-1549
▁wil	-1550
ichel	-1551
lossen	-1552
▁Gemahl	-1553
▁Pferde	-1554
Wie	-1555
inde	-1556
uten	-1557
▁erg	-1558
mutter	-1559
▁Stube	-1560
▁Walde	-1561
▁wußte	-1562
▁schöner	-1563
▁stellte	-1564
▁zufrieden	-1565
Ein	-1566
ver	-1567
▁Wor	-1568
glich	-1569
kannte	-1570
▁Licht	-1571
▁schen	-1572
▁Männer	-1573
▁folgen	-1574
▁entgegen	-1575
▁gegangen	-1576
▁Schwester	-1577
fin	-1578
rat	-1579
zig	-1580
▁dür	-1581
ilber	-1582
▁musst	-1583
▁hätten	-1584
▁Geschichte	-1585
▁Bü	-1586
tein	-1587
▁Tal	-1588
▁frem	-1589
▁jener	-1590
▁Riesen	-1591
gegangen	-1592
etter	-1593
ssten	-1594
▁kaum	-1595
▁liegt	-1596
▁halten	-1597
▁Soldaten	-1598
kel	-1599
schm	-1600
▁Pet	-1601
▁ruh	-1602
▁Leib	-1603
▁Saal	-1604
▁grau	-1605
▁vern	-1606
▁hören	-1607
▁steht	-1608
▁Schlaf	-1609
▁dieses	-1610
▁grosse	-1611
▁Unglück	-1612
▁traurig	-1613
ker	-1614
▁Zu	-1615
agten	-1616
esser	-1617
▁acht	-1618
▁jüng	-1619
ausend	-1620
▁erblickte	-1621
dete	-1622
▁Not	-1623
▁Ring	-1624
eher	-1625
fall	-1626
▁Rat	-1627
▁Trä	-1628
affen	-1629
annte	-1630
▁währ	-1631
▁lebte	-1632
▁Tannen	-1633
▁dritte	-1634
▁Sklaven	-1635
del	-1636
tem	-1637
▁hing	-1638
schein	-1639
▁Sultan	-1640
▁weinte	-1641
▁herunter	-1642
▁sogleich	-1643
rus	-1644
▁ko	-1645
Aber	-1646
ernt	-1647
▁wor	-1648
▁darf	-1649
ehrt	-1650
uche	-1651
▁Gerd	-1652
▁verb	-1653
▁deinen	-1654
▁Gestalt	-1655
▁	-1656
ärm	-1657
▁Mal	-1658
▁bem	-1659
▁Mein	-1660
▁krie	-1661
▁ritt	-1662
▁seit	-1663
rinken	-1664
▁Riese	-1665
▁Treppe	-1666
▁sterben	-1667
▁geschehen	-1668
letzt	-1669
▁Also	-1670
selben	-1671
▁darum	-1672
▁unten	-1673
▁suchen	-1674
▁steckte	-1675
Der	-1676
hst	-1677
halb	-1678
ügel	-1679
orben	-1680
▁Höhe	-1681
▁Tanz	-1682
▁treu	-1683
▁Reich	-1684
▁Vögel	-1685
▁wollt	-1686
▁Blumen	-1687
▁gehabt	-1688
▁leicht	-1689
▁sollen	-1690
▁Männlein	-1691
löt	-1692
wen	-1693
▁Bei	-1694
▁klo	-1695
▁Hexe	-1696
▁Gerda	-1697
▁Petrus	-1698
Ei	-1699
▁ru	-1700
erte	-1701
uren	-1702
▁Fre	-1703
▁wirk	-1704
▁alter	-1705
▁Tasche	-1706
▁merkte	-1707
▁zuletzt	-1708
▁öffnete	-1709
▁sprechen	-1710
if	-1711
▁Tr	-1712
▁jem	-1713
ielle	-1714
▁Ruhe	-1715
▁Namen	-1716
▁Schön	-1717
▁holte	-1718
gekommen	-1719
▁welcher	-1720
ielleicht	-1721
▁Wo	-1722
aber	-1723
haft	-1724
▁Bur	-1725
▁Mär	-1726
▁rau	-1727
▁Bäum	-1728
▁sechs	-1729
▁zogen	-1730
▁Schnee	-1731
▁mitten	-1732
▁kleiner	-1733
▁verlang	-1734
eut	-1735
▁mi	-1736
erst	-1737
necht	-1738
▁Sack	-1739
▁böse	-1740
▁näch	-1741
igkeit	-1742
▁Musik	-1743
▁grünen	-1744
▁suchte	-1745
▁schreck	-1746
bur	-1747
ret	-1748
oten	-1749
▁Bau	-1750
▁hob	-1751
▁macht	-1752
bringen	-1753
▁großer	-1754
▁schaute	-1755
▁Gedanken	-1756
▁gefunden	-1757
öh	-1758
ant	-1759
ase	-1760
▁,,	-1761
hlte	-1762
nung	-1763
▁Eng	-1764
▁erk	-1765
eisen	-1766
▁Groß	-1767
▁Mund	-1768
▁Kleid	-1769
▁statt	-1770
▁Bürger	-1771
▁Finger	-1772
▁Lebens	-1773
▁Müller	-1774
▁herauf	-1775
▁jemand	-1776
lötzlich	-1777
Sch	-1778
eht	-1779
änd	-1780
▁Ju	-1781
▁kä	-1782
ickt	-1783
▁ums	-1784
atter	-1785
mlich	-1786
▁neue	-1787
nehmen	-1788
▁Blume	-1789
▁jedem	-1790
▁Straße	-1791
▁deinem	-1792
!‘	-1793
▁(	-1794
ennt	-1795
mmen	-1796
riff	-1797
▁bel	-1798
▁gehe	-1799
▁älte	-1800
▁Klaus	-1801
▁Tiere	-1802
▁Mantel	-1803
▁lachte	-1804
▁selber	-1805
▁verloren	-1806
!	-1807
Da	-1808
auft	-1809
ingt	-1810
ische	-1811
▁glän	-1812
▁lust	-1813
▁Hunde	-1814
▁Fremde	-1815
qu	-1816
▁C	-1817
ahn	-1818
inter	-1819
schte	-1820
▁betr	-1821
▁verf	-1822
▁könnt	-1823
▁erschra	-1824
▁sonderbar	-1825
oh	-1826
aul	-1827
ett	-1828
▁Um	-1829
elle	-1830
wenn	-1831
▁Den	-1832
▁Hut	-1833
▁Kam	-1834
anden	-1835
stein	-1836
unnen	-1837
▁Dorf	-1838
▁verh	-1839
▁verz	-1840
▁morgen	-1841
▁Märchen	-1842
▁während	-1843
▁schlafen	-1844
ak	-1845
ören	-1846
▁alt	-1847
ienen	-1848
▁empf	-1849
▁fein	-1850
▁laut	-1851
▁nimm	-1852
▁Absch	-1853
▁abend	-1854
▁Eltern	-1855
▁Ritter	-1856
▁Vaters	-1857
▁Stunden	-1858
▁zwischen	-1859
▁wü	-1860
berg	-1861
gten	-1862
ücke	-1863
acken	-1864
scher	-1865
recken	-1866
▁Jetzt	-1867
▁beste	-1868
▁näher	-1869
spr	-1870
cker	-1871
klei	-1872
lang	-1873
▁Fuß	-1874
▁Gän	-1875
▁Wun	-1876
könig	-1877
▁Bein	-1878
▁Koch	-1879
ichtig	-1880
liegen	-1881
▁Angst	-1882
▁Wirts	-1883
▁riefen	-1884
▁fürchte	-1885
ho	-1886
ump	-1887
ftig	-1888
ging	-1889
wind	-1890
▁mag	-1891
euten	-1892
urcht	-1893
▁Nase	-1894
▁Zinn	-1895
▁sagt	-1896
▁schm	-1897
rocken	-1898
▁müsse	-1899
▁Jungen	-1900
▁Stelle	-1901
▁länger	-1902
▁wünsch	-1903
▁verwand	-1904
▁gebracht	-1905
▁hinunter	-1906
dr	-1907
▁Nä	-1908
▁ra	-1909
annt	-1910
heim	-1911
utig	-1912
▁Ber	-1913
▁Grä	-1914
▁ehe	-1915
▁könig	-1916
▁Hirsch	-1917
▁Knaben	-1918
▁Schwar	-1919
▁goldene	-1920
hol	-1921
ehte	-1922
männ	-1923
durch	-1924
reten	-1925
ärger	-1926
▁Ofen	-1927
ielten	-1928
öchter	-1929
▁Beine	-1930
▁ruhig	-1931
▁Sprach	-1932
▁freundlich	-1933
Und	-1934
arf	-1935
▁De	-1936
▁Mu	-1937
aßen	-1938
sold	-1939
▁Ker	-1940
▁Wir	-1941
▁frü	-1942
▁gibt	-1943
▁müde	-1944
▁liebe	-1945
▁warum	-1946
▁Wunsch	-1947
▁gewalt	-1948
▁Abschied	-1949
Ihr	-1950
hre	-1951
unken	-1952
rieben	-1953
▁Sonnen	-1954
▁plötzlich	-1955
▁vergessen	-1956
im	-1957
öt	-1958
▁ir	-1959
ings	-1960
viel	-1961
▁Str	-1962
▁Uhr	-1963
ichten	-1964
▁Alten	-1965
▁großes	-1966
▁lieben	-1967
▁meines	-1968
▁Schwein	-1969
▁erkannte	-1970
ix	-1971
▁Ha	-1972
▁Wä	-1973
ande	-1974
itze	-1975
▁Pro	-1976
elten	-1977
▁Teil	-1978
▁Weib	-1979
▁fast	-1980
reiben	-1981
▁Brust	-1982
▁Traum	-1983
▁mitein	-1984
▁welches	-1985
▁Schlosse	-1986
▁miteinander	-1987
▁el	-1988
▁te	-1989
Mein	-1990
▁Aus	-1991
▁bez	-1992
ellen	-1993
onder	-1994
▁froh	-1995
▁stür	-1996
▁besten	-1997
▁verschw	-1998
▁herrlich	-1999
▁vielleicht	-2000
iet	-2001
▁Eu	-2002
anke	-2003
▁Grü	-2004
▁Holl	-2005
▁anzu	-2006
▁verm	-2007
▁guter	-2008
▁jedes	-2009
▁deiner	-2010
▁singen	-2011
▁Schwert	-2012
▁verdien	-2013
fl	-2014
wer	-2015
baum	-2016
ossen	-2017
▁Graf	-2018
▁Platz	-2019
▁Tagen	-2020
▁lagen	-2021
▁ärger	-2022
▁fühlte	-2023
▁gefiel	-2024
▁liefen	-2025
schlagen	-2026
▁Zinnsold	-2027
▁Bürgermeister	-2028
ers	-2029
▁Bar	-2030
▁Frü	-2031
Jetzt	-2032
▁halb	-2033
▁sang	-2034
leisch	-2035
▁betrü	-2036
▁roten	-2037
▁Kleine	-2038
▁vergnü	-2039
▁geschah	-2040
ahlen	-2041
▁Arme	-2042
▁Gast	-2043
achsen	-2044
▁allem	-2045
▁außer	-2046
▁gespr	-2047
▁heran	-2048
▁zuvor	-2049
▁Freund	-2050
▁Brunnen	-2051
▁Freunde	-2052
▁Nachbar	-2053
▁schönes	-2054
▁erschrak	-2055
wär	-2056
zug	-2057
öpfe	-2058
ückt	-2059
▁Blut	-2060
fallen	-2061
▁Kunst	-2062
▁Reise	-2063
▁armer	-2064
▁eilte	-2065
▁Abends	-2066
▁Hunger	-2067
▁Fremden	-2068
▁hinüber	-2069
▁setzten	-2070
▁Handwerk	-2071
▁wirklich	-2072
▁Wirtshaus	-2073
one	-2074
ager	-2075
alte	-2076
wohl	-2077
▁Kör	-2078
stlich	-2079
▁Küche	-2080
▁Rosen	-2081
▁wegen	-2082
schmied	-2083
▁fielen	-2084
▁letzten	-2085
▁machten	-2086
▁zweiten	-2087
▁Schneiderlein	-2088
zten	-2089
ällt	-2090
üllt	-2091
bchen	-2092
▁Däum	-2093
▁Esel	-2094
▁Kreu	-2095
reiber	-2096
setzen	-2097
▁Bären	-2098
▁komme	-2099
▁Herren	-2100
▁erlöst	-2101
▁setzen	-2102
uld	-2103
egel	-2104
icken	-2105
ummer	-2106
ängen	-2107
üster	-2108
▁Bart	-2109
▁höch	-2110
▁Seele	-2111
▁seien	-2112
▁Kirche	-2113
▁freute	-2114
▁gesund	-2115
▁rechte	-2116
▁Nachtig	-2117
▁reichen	-2118
▁schütte	-2119
▁gehalten	-2120
▁verlassen	-2121
bet	-2122
gem	-2123
▁Ab	-2124
Herr	-2125
weil	-2126
ücht	-2127
▁Tau	-2128
▁tra	-2129
▁zie	-2130
wärts	-2131
▁Somm	-2132
▁Wege	-2133
▁gebe	-2134
▁wand	-2135
▁ihres	-2136
▁Gesell	-2137
▁Schatz	-2138
▁gewöhn	-2139
▁zuerst	-2140
▁Entlein	-2141
▁klopfte	-2142
▁rechten	-2143
▁tausend	-2144
mt	-2145
gst	-2146
olk	-2147
▁Do	-2148
eren	-2149
scht	-2150
urst	-2151
▁Art	-2152
▁Gel	-2153
▁See	-2154
▁wär	-2155
ackte	-2156
▁Will	-2157
▁sehe	-2158
▁Sache	-2159
▁wohin	-2160
▁vornehm	-2161
▁nächsten	-2162
▁versprach	-2163
Wir	-2164
eid	-2165
▁Kö	-2166
arum	-2167
loss	-2168
onst	-2169
▁Gen	-2170
atten	-2171
▁Auge	-2172
▁Bald	-2173
▁Dort	-2174
▁Edel	-2175
▁fröh	-2176
lieben	-2177
▁Liebe	-2178
▁Zwerg	-2179
▁arbei	-2180
▁Silber	-2181
▁Tränen	-2182
▁betrachte	-2183
ags	-2184
aut	-2185
ink	-2186
oss	-2187
doch	-2188
hnte	-2189
▁Brä	-2190
▁las	-2191
kannt	-2192
ulden	-2193
▁gutes	-2194
▁offen	-2195
▁abends	-2196
▁kehrte	-2197
▁sicher	-2198
▁vielen	-2199
lichkeit	-2200
▁heilige	-2201
▁besonder	-2202
▁wunderbar	-2203
Er	-2204
▁Ü	-2205
mme	-2206
ses	-2207
üch	-2208
▁Wer	-2209
▁Euer	-2210
reckte	-2211
▁Hütte	-2212
▁Nicht	-2213
▁Toten	-2214
▁schlä	-2215
gezogen	-2216
▁Gräfin	-2217
▁dessen	-2218
▁fallen	-2219
▁überall	-2220
▁übrigen	-2221
▁schickte	-2222
amt	-2223
mte	-2224
▁lä	-2225
▁Flö	-2226
▁Gna	-2227
▁Pal	-2228
▁bed	-2229
legen	-2230
recht	-2231
▁Ecke	-2232
▁Heim	-2233
▁sage	-2234
▁verd	-2235
▁brach	-2236
▁Leuten	-2237
▁reichte	-2238
▁Nachtigall	-2239
flo	-2240
sal	-2241
raft	-2242
▁Anf	-2243
▁Dem	-2244
▁Fla	-2245
▁tut	-2246
▁win	-2247
leute	-2248
▁Scha	-2249
▁nahe	-2250
▁satt	-2251
euchte	-2252
▁Dinge	-2253
▁Sonnt	-2254
▁Taler	-2255
▁deshalb	-2256
▁Schlüssel	-2257
▁Gesellschaft	-2258
▁verschwunden	-2259
bo	-2260
ottes	-2261
raben	-2262
uldig	-2263
wegen	-2264
▁Dank	-2265
▁Denn	-2266
▁Lohn	-2267
▁Mitt	-2268
▁Pfei	-2269
▁bein	-2270
▁drin	-2271
▁gold	-2272
▁Eines	-2273
▁Engel	-2274
▁Haare	-2275
▁Hasen	-2276
▁Katze	-2277
▁mächt	-2278
▁Knecht	-2279
▁denken	-2280
▁früher	-2281
▁hübsch	-2282
▁laufen	-2283
▁lauter	-2284
▁Schmied	-2285
▁Spiegel	-2286
▁Stiefel	-2287
▁Töchter	-2288
▁jüngste	-2289
▁schlecht	-2290
▁vergnügt	-2291
äd	-2292
erz	-2293
enne	-2294
erne	-2295
iche	-2296
iert	-2297
will	-2298
▁Amt	-2299
▁Gal	-2300
▁Kal	-2301
▁Kar	-2302
▁ehr	-2303
▁fro	-2304
anzig	-2305
schön	-2306
▁Grab	-2307
▁Kerl	-2308
▁Schu	-2309
fahren	-2310
reiten	-2311
tragen	-2312
vatter	-2313
▁denen	-2314
▁trank	-2315
▁übrig	-2316
▁unsere	-2317
▁draußen	-2318
▁grosser	-2319
▁mussten	-2320
▁abermals	-2321
▁folgenden	-2322
▁Bu	-2323
▁Bö	-2324
▁Ke	-2325
▁ne	-2326
itzt	-2327
▁Mut	-2328
▁wün	-2329
▁aufh	-2330
▁Bäume	-2331
▁Worte	-2332
▁verst	-2333
▁Bauern	-2334
▁Keller	-2335
▁dankte	-2336
▁lustig	-2337
▁packte	-2338
▁vorher	-2339
genommen	-2340
▁gelernt	-2341
▁Königreich	-2342
abe	-2343
voll	-2344
▁Zug	-2345
inken	-2346
▁Zorn	-2347
▁Lande	-2348
▁hinzu	-2349
▁Händen	-2350
▁Messer	-2351
gebracht	-2352
▁anderes	-2353
▁drückte	-2354
▁hielten	-2355
▁nämlich	-2356
▁Häuschen	-2357
hof	-2358
ühl	-2359
▁Sä	-2360
▁sä	-2361
orch	-2362
sser	-2363
äter	-2364
▁Kay	-2365
stens	-2366
▁Fest	-2367
▁kurz	-2368
▁rein	-2369
▁Bette	-2370
▁Mitte	-2371
▁Ohren	-2372
▁Pfarr	-2373
▁erhob	-2374
▁ernst	-2375
▁stark	-2376
▁trieb	-2377
▁fragen	-2378
▁schwarz	-2379
▁trinken	-2380
▁einander	-2381
▁erwachte	-2382
▁gefallen	-2383
▁gestorben	-2384
▁schüttelte	-2385
ält	-2386
abak	-2387
räum	-2388
ängt	-2389
asste	-2390
ohlen	-2391
orfen	-2392
▁Arzt	-2393
▁Kaum	-2394
▁Weil	-2395
▁jung	-2396
▁Über	-2397
▁Stall	-2398
▁Kohlen	-2399
▁bleibt	-2400
▁kommst	-2401
▁schlie	-2402
▁solche	-2403
▁weinen	-2404
▁zeigen	-2405
▁unglück	-2406
▁Gesellen	-2407
▁allerlei	-2408
▁Holländer	-2409
▁Schrecken	-2410
da	-2411
fr	-2412
aub	-2413
euf	-2414
häu	-2415
igt	-2416
olt	-2417
arte	-2418
eise	-2419
ffer	-2420
reis	-2421
zwei	-2422
▁Ind	-2423
▁Grün	-2424
▁Loch	-2425
▁Stir	-2426
▁zehn	-2427
stehen	-2428
▁Armen	-2429
▁Damit	-2430
▁Felix	-2431
▁Neffe	-2432
▁erlau	-2433
hundert	-2434
▁Gottes	-2435
▁fanden	-2436
▁nahmen	-2437
▁Drachen	-2438
▁schwarzen	-2439
ka	-2440
Wer	-2441
ieg	-2442
str	-2443
iegen	-2444
tellt	-2445
▁Blät	-2446
▁Hase	-2447
▁Mond	-2448
▁Mühe	-2449
▁Tuch	-2450
▁Wahr	-2451
utigam	-2452
▁Berge	-2453
▁Hölle	-2454
▁gewiß	-2455
▁versp	-2456
gesehen	-2457
mädchen	-2458
▁hörten	-2459
▁jedoch	-2460
▁alsbald	-2461
▁beinahe	-2462
▁vorüber	-2463
▁Bräutigam	-2464
▁begegnete	-2465
——	-2466
▁Hu	-2467
▁Sö	-2468
eist	-2469
äfer	-2470
ände	-2471
▁Geh	-2472
▁häß	-2473
boden	-2474
deten	-2475
ustap	-2476
▁Volk	-2477
▁band	-2478
▁bede	-2479
▁früh	-2480
▁schr	-2481
▁Menge	-2482
▁schme	-2483
uhrmann	-2484
▁Gewalt	-2485
▁Sommer	-2486
▁Stücke	-2487
▁Wunder	-2488
▁befahl	-2489
▁lachen	-2490
▁anderer	-2491
▁Schlange	-2492
▁erschien	-2493
▁freilich	-2494
▁Schwestern	-2495
opf	-2496
▁Gu	-2497
erkt	-2498
nach	-2499
▁Beg	-2500
▁ass	-2501
twort	-2502
ühren	-2503
▁Gras	-2504
▁Hier	-2505
▁Hühn	-2506
▁Jagd	-2507
▁Krie	-2508
▁Munk	-2509
▁half	-2510
▁hung	-2511
▁hiess	-2512
▁sieht	-2513
▁drehte	-2514
▁ebenso	-2515
▁entgeg	-2516
▁führen	-2517
▁mochte	-2518
▁tanzen	-2519
▁Richter	-2520
▁älteste	-2521
▁niedlich	-2522
Oh	-2523
oß	-2524
üm	-2525
off	-2526
zehn	-2527
▁Pap	-2528
▁emp	-2529
Guten	-2530
▁Ober	-2531
▁Ster	-2532
▁Ufer	-2533
▁aufm	-2534
▁jene	-2535
▁läch	-2536
▁Apfel	-2537
▁Schal	-2538
▁Weile	-2539
▁weder	-2540
▁Dienst	-2541
▁Koffer	-2542
▁Seiten	-2543
▁daraus	-2544
▁flogen	-2545
▁frisch	-2546
▁gelegt	-2547
▁Freuden	-2548
▁welchem	-2549
▁gesprochen	-2550
gek	-2551
orb	-2552
äser	-2553
▁pfl	-2554
anzen	-2555
falls	-2556
holen	-2557
▁Hofd	-2558
▁Verw	-2559
▁Beute	-2560
▁Manne	-2561
▁Mühle	-2562
▁altes	-2563
▁wider	-2564
ustapha	-2565
▁Felsen	-2566
▁Schick	-2567
▁junger	-2568
männlein	-2569
▁schnitt	-2570
▁gewaltig	-2571
▁entgegnete	-2572
ph	-2573
xt	-2574
ord	-2575
▁Su	-2576
angs	-2577
schn	-2578
▁Gre	-2579
▁Kut	-2580
ister	-2581
▁Haut	-2582
▁Rose	-2583
▁wohn	-2584
ächter	-2585
▁Brief	-2586
▁worin	-2587
▁Michel	-2588
▁Storch	-2589
▁bekomm	-2590
▁ziehen	-2591
▁Antwort	-2592
▁Kleinen	-2593
▁geführt	-2594
▁glauben	-2595
▁schwarze	-2596
▁prächtigen	-2597
zei	-2598
▁hu	-2599
▁tu	-2600
aßte	-2601
iene	-2602
reif	-2603
ßten	-2604
äuer	-2605
▁dur	-2606
▁Lieb	-2607
▁Wand	-2608
▁gesp	-2609
Michel	-2610
▁neuen	-2611
▁saßen	-2612
▁Mannes	-2613
▁Studen	-2614
▁gelang	-2615
▁wilden	-2616
▁langsam	-2617
▁spielen	-2618
▁Fuhrmann	-2619
▁Gemahlin	-2620
▁Schritte	-2621
▁erhalten	-2622
▁gegessen	-2623
▁verstand	-2624
▁Schicksal	-2625
pe	-2626
los	-2627
wür	-2628
▁Sü	-2629
▁kn	-2630
▁pl	-2631
ieht	-2632
llig	-2633
onnen	-2634
▁Korn	-2635
eichen	-2636
kehren	-2637
▁Löwen	-2638
▁Lustig	-2639
▁Schuhe	-2640
▁daheim	-2641
▁wohnte	-2642
▁glänzen	-2643
▁Mustapha	-2644
▁anfangen	-2645
▁streckte	-2646
tr	-2647
gar	-2648
▁Ur	-2649
onen	-2650
äste	-2651
▁Ach	-2652
▁leg	-2653
aufte	-2654
ckten	-2655
ohann	-2656
zchen	-2657
▁Auch	-2658
▁Eure	-2659
▁mußt	-2660
▁Eisen	-2661
▁Füßen	-2662
▁dauer	-2663
▁gaben	-2664
▁Flügel	-2665
▁fahren	-2666
▁fuhren	-2667
▁nimmer	-2668
▁verlie	-2669
▁Fleisch	-2670
▁Grünwie	-2671
▁einzige	-2672
▁Schwarzw	-2673
▁Zauberer	-2674
▁fröhlich	-2675
▁genommen	-2676
▁wünschte	-2677
▁Schönheit	-2678
▁schönsten	-2679
kä	-2680
app	-2681
elm	-2682
ieh	-2683
aren	-2684
eint	-2685
ktor	-2686
oben	-2687
▁bot	-2688
räumt	-2689
▁Löwe	-2690
▁Rock	-2691
▁Blick	-2692
▁Geist	-2693
▁Krieg	-2694
▁Stock	-2695
▁Teich	-2696
▁angel	-2697
▁hohen	-2698
▁höher	-2699
▁Bedien	-2700
▁Erzähl	-2701
▁Gretel	-2702
▁begann	-2703
▁damals	-2704
▁einsam	-2705
▁entsch	-2706
▁fasste	-2707
▁müsste	-2708
▁vollen	-2709
▁blieben	-2710
▁geträumt	-2711
▁fürchtete	-2712
ud	-2713
put	-2714
rän	-2715
öst	-2716
▁de	-2717
Will	-2718
anne	-2719
igem	-2720
isse	-2721
▁Alm	-2722
▁Eur	-2723
▁Ente	-2724
▁Füße	-2725
▁Magd	-2726
▁Paar	-2727
▁Topf	-2728
▁eher	-2729
▁entf	-2730
▁leer	-2731
▁Gnade	-2732
▁Lager	-2733
▁einzu	-2734
▁genau	-2735
▁Aschen	-2736
▁Doktor	-2737
▁Frauen	-2738
▁größer	-2739
▁fragten	-2740
▁welchen	-2741
▁Gevatter	-2742
▁eingesch	-2743
▁verwünsch	-2744
Qu	-2745
mö	-2746
irr	-2747
pft	-2748
ärt	-2749
abel	-2750
elin	-2751
hand	-2752
herr	-2753
igte	-2754
stet	-2755
zech	-2756
▁Kuh	-2757
▁Alle	-2758
▁Dumm	-2759
▁blau	-2760
▁jede	-2761
▁neun	-2762
▁zorn	-2763
▁aufzu	-2764
▁empor	-2765
▁Dieser	-2766
▁erstau	-2767
▁fremde	-2768
▁glaube	-2769
▁hängen	-2770
▁kannte	-2771
▁würden	-2772
▁blickte	-2773
▁gesetzt	-2774
▁heimlich	-2775
▁geschwind	-2776
▁betrachtete	-2777
az	-2778
örn	-2779
▁Je	-2780
▁tö	-2781
▁fal	-2782
▁for	-2783
spiel	-2784
▁Zeug	-2785
▁gele	-2786
▁hieß	-2787
▁seuf	-2788
▁vert	-2789
schlag	-2790
schwab	-2791
▁Ezech	-2792
▁Gegen	-2793
▁Kater	-2794
▁Reihe	-2795
▁Tische	-2796
▁Worten	-2797
elinchen	-2798
▁dennoch	-2799
▁dreimal	-2800
▁Ezechiel	-2801
▁sprangen	-2802
▁besonders	-2803
▁geblieben	-2804
▁versuchen	-2805
▁Grünwiesel	-2806
▁Zinnsoldat	-2807
▁verschwand	-2808
▁Däumelinchen	-2809
▁Glasmännlein	-2810
vo	-2811
Lie	-2812
▁Bä	-2813
▁ew	-2814
▁sü	-2815
ehre	-2816
▁Tän	-2817
▁Von	-2818
▁tre	-2819
brach	-2820
essel	-2821
▁Fuss	-2822
▁käme	-2823
▁mach	-2824
▁schä	-2825
▁traf	-2826
erling	-2827
ichtet	-2828
▁Kraft	-2829
▁Krone	-2830
▁eiser	-2831
▁orden	-2832
▁sollt	-2833
▁träum	-2834
reichen	-2835
▁Furcht	-2836
▁Neffen	-2837
▁Trauer	-2838
▁Winter	-2839
▁lebten	-2840
▁tiefen	-2841
▁zitter	-2842
▁nachdem	-2843
▁reicher	-2844
▁richtig	-2845
▁schlich	-2846
▁spielte	-2847
▁stürzte	-2848
▁Schüssel	-2849
▁erfahren	-2850
▁Stückchen	-2851
▁wunderschön	-2852
wa	-2853
pel	-2854
asen	-2855
ches	-2856
rumm	-2857
▁Axt	-2858
▁Sor	-2859
▁ben	-2860
▁tör	-2861
aunen	-2862
glein	-2863
▁Daum	-2864
▁kalt	-2865
▁nein	-2866
mmerte	-2867
▁Recht	-2868
▁Söhne	-2869
▁Wiese	-2870
▁einst	-2871
▁kroch	-2872
▁danach	-2873
▁dunkel	-2874
▁letzte	-2875
▁erlösen	-2876
▁hättest	-2877
▁könnten	-2878
▁behalten	-2879
▁bemerkte	-2880
▁draussen	-2881
▁gefangen	-2882
▁lebendig	-2883
▁verlangte	-2884
▁Großmutter	-2885
▁wenigstens	-2886
▁Pr	-2887
▁Qu	-2888
land	-2889
reut	-2890
ühen	-2891
▁Hil	-2892
▁rie	-2893
ansor	-2894
erdin	-2895
stete	-2896
▁Frei	-2897
▁Lied	-2898
▁gefr	-2899
▁klug	-2900
▁sank	-2901
▁Gutes	-2902
▁Sturm	-2903
▁Tafel	-2904
▁Tromm	-2905
▁dicke	-2906
▁rings	-2907
▁siehe	-2908
▁sitzt	-2909
▁fingen	-2910
▁getreu	-2911
▁gewiss	-2912
▁weißen	-2913
▁zornig	-2914
erdinand	-2915
gleichen	-2916
▁Amtmann	-2917
▁dauerte	-2918
▁eigenen	-2919
▁umsonst	-2920
▁Hauptmann	-2921
ate	-2922
kun	-2923
win	-2924
zog	-2925
▁Im	-2926
▁to	-2927
atür	-2928
bein	-2929
bnis	-2930
hren	-2931
ilie	-2932
▁Bal	-2933
▁Sal	-2934
▁gib	-2935
derte	-2936
ändig	-2937
▁Dieb	-2938
▁Frie	-2939
▁Städ	-2940
▁Tode	-2941
▁stär	-2942
▁Blitz	-2943
▁Stroh	-2944
▁erinn	-2945
▁legen	-2946
▁starb	-2947
▁Federn	-2948
▁sassen	-2949
▁warten	-2950
▁betrübt	-2951
▁lachten	-2952
▁liessen	-2953
▁solchen	-2954
pl	-2955
aßt	-2956
chs	-2957
ßig	-2958
▁lo	-2959
▁qu	-2960
angt	-2961
elbe	-2962
ette	-2963
fiel	-2964
fort	-2965
gang	-2966
kind	-2967
▁Für	-2968
▁Heu	-2969
▁Müt	-2970
▁bun	-2971
▁eil	-2972
enden	-2973
ernen	-2974
indet	-2975
▁Dame	-2976
▁Fein	-2977
▁Hein	-2978
▁Lärm	-2979
▁dumm	-2980
▁eint	-2981
▁möge	-2982
▁Alter	-2983
▁Eigen	-2984
▁Markt	-2985
▁Schät	-2986
▁griff	-2987
▁stein	-2988
▁stolz	-2989
üchlein	-2990
▁Reicht	-2991
▁hinten	-2992
▁irgend	-2993
gefallen	-2994
▁Pfarrer	-2995
▁Zeichen	-2996
▁grosses	-2997
▁Hofdamen	-2998
▁zugleich	-2999
▁.	-3000
aff	-3001
öre	-3002
üge	-3003
achs	-3004
chst	-3005
leid	-3006
▁tau	-3007
▁weh	-3008
ieten	-3009
▁Hoff	-3010
▁Maul	-3011
▁Noch	-3012
▁Sein	-3013
▁wert	-3014
ehrten	-3015
▁Gäste	-3016
▁Kalif	-3017
▁angef	-3018
▁auszu	-3019
▁breit	-3020
▁leise	-3021
▁Kummer	-3022
▁Mittag	-3023
▁Mittel	-3024
▁Gericht	-3025
▁Speisen	-3026
▁Student	-3027
▁geboren	-3028
▁mehrere	-3029
▁möglich	-3030
▁schwieg	-3031
▁heiraten	-3032
▁obgleich	-3033
▁Schreiber	-3034
▁demselben	-3035
▁schlechte	-3036
In	-3037
▁ö	-3038
umm	-3039
▁Tat	-3040
▁kur	-3041
attel	-3042
ensch	-3043
▁Hahn	-3044
▁Verg	-3045
herlie	-3046
ischer	-3047
reifen	-3048
▁Gener	-3049
▁davor	-3050
▁drauf	-3051
▁halte	-3052
▁lesen	-3053
▁rasch	-3054
▁rufen	-3055
▁weite	-3056
brochen	-3057
▁Beutel	-3058
▁Johann	-3059
▁Wetter	-3060
▁legten	-3061
▁soviel	-3062
▁Franken	-3063
▁Sonntag	-3064
▁Tannenb	-3065
▁diesmal	-3066
▁fressen	-3067
▁hindurch	-3068
▁springen	-3069
▁wünschen	-3070
▁Handwerks	-3071
herlieschen	-3072
iz	-3073
kl	-3074
to	-3075
äge	-3076
adel	-3077
nahm	-3078
umpf	-3079
ütig	-3080
▁Bed	-3081
▁Fro	-3082
▁Gut	-3083
▁Mon	-3084
▁Nie	-3085
▁Sel	-3086
▁trö	-3087
chsen	-3088
ührte	-3089
▁Korb	-3090
▁Leid	-3091
▁Sinn	-3092
▁aufw	-3093
▁etwa	-3094
uchten	-3095
weilen	-3096
▁Gänse	-3097
▁Hilfe	-3098
▁Raben	-3099
▁blies	-3100
▁faßte	-3101
▁tücht	-3102
▁unver	-3103
▁Gulden	-3104
▁Papier	-3105
▁Ranzen	-3106
▁Speise	-3107
▁mensch	-3108
▁General	-3109
▁Nachdem	-3110
▁Schäfer	-3111
▁bestimm	-3112
▁finster	-3113
▁hierher	-3114
▁schlugen	-3115
▁schönste	-3116
per	-3117
sie	-3118
ute	-3119
wir	-3120
ünd	-3121
Gott	-3122
mten	-3123
▁dro	-3124
▁krä	-3125
▁ret	-3126
andri	-3127
eiert	-3128
richt	-3129
▁Erst	-3130
▁Gang	-3131
▁hart	-3132
▁höre	-3133
▁zähl	-3134
Willst	-3135
▁Greif	-3136
▁Kamer	-3137
▁bevor	-3138
▁dicht	-3139
▁heißt	-3140
▁krank	-3141
richten	-3142
▁Galgen	-3143
▁Gefahr	-3144
▁Reisen	-3145
▁bereit	-3146
▁durfte	-3147
▁küsste	-3148
▁reiche	-3149
▁schrei	-3150
▁silber	-3151
▁trugen	-3152
▁wohnen	-3153
essandri	-3154
▁Gedanke	-3155
▁Kindern	-3156
▁erzählt	-3157
▁führten	-3158
▁Almansor	-3159
▁brauchen	-3160
▁Schweineh	-3161
▁Geschichten	-3162
▁königlichen	-3163
ib	-3164
Geh	-3165
Ist	-3166
kos	-3167
utz	-3168
▁Ma	-3169
aufe	-3170
mehr	-3171
rock	-3172
ötet	-3173
▁Erb	-3174
▁Erd	-3175
▁Fam	-3176
▁Hal	-3177
▁Min	-3178
▁Nur	-3179
▁Reh	-3180
▁hil	-3181
eilen	-3182
ester	-3183
getan	-3184
rüben	-3185
sucht	-3186
vater	-3187
▁Eich	-3188
▁Eins	-3189
machen	-3190
teilen	-3191
▁Labak	-3192
▁Mauer	-3193
▁bösen	-3194
▁denke	-3195
▁geste	-3196
▁schie	-3197
▁sogar	-3198
▁wagte	-3199
geführt	-3200
▁Goldst	-3201
▁Grafen	-3202
▁Küchen	-3203
▁Schalk	-3204
▁Schlag	-3205
▁folgte	-3206
sprechen	-3207
▁Schwanz	-3208
▁fliegen	-3209
▁nachher	-3210
▁weniger	-3211
essandria	-3212
▁vergeben	-3213
▁angesehen	-3214
▁Zweiäuglein	-3215
aup	-3216
mar	-3217
üte	-3218
ocht	-3219
ppte	-3220
ufen	-3221
ötig	-3222
▁Eis	-3223
▁Get	-3224
▁Roß	-3225
▁erb	-3226
Warum	-3227
esten	-3228
tchen	-3229
▁Bild	-3230
▁Eine	-3231
▁Fass	-3232
▁Nähe	-3233
▁warm	-3234
▁übel	-3235
uchsen	-3236
▁Betrü	-3237
▁Diese	-3238
▁Feder	-3239
▁Grund	-3240
▁stets	-3241
▁unsch	-3242
▁womit	-3243
▁Beding	-3244
▁Fische	-3245
▁Geschä	-3246
▁Reiter	-3247
▁Sachen	-3248
▁aufges	-3249
▁beschä	-3250
▁voller	-3251
▁wandte	-3252
▁weitem	-3253
▁fremden	-3254
▁seufzte	-3255
▁unserer	-3256
▁vernahm	-3257
▁Johannes	-3258
▁aushalten	-3259
▁Alessandria	-3260
▁schrecklich	-3261
▁Katherlieschen	-3262
▁́	-3263
mpf	-3264
ose	-3265
Hier	-3266
beth	-3267
dies	-3268
örte	-3269
ügen	-3270
▁Lis	-3271
▁Ort	-3272
▁Per	-3273
▁heu	-3274
▁mel	-3275
▁tei	-3276
ierig	-3277
ierte	-3278
isten	-3279
kunft	-3280
▁Gans	-3281
▁hält	-3282
▁Bürle	-3283
▁Herde	-3284
▁Indem	-3285
▁deren	-3286
▁müßte	-3287
▁natür	-3288
▁Besuch	-3289
▁Pfeife	-3290
▁Stirne	-3291
▁bitten	-3292
▁gläser	-3293
▁kaufen	-3294
▁wander	-3295
gelassen	-3296
▁Anblick	-3297
▁Jüngste	-3298
▁Lisbeth	-3299
▁Sprache	-3300
▁drinnen	-3301
▁gestern	-3302
▁hernach	-3303
▁schlimm	-3304
▁zwanzig	-3305
▁Dummling	-3306
▁Schulter	-3307
▁Schuster	-3308
▁prächtig	-3309
▁Ferdinand	-3310
▁schliefen	-3311
▁verwandelt	-3312
▁dergleichen	-3313
urt	-3314
aleu	-3315
kten	-3316
lief	-3317
stra	-3318
ünde	-3319
▁Wür	-3320
▁Zie	-3321
▁Zir	-3322
Nicht	-3323
haben	-3324
kamen	-3325
rauen	-3326
weise	-3327
ämmer	-3328
▁Bier	-3329
▁Erlö	-3330
▁Sage	-3331
▁Wild	-3332
▁Zoll	-3333
▁abzu	-3334
▁häss	-3335
aschen	-3336
denken	-3337
langen	-3338
laufen	-3339
rissen	-3340
ährend	-3341
▁Kirch	-3342
▁Kopfe	-3343
▁Köpfe	-3344
▁gehei	-3345
▁taten	-3346
▁woher	-3347
▁wuchs	-3348
aleukos	-3349
▁Hinter	-3350
▁Kasten	-3351
▁Wander	-3352
▁fehlen	-3353
▁leiden	-3354
▁schloß	-3355
▁sobald	-3356
▁Labakan	-3357
▁Niemand	-3358
▁stecken	-3359
▁schenkte	-3360
▁verraten	-3361
▁Spielmann	-3362
▁Verwunder	-3363
▁verdienen	-3364
▁königliche	-3365
▁Handwerksbur	-3366
eck	-3367
rab	-3368
wan	-3369
▁Th	-3370
wegs	-3371
▁Bef	-3372
▁Des	-3373
▁Hüt	-3374
▁äng	-3375
Peter	-3376
artet	-3377
seher	-3378
▁Eier	-3379
▁Knie	-3380
▁Kuno	-3381
▁Mahl	-3382
▁abge	-3383
▁flie	-3384
▁hohe	-3385
▁link	-3386
▁merk	-3387
▁wann	-3388
riffen	-3389
runken	-3390
▁Anges	-3391
▁Schuh	-3392
▁Seine	-3393
steigen	-3394
▁Drache	-3395
▁Heimat	-3396
▁Häuser	-3397
▁Pracht	-3398
▁Sattel	-3399
▁Schwei	-3400
▁Zirkel	-3401
▁dienen	-3402
▁hingen	-3403
▁hinweg	-3404
▁Frieder	-3405
▁Morgens	-3406
▁gedacht	-3407
▁getötet	-3408
▁niemals	-3409
▁wartete	-3410
▁Tannenbühl	-3411
▁Goldschmied	-3412
▁versprochen	-3413
▁Schweinehirt	-3414
▁Zirkelschmied	-3415
kü	-3416
äl	-3417
ehl	-3418
zur	-3419
▁tä	-3420
Komm	-3421
atze	-3422
esir	-3423
este	-3424
fter	-3425
ährt	-3426
▁Häl	-3427
▁Mör	-3428
▁Thr	-3429
▁san	-3430
Vater	-3431
ettet	-3432
etzen	-3433
nügen	-3434
▁Buch	-3435
▁Gärt	-3436
▁Vers	-3437
▁erre	-3438
▁klar	-3439
▁nehm	-3440
▁unbe	-3441
annten	-3442
roffen	-3443
▁Regen	-3444
▁Segen	-3445
▁Wache	-3446
▁Wacht	-3447
▁gehor	-3448
▁kenne	-3449
▁Äpfel	-3450
▁Floren	-3451
▁Tieren	-3452
▁Waldes	-3453
▁durchs	-3454
▁geklei	-3455
▁mußten	-3456
▁rechts	-3457
▁werdet	-3458
▁winkte	-3459
getragen	-3460
▁Straßen	-3461
▁Schatten	-3462
▁erkennen	-3463
▁jedermann	-3464
▁eigentlich	-3465
▁schlechten	-3466
▁Stiefmutter	-3467
gl	-3468
▁	-3469
ame	-3470
fft	-3471
mer	-3472
atte	-3473
gott	-3474
lung	-3475
ndel	-3476
stür	-3477
▁Hem	-3478
▁Lau	-3479
▁Rau	-3480
anach	-3481
erken	-3482
ähren	-3483
▁Komm	-3484
▁Lebt	-3485
▁Samt	-3486
▁rote	-3487
▁selt	-3488
▁trin	-3489
antoff	-3490
chenkt	-3491
dessen	-3492
▁Darum	-3493
▁Enten	-3494
▁Schwe	-3495
▁Weges	-3496
▁brumm	-3497
▁entde	-3498
▁lasse	-3499
▁links	-3500
▁pfiff	-3501
▁stieß	-3502
▁töten	-3503
▁weiße	-3504
brechen	-3505
▁Beinen	-3506
▁Braten	-3507
▁Gefäng	-3508
▁Gegend	-3509
▁Hauses	-3510
▁Wirtin	-3511
▁bringt	-3512
▁fehlte	-3513
▁ganzes	-3514
▁heftig	-3515
▁retten	-3516
gelaufen	-3517
▁Kaisers	-3518
▁erfüllt	-3519
▁grösser	-3520
▁schwang	-3521
▁solcher	-3522
▁trocken	-3523
▁wuchsen	-3524
▁Reichtum	-3525
▁geworfen	-3526
▁schweren	-3527
▁verkauft	-3528
▁wiederum	-3529
▁Kaufleute	-3530
▁Sonnenstr	-3531
▁gestohlen	-3532
▁Schwarzwald	-3533
▁Verwunderung	-3534
fü	-3535
nä	-3536
lse	-3537
org	-3538
uge	-3539
uhl	-3540
▁Rü	-3541
▁lö	-3542
awan	-3543
fuhr	-3544
lust	-3545
scha	-3546
ätte	-3547
▁Ord	-3548
arbei	-3549
eitet	-3550
endet	-3551
ieben	-3552
peter	-3553
ringe	-3554
umpen	-3555
vogel	-3556
änger	-3557
▁Atem	-3558
▁Swin	-3559
▁hell	-3560
▁wärm	-3561
Lieber	-3562
ischte	-3563
kinder	-3564
ohnung	-3565
ünsche	-3566
▁Asche	-3567
▁Baume	-3568
▁Buche	-3569
▁Ferne	-3570
▁Flöte	-3571
▁Leibe	-3572
▁Reden	-3573
▁Todes	-3574
▁Wesen	-3575
▁besah	-3576
▁garst	-3577
▁jenen	-3578
▁nötig	-3579
▁wilde	-3580
gegeben	-3581
zugehen	-3582
▁Becher	-3583
▁Lebtag	-3584
▁Länder	-3585
▁Reiche	-3586
▁Schafe	-3587
▁Tänzer	-3588
▁behaup	-3589
▁bitter	-3590
▁darfst	-3591
▁fangen	-3592
▁guckte	-3593
▁ungehe	-3594
▁vergeb	-3595
▁verhei	-3596
▁wüsste	-3597
▁Alsbald	-3598
▁Blätter	-3599
▁Fischer	-3600
▁Gärtner	-3601
▁Karawan	-3602
▁Kreuzer	-3603
▁Ordnung	-3604
▁Schiffe	-3605
▁entsetz	-3606
▁erhielt	-3607
▁seltsam	-3608
▁verging	-3609
▁zweimal	-3610
▁Geschrei	-3611
▁Schwefel	-3612
▁Sperling	-3613
▁Swinegel	-3614
▁Verstand	-3615
▁arbeiten	-3616
▁begraben	-3617
▁höchsten	-3618
▁jedesmal	-3619
▁geschrieben	-3620
pen	-3621
räu	-3622
inne	-3623
ohnt	-3624
zeug	-3625
▁Chr	-3626
▁Sar	-3627
▁Ding	-3628
▁Glie	-3629
▁Wohl	-3630
▁halt	-3631
keiten	-3632
nechte	-3633
weisen	-3634
▁angen	-3635
▁bring	-3636
▁desto	-3637
▁graue	-3638
▁kluge	-3639
▁neues	-3640
▁nimmt	-3641
▁reden	-3642
▁treff	-3643
fresser	-3644
königin	-3645
▁Antwor	-3646
▁Füssen	-3647
▁Gesang	-3648
▁Glaser	-3649
▁Schuld	-3650
▁gering	-3651
▁keinem	-3652
▁nannte	-3653
▁nickte	-3654
▁tanzte	-3655
▁tiefer	-3656
ternacht	-3657
▁Frieden	-3658
▁Trinken	-3659
▁einiger	-3660
▁entzwei	-3661
▁fünfzig	-3662
▁Burschen	-3663
▁Edelmann	-3664
▁Kleidern	-3665
▁Schimmel	-3666
▁brachten	-3667
▁schaffen	-3668
▁ältesten	-3669
▁Angesicht	-3670
▁geschlagen	-3671
id	-3672
ams	-3673
arn	-3674
nun	-3675
rav	-3676
asse	-3677
asst	-3678
eide	-3679
eile	-3680
ille	-3681
käme	-3682
pfer	-3683
seit	-3684
sinn	-3685
ssig	-3686
▁Ban	-3687
▁Ler	-3688
▁Nat	-3689
▁ern	-3690
▁rot	-3691
▁tue	-3692
anten	-3693
arren	-3694
einer	-3695
inden	-3696
kommt	-3697
stbar	-3698
▁Dach	-3699
▁Deut	-3700
▁Drei	-3701
▁Nein	-3702
▁Turm	-3703
▁samm	-3704
werfen	-3705
▁Erden	-3706
▁Macht	-3707
▁Schen	-3708
▁Weise	-3709
▁berüh	-3710
▁ungeh	-3711
▁wohnt	-3712
kannten	-3713
örnchen	-3714
▁Gewand	-3715
▁Hälfte	-3716
▁Steine	-3717
▁Wolken	-3718
▁furcht	-3719
▁halben	-3720
▁kaufte	-3721
▁längst	-3722
▁munter	-3723
▁siehst	-3724
schaffen	-3725
▁Familie	-3726
▁Geschen	-3727
▁Herzens	-3728
▁Pantoff	-3729
▁Schritt	-3730
▁Streich	-3731
▁Taschen	-3732
▁dachten	-3733
▁hungrig	-3734
▁träumte	-3735
▁verschl	-3736
▁Gefangen	-3737
▁Hoffnung	-3738
▁Trommler	-3739
▁begegnet	-3740
▁gefeiert	-3741
▁schlagen	-3742
scheinlich	-3743
▁Kameraden	-3744
▁geschlafen	-3745
kr	-3746
bas	-3747
fig	-3748
fst	-3749
ged	-3750
zut	-3751
▁La	-3752
dler	-3753
halt	-3754
hans	-3755
mach	-3756
oßen	-3757
uner	-3758
wirt	-3759
üsse	-3760
▁ach	-3761
▁riß	-3762
▁seg	-3763
ilder	-3764
llung	-3765
logen	-3766
mmern	-3767
neten	-3768
onner	-3769
▁Brau	-3770
▁Glau	-3771
▁Hofe	-3772
▁spaz	-3773
▁vors	-3774
achtet	-3775
schten	-3776
▁Besch	-3777
▁Ernst	-3778
▁Gespr	-3779
▁Krähe	-3780
▁Meine	-3781
▁Orbas	-3782
▁Schür	-3783
▁Suppe	-3784
▁hüten	-3785
▁jenes	-3786
▁schna	-3787
▁treue	-3788
▁verbr	-3789
▁weißt	-3790
ichtete	-3791
igeuner	-3792
▁Einmal	-3793
▁Geburt	-3794
▁Herzog	-3795
▁Strafe	-3796
▁Willen	-3797
▁Zeiten	-3798
▁anfing	-3799
▁aussah	-3800
▁beglei	-3801
▁blauen	-3802
▁ließen	-3803
▁traten	-3804
▁warfen	-3805
▁Bursche	-3806
▁Schmuck	-3807
▁häßlich	-3808
▁Betrüger	-3809
▁Zaleukos	-3810
▁gerettet	-3811
▁getragen	-3812
▁glaubten	-3813
geschlagen	-3814
▁Bedingung	-3815
▁Schultern	-3816
▁Vergnügen	-3817
▁ebenfalls	-3818
▁geschickt	-3819
▁getrunken	-3820
▁schneller	-3821
▁ordentlich	-3822
▁Wachtmeister	-3823
▁untereinander	-3824
▁Menschenfresser	-3825
li	-3826
▁-	-3827
aat	-3828
▁Ra	-3829
hund	-3830
iste	-3831
ünft	-3832
▁Gru	-3833
▁Pol	-3834
▁Wut	-3835
▁erm	-3836
▁Hast	-3837
▁Vier	-3838
▁erfü	-3839
▁heut	-3840
▁hört	-3841
▁riss	-3842
▁sieh	-3843
finden	-3844
ickten	-3845
knecht	-3846
▁Elfen	-3847
▁Grabe	-3848
▁Höhle	-3849
▁Kraut	-3850
▁Nadel	-3851
▁Sorge	-3852
▁Stamm	-3853
▁Winde	-3854
▁Zweig	-3855
▁fällt	-3856
▁jagte	-3857
▁Frosch	-3858
▁Hühner	-3859
▁Mörder	-3860
▁Sklave	-3861
▁dicken	-3862
▁geriet	-3863
▁gewahr	-3864
▁klagte	-3865
▁schwei	-3866
▁werfen	-3867
▁Brüdern	-3868
▁Himmels	-3869
▁Pferden	-3870
▁Schätze	-3871
▁Wächter	-3872
▁Während	-3873
▁geraten	-3874
▁schrieb	-3875
▁schwamm	-3876
▁schwere	-3877
▁Schnabel	-3878
▁Wahrheit	-3879
▁Zigeuner	-3880
▁Erzählung	-3881
▁Gefängnis	-3882
▁Schwefelh	-3883
▁angelangt	-3884
▁anzusehen	-3885
▁prächtige	-3886
▁Mitternacht	-3887
▁Zinnsoldaten	-3888
uf	-3889
Wei	-3890
▁Ob	-3891
Hast	-3892
alle	-3893
aust	-3894
blei	-3895
ckel	-3896
fern	-3897
geht	-3898
quem	-3899
ssch	-3900
ützt	-3901
▁Ali	-3902
▁Bir	-3903
▁Far	-3904
▁Zau	-3905
▁ers	-3906
hütte	-3907
laden	-3908
öpfen	-3909
▁Ehre	-3910
▁Sand	-3911
▁Tore	-3912
▁Werk	-3913
▁spät	-3914
▁uner	-3915
achtel	-3916
führen	-3917
hauser	-3918
kammer	-3919
wenden	-3920
ächtig	-3921
▁Acker	-3922
▁Decke	-3923
▁Frage	-3924
▁Hünen	-3925
▁Kreuz	-3926
▁Zunge	-3927
▁angst	-3928
▁fehlt	-3929
▁setze	-3930
▁Haufen	-3931
▁Jugend	-3932
▁Kuchen	-3933
▁drüben	-3934
▁dürfte	-3935
▁krange	-3936
▁liebes	-3937
▁selten	-3938
▁später	-3939
▁Flasche	-3940
▁Wünsche	-3941
▁Zollern	-3942
▁dadurch	-3943
▁gekauft	-3944
▁Gespräch	-3945
▁Kutscher	-3946
▁Zeitlang	-3947
▁angenehm	-3948
▁gedachte	-3949
▁jüngsten	-3950
▁leichter	-3951
▁verlangt	-3952
▁zuweilen	-3953
▁Schlosses	-3954
▁angekommen	-3955
▁drittenmal	-3956
▁herrlichen	-3957
▁vergeblich	-3958
▁erschrocken	-3959
▁eingeschlafen	-3960
▁wahrscheinlich	-3961
?,	-3962
Sei	-3963
ies	-3964
iul	-3965
mut	-3966
▁Zä	-3967
agel	-3968
bäum	-3969
elnd	-3970
fält	-3971
jung	-3972
oche	-3973
teln	-3974
wend	-3975
änge	-3976
▁Ist	-3977
▁Kan	-3978
▁Kap	-3979
▁Mil	-3980
▁Pfl	-3981
▁deu	-3982
▁mei	-3983
gäuer	-3984
immen	-3985
inkel	-3986
sicht	-3987
stück	-3988
▁Blau	-3989
▁Eben	-3990
▁Kräu	-3991
▁Rede	-3992
▁Söhn	-3993
▁Vieh	-3994
▁Wurz	-3995
▁ange	-3996
▁anst	-3997
▁eure	-3998
▁flei	-3999
▁hand	-4000
▁stol	-4001
ettung	-4002
▁Glanz	-4003
▁Heino	-4004
▁Magen	-4005
▁Miene	-4006
▁Spieß	-4007
▁Thiul	-4008
▁Türen	-4009
ichtbar	-4010
ierlich	-4011
zeichen	-4012
▁Balken	-4013
▁Sobald	-4014
▁Sprung	-4015
▁Wochen	-4016
▁ausgel	-4017
▁kochen	-4018
▁nachts	-4019
▁pracht	-4020
▁verlor	-4021
ehnsucht	-4022
▁Handsch	-4023
▁Rosenst	-4024
▁folgten	-4025
▁leuchte	-4026
▁meinten	-4027
▁schlägt	-4028
▁solange	-4029
▁bezahlen	-4030
▁durchaus	-4031
▁einziges	-4032
▁spielten	-4033
▁erzählten	-4034
▁mitnehmen	-4035
▁verborgen	-4036
▁verkaufen	-4037
▁zerrissen	-4038
▁ängstlich	-4039
▁menschliche	-4040
‘,	-4041
elo	-4042
kob	-4043
nes	-4044
tei	-4045
tig	-4046
öch	-4047
ader	-4048
ahrt	-4049
chse	-4050
ffte	-4051
umen	-4052
wald	-4053
ühle	-4054
————	-4055
▁Kug	-4056
▁Kün	-4057
▁Urs	-4058
▁Wäl	-4059
▁gei	-4060
▁unb	-4061
atzen	-4062
etzte	-4063
stadt	-4064
stüre	-4065
teilt	-4066
teuer	-4067
undzw	-4068
unkel	-4069
wisch	-4070
ällig	-4071
ützen	-4072
▁Banu	-4073
▁Böse	-4074
▁Geiß	-4075
▁Pate	-4076
▁Seil	-4077
▁fern	-4078
▁wach	-4079
▁wack	-4080
erksam	-4081
gefähr	-4082
heiten	-4083
püster	-4084
schlug	-4085
▁Eichh	-4086
▁Felde	-4087
▁Jakob	-4088
▁Kinde	-4089
▁Ungeh	-4090
▁allzu	-4091
▁bauen	-4092
▁hinan	-4093
▁manch	-4094
▁Bienen	-4095
▁Bündel	-4096
▁Christ	-4097
▁Futter	-4098
▁Gemach	-4099
▁Küster	-4100
▁Lachen	-4101
▁dürfen	-4102
▁gelebt	-4103
▁reisen	-4104
▁Rettung	-4105
▁brauche	-4106
▁dagegen	-4107
▁gefällt	-4108
▁tanzten	-4109
▁versich	-4110
▁Allgäuer	-4111
▁Geschäft	-4112
▁könntest	-4113
▁schenken	-4114
▁verdient	-4115
▁wahrlich	-4116
undzwanzig	-4117
▁aufwachte	-4118
▁beisammen	-4119
▁gekleidet	-4120
▁spazieren	-4121
▁verstehen	-4122
▁gewöhnlich	-4123
▁Blauäuglein	-4124
▁verwandelte	-4125
▁Aschenpüster	-4126
▁verschlossen	-4127
ds	-4128
Gut	-4129
gab	-4130
ißt	-4131
les	-4132
ägt	-4133
▁Gi	-4134
▁Wü	-4135
▁ta	-4136
Noch	-4137
aute	-4138
dick	-4139
elen	-4140
esch	-4141
herz	-4142
lieb	-4143
ring	-4144
röte	-4145
stes	-4146
tags	-4147
▁Pil	-4148
▁anh	-4149
▁bös	-4150
▁fra	-4151
▁hor	-4152
▁hub	-4153
ankte	-4154
indel	-4155
ischt	-4156
olfen	-4157
pften	-4158
recke	-4159
selbe	-4160
zeich	-4161
ührer	-4162
▁Aben	-4163
▁Harf	-4164
▁Wegs	-4165
▁Zaun	-4166
▁biss	-4167
▁lebe	-4168
▁sann	-4169
▁wies	-4170
▁woll	-4171
ochten	-4172
▁Gross	-4173
▁Schar	-4174
▁Schle	-4175
▁begab	-4176
▁lässt	-4177
▁stren	-4178
▁Brücke	-4179
▁Bäumen	-4180
▁Jammer	-4181
▁Lerche	-4182
▁Quelle	-4183
▁Schwal	-4184
▁findet	-4185
▁gebrau	-4186
▁gefähr	-4187
▁grauen	-4188
▁kochte	-4189
▁sangen	-4190
▁schuld	-4191
▁weiten	-4192
▁worauf	-4193
▁Mitleid	-4194
▁Orbasan	-4195
▁Schläge	-4196
▁ergriff	-4197
▁gezogen	-4198
▁kostbar	-4199
▁schritt	-4200
▁stiegen	-4201
▁suchten	-4202
▁tranken	-4203
▁Minister	-4204
▁Sultanin	-4205
▁brauchte	-4206
▁derselbe	-4207
▁gelaufen	-4208
▁wanderte	-4209
▁Bedienten	-4210
▁Erstaunen	-4211
▁Schachtel	-4212
▁Sehnsucht	-4213
▁Städtchen	-4214
▁gegenüber	-4215
▁Antwortete	-4216
▁nimmermehr	-4217
▁ungeheuren	-4218
▁Schwefelhöl	-4219
▁Versprechen	-4220
▁antworteten	-4221
▁Eichhörnchen	-4222
▁Sonnenschein	-4223
▁Schwesterchen	-4224
hü	-4225
rr	-4226
Mit	-4227
hte	-4228
ipp	-4229
ley	-4230
phe	-4231
tag	-4232
▁Ch	-4233
▁eh	-4234
▁vö	-4235
acke	-4236
ahen	-4237
deck	-4238
inke	-4239
isst	-4240
onne	-4241
räng	-4242
üler	-4243
▁Kon	-4244
▁War	-4245
▁brä	-4246
▁lud	-4247
erzen	-4248
etten	-4249
reise	-4250
rückt	-4251
▁Bret	-4252
▁Male	-4253
▁Strü	-4254
▁Zelt	-4255
▁befr	-4256
▁bloß	-4257
▁brei	-4258
▁faul	-4259
▁gebt	-4260
andeln	-4261
garten	-4262
llchen	-4263
straße	-4264
zimmer	-4265
▁Allah	-4266
▁Bitte	-4267
▁Boten	-4268
▁Erlau	-4269
▁Eurem	-4270
▁Küsse	-4271
▁Lange	-4272
▁Muley	-4273
▁Orgel	-4274
▁Trunk	-4275
▁elend	-4276
▁halbe	-4277
▁hilft	-4278
▁lasst	-4279
▁mache	-4280
▁regte	-4281
▁schla	-4282
▁wisse	-4283
▁übers	-4284
▁Bücher	-4285
▁Daumes	-4286
▁Gleich	-4287
▁Karten	-4288
▁Ochsen	-4289
▁Palast	-4290
▁Teller	-4291
▁Zweige	-4292
▁ausges	-4293
▁schoss	-4294
▁stiess	-4295
▁verirr	-4296
▁Harfner	-4297
▁Schaden	-4298
▁Schüler	-4299
▁Schürze	-4300
▁Verwand	-4301
▁Vöglein	-4302
▁bemerkt	-4303
▁eigenes	-4304
▁freudig	-4305
▁freuten	-4306
▁umgeben	-4307
▁weissen	-4308
▁ärgerte	-4309
gerichtet	-4310
▁Däumling	-4311
▁erstaunt	-4312
▁lieblich	-4313
▁ziemlich	-4314
▁Edelstein	-4315
▁Ungeheuer	-4316
▁furchtbar	-4317
▁gestanden	-4318
▁schneiden	-4319
▁verlieren	-4320
▁versuchte	-4321
▁unglücklich	-4322
bu	-4323
hnm	-4324
▁is	-4325
▁Är	-4326
Wohl	-4327
ackt	-4328
ahlt	-4329
burg	-4330
digt	-4331
eres	-4332
gabe	-4333
icki	-4334
rotz	-4335
urer	-4336
önnt	-4337
üche	-4338
▁Dah	-4339
▁Fal	-4340
▁Fat	-4341
▁Mau	-4342
▁Ton	-4343
▁ert	-4344
▁mal	-4345
▁str	-4346
▁wem	-4347
dient	-4348
platz	-4349
reibt	-4350
rogen	-4351
▁Auss	-4352
▁Boot	-4353
▁Tepp	-4354
▁brav	-4355
▁haus	-4356
länder	-4357
nitten	-4358
uletzt	-4359
▁Durst	-4360
▁Ehren	-4361
▁Milch	-4362
▁Preis	-4363
▁Spinn	-4364
▁Stern	-4365
▁Tanne	-4366
▁Thron	-4367
▁ankam	-4368
▁armes	-4369
▁fromm	-4370
▁grüne	-4371
▁heiße	-4372
▁nennt	-4373
fleisch	-4374
kleider	-4375
stellen	-4376
▁Gefähr	-4377
▁Tauben	-4378
▁aussch	-4379
▁besann	-4380
▁bückte	-4381
▁geschm	-4382
▁langes	-4383
▁reiten	-4384
geworfen	-4385
▁Entschl	-4386
▁Schrank	-4387
▁Schreck	-4388
▁Ursache	-4389
▁bekannt	-4390
▁brannte	-4391
▁dorthin	-4392
▁einigen	-4393
▁flüster	-4394
▁gehören	-4395
▁glänzte	-4396
▁goldnen	-4397
▁kriegen	-4398
▁mancher	-4399
▁schloss	-4400
▁stärker	-4401
▁Aufseher	-4402
▁Kirchhof	-4403
▁ergangen	-4404
▁geholfen	-4405
▁vernünft	-4406
▁vorwärts	-4407
▁empfangen	-4408
▁erreichen	-4409
▁geschenkt	-4410
▁gläsernen	-4411
▁vergebens	-4412
▁Ö	-4413
daß	-4414
inz	-4415
zel	-4416
öck	-4417
▁Ap	-4418
▁Lä	-4419
brot	-4420
iere	-4421
jagt	-4422
orgt	-4423
reue	-4424
rost	-4425
▁Gür	-4426
▁Kre	-4427
▁Mäg	-4428
▁Reg	-4429
▁and	-4430
▁hüb	-4431
buche	-4432
ehnte	-4433
eugte	-4434
kleid	-4435
nädig	-4436
selig	-4437
slein	-4438
utzen	-4439
öffel	-4440
▁Dein	-4441
▁Dies	-4442
▁Fall	-4443
▁Gele	-4444
▁Kair	-4445
▁Köhl	-4446
▁Lamm	-4447
▁Laub	-4448
▁Nest	-4449
▁Stab	-4450
▁dirs	-4451
▁läßt	-4452
▁Älte	-4453
geholt	-4454
herzig	-4455
kehrte	-4456
locken	-4457
macher	-4458
ünscht	-4459
▁Biene	-4460
▁Kiste	-4461
▁Munde	-4462
▁Trost	-4463
▁Wachs	-4464
▁Wüste	-4465
▁eilig	-4466
▁feine	-4467
▁kalte	-4468
▁keins	-4469
▁liege	-4470
▁stehe	-4471
▁tiefe	-4472
▁voran	-4473
▁älter	-4474
genheit	-4475
möglich	-4476
äubchen	-4477
▁Butter	-4478
▁Danach	-4479
▁Deckel	-4480
▁Graben	-4481
▁Gürtel	-4482
▁Haaren	-4483
▁Kronen	-4484
▁Löffel	-4485
▁Mütter	-4486
▁Strick	-4487
▁eigene	-4488
▁feinen	-4489
▁kennen	-4490
▁langer	-4491
▁langte	-4492
▁machst	-4493
▁merken	-4494
▁pochte	-4495
▁reiste	-4496
▁treuen	-4497
▁willen	-4498
▁zerspr	-4499
gehalten	-4500
gerissen	-4501
schaften	-4502
▁Einsied	-4503
▁Ländern	-4504
▁Meinung	-4505
▁Viertel	-4506
▁ausgest	-4507
▁brummte	-4508
▁erfreut	-4509
▁nächste	-4510
▁spricht	-4511
▁vermähl	-4512
▁Blättern	-4513
▁Glasberg	-4514
▁einzigen	-4515
▁gesessen	-4516
▁gesungen	-4517
▁heiligen	-4518
▁lächelte	-4519
▁stellten	-4520
▁Erlaubnis	-4521
▁Tanzboden	-4522
▁Daumesdick	-4523
),	-4524
sh	-4525
All	-4526
beh	-4527
eue	-4528
hau	-4529
ilf	-4530
äub	-4531
▁Go	-4532
▁fe	-4533
▁gr	-4534
Sieh	-4535
bock	-4536
iele	-4537
inen	-4538
ließ	-4539
ofen	-4540
orte	-4541
pter	-4542
rift	-4543
rist	-4544
wart	-4545
▁Beh	-4546
▁Bel	-4547
▁Ehe	-4548
▁Frö	-4549
▁elf	-4550
▁fei	-4551
▁nei	-4552
ippen	-4553
leben	-4554
legte	-4555
mpfen	-4556
mögen	-4557
neben	-4558
ßchen	-4559
▁Dorn	-4560
▁Fell	-4561
▁Grie	-4562
▁Jude	-4563
▁List	-4564
▁Marm	-4565
▁Peit	-4566
▁ewig	-4567
▁gere	-4568
▁grün	-4569
▁köst	-4570
▁stau	-4571
fältig	-4572
gulden	-4573
haftig	-4574
willig	-4575
▁Aller	-4576
▁Armut	-4577
▁Beide	-4578
▁Blatt	-4579
▁Hügel	-4580
▁Sumpf	-4581
▁Säbel	-4582
▁baten	-4583
▁jenem	-4584
▁sagst	-4585
▁schwe	-4586
▁solch	-4587
▁teuer	-4588
▁toten	-4589
▁warst	-4590
digkeit	-4591
gehauen	-4592
▁Besser	-4593
▁Dingen	-4594
▁Donner	-4595
▁Hirten	-4596
▁Perlen	-4597
▁Pilger	-4598
▁Sorgen	-4599
▁Spitze	-4600
▁Thiuli	-4601
▁Wellen	-4602
▁fassen	-4603
▁heißen	-4604
▁teilte	-4605
▁völlig	-4606
▁wußten	-4607
▁Anfangs	-4608
▁Erlöser	-4609
▁Fliegen	-4610
▁Kräften	-4611
▁Zuletzt	-4612
▁breiten	-4613
▁solches	-4614
▁wachsen	-4615
▁Haustüre	-4616
▁Vermögen	-4617
▁dasselbe	-4618
▁richtete	-4619
▁Entsetzen	-4620
▁Vaterland	-4621
▁mächtigen	-4622
▁schmecken	-4623
▁sonderbare	-4624
▁verwundert	-4625
▁Prinzessinnen	-4626
▁Schneekönigin	-4627
!	-4628
Ha	-4629
gro	-4630
grä	-4631
kna	-4632
man	-4633
opp	-4634
ote	-4635
pte	-4636
rom	-4637
▁äu	-4638
Lass	-4639
arrt	-4640
beln	-4641
erei	-4642
ewei	-4643
gern	-4644
munk	-4645
rech	-4646
türe	-4647
▁Alt	-4648
▁Nuß	-4649
▁kna	-4650
▁läu	-4651
▁wus	-4652
berge	-4653
digen	-4654
ichst	-4655
ierde	-4656
ilien	-4657
ndern	-4658
reche	-4659
ucken	-4660
▁Affe	-4661
▁Bank	-4662
▁Burg	-4663
▁Eile	-4664
▁Else	-4665
▁Fing	-4666
▁Huhn	-4667
▁Last	-4668
▁Rabe	-4669
▁Reis	-4670
▁Wams	-4671
▁dien	-4672
▁erkl	-4673
▁euer	-4674
▁hieb	-4675
▁neug	-4676
▁sehn	-4677
▁umar	-4678
▁wehe	-4679
isches	-4680
leiden	-4681
puttel	-4682
ündete	-4683
▁Böses	-4684
▁Feind	-4685
▁Kröte	-4686
▁Kugel	-4687
▁Käfig	-4688
▁Nagel	-4689
▁Natur	-4690
▁Rache	-4691
▁Rennt	-4692
▁Schwä	-4693
▁Selim	-4694
▁Stuhl	-4695
▁Trank	-4696
▁Wurst	-4697
▁Ziege	-4698
▁ausge	-4699
▁bitte	-4700
▁danke	-4701
▁denkt	-4702
▁hängt	-4703
▁schüt	-4704
▁ungew	-4705
▁weich	-4706
▁übern	-4707
bleiben	-4708
brachte	-4709
gemacht	-4710
gesetzt	-4711
schauen	-4712
zusehen	-4713
ätzchen	-4714
▁Flucht	-4715
▁Kessel	-4716
▁Meilen	-4717
▁Nacken	-4718
▁Schein	-4719
▁Schulz	-4720
▁bleich	-4721
▁bringe	-4722
▁keines	-4723
▁lernen	-4724
▁meinst	-4725
▁rührte	-4726
▁sofort	-4727
▁treten	-4728
▁weisen	-4729
▁weisse	-4730
▁wollet	-4731
▁Dienste	-4732
▁Florenz	-4733
▁Knechte	-4734
▁Schenke	-4735
▁Teufels	-4736
▁Treppen	-4737
▁angetan	-4738
▁derweil	-4739
▁dunklen	-4740
▁eintrat	-4741
▁erlaubt	-4742
▁gelesen	-4743
▁größten	-4744
▁meisten	-4745
▁morgens	-4746
▁pflegte	-4747
▁stellen	-4748
▁töricht	-4749
▁wohnten	-4750
▁wussten	-4751
▁wünsche	-4752
▁Geschenk	-4753
▁befohlen	-4754
▁bekommst	-4755
▁betrogen	-4756
▁brauchst	-4757
▁eisernen	-4758
▁erreicht	-4759
▁erwarten	-4760
▁gelangte	-4761
▁glänzend	-4762
▁sammelte	-4763
▁schauten	-4764
▁schienen	-4765
▁zitterte	-4766
▁Abenteuer	-4767
▁Nachricht	-4768
▁arbeitete	-4769
▁denselben	-4770
▁erinnerte	-4771
▁herrliche	-4772
▁verwunder	-4773
▁vornehmen	-4774
▁wiederkam	-4775
▁Jungfrauen	-4776
▁Kohlenmunk	-4777
▁verwünscht	-4778
▁Gelegenheit	-4779
▁mitgebracht	-4780
▁Schatzhauser	-4781
▁Sonnenstrahl	-4782
▁Kaufmannssohn	-4783
Ge	-4784
gr	-4785
iv	-4786
Mir	-4787
hei	-4788
krä	-4789
tin	-4790
tun	-4791
ube	-4792
ume	-4793
▁Di	-4794
▁Fä	-4795
▁Rä	-4796
Dann	-4797
anze	-4798
bier	-4799
dann	-4800
denk	-4801
lass	-4802
phet	-4803
ritt	-4804
stag	-4805
tend	-4806
wohn	-4807
▁Duk	-4808
▁Hat	-4809
▁Kür	-4810
▁Mäu	-4811
▁Rot	-4812
▁Säu	-4813
▁brü	-4814
▁füt	-4815
▁trü	-4816
▁ärm	-4817
ahlte	-4818
arrte	-4819
atsch	-4820
deckt	-4821
herrn	-4822
junge	-4823
komme	-4824
linge	-4825
mütig	-4826
olgte	-4827
raute	-4828
reden	-4829
rigen	-4830
seits	-4831
smann	-4832
▁Bass	-4833
▁Drau	-4834
▁Prie	-4835
▁Spaß	-4836
▁Stel	-4837
Nichts	-4838
ackten	-4839
derben	-4840
eimnis	-4841
freund	-4842
hnchen	-4843
leiter	-4844
▁Bäuer	-4845
▁Frank	-4846
▁Gewöl	-4847
▁Kampf	-4848
▁Probe	-4849
▁Richt	-4850
▁Stand	-4851
▁Stirn	-4852
▁Wiege	-4853
▁Zelte	-4854
▁ansah	-4855
▁beweg	-4856
▁finde	-4857
▁ginge	-4858
▁küßte	-4859
▁müsst	-4860
▁sanft	-4861
▁schlü	-4862
▁stach	-4863
▁stumm	-4864
▁äußer	-4865
öpfchen	-4866
▁Bettel	-4867
▁Landes	-4868
▁Narren	-4869
▁Schild	-4870
▁Schrei	-4871
▁Sitten	-4872
▁Streit	-4873
▁befand	-4874
▁geholt	-4875
▁gemein	-4876
▁rollte	-4877
▁scharf	-4878
▁sorgen	-4879
▁voraus	-4880
▁Dukaten	-4881
▁Fingern	-4882
▁Früchte	-4883
▁Kräuter	-4884
▁Kutsche	-4885
▁Prophet	-4886
▁Stelzen	-4887
▁Tropfen	-4888
▁anfangs	-4889
▁behielt	-4890
▁daneben	-4891
▁erzähle	-4892
▁genannt	-4893
▁Fenstern	-4894
▁Herrgott	-4895
▁Priester	-4896
▁Renntier	-4897
▁Sonntags	-4898
▁anziehen	-4899
▁darunter	-4900
▁falschen	-4901
▁gebunden	-4902
▁gefahren	-4903
▁gelangen	-4904
▁gelassen	-4905
▁gesteckt	-4906
▁gewonnen	-4907
▁gewähren	-4908
▁jammerte	-4909
▁ungefähr	-4910
▁verboten	-4911
▁vollends	-4912
▁Engländer	-4913
▁Reisenden	-4914
▁derselben	-4915
▁reichlich	-4916
▁unmöglich	-4917
▁Pantoffeln	-4918
▁Sprüchlein	-4919
▁Tannenwald	-4920
▁bescheiden	-4921
▁erschienen	-4922
▁unsichtbar	-4923
▁Aschenputtel	-4924
Den	-4925
elz	-4926
ine	-4927
ora	-4928
zeu	-4929
▁Pu	-4930
▁aß	-4931
Kann	-4932
Seht	-4933
Wahr	-4934
afft	-4935
bern	-4936
chin	-4937
ehet	-4938
ilde	-4939
imml	-4940
loch	-4941
maus	-4942
mein	-4943
olch	-4944
zend	-4945
ünst	-4946
ürzt	-4947
▁Ehr	-4948
▁Hen	-4949
▁Irr	-4950
▁Maj	-4951
▁bil	-4952
▁erz	-4953
▁laß	-4954
Wohin	-4955
adeln	-4956
astes	-4957
enkte	-4958
ernte	-4959
hauen	-4960
iffen	-4961
insen	-4962
laubt	-4963
oseph	-4964
ruder	-4965
ucker	-4966
wesen	-4967
äumen	-4968
▁Floß	-4969
▁Gebü	-4970
▁Gesp	-4971
▁Helm	-4972
▁Ihre	-4973
▁Kalb	-4974
▁Omar	-4975
▁Ross	-4976
▁Sarg	-4977
▁droh	-4978
▁feur	-4979
▁lege	-4980
▁müßt	-4981
▁seht	-4982
▁teil	-4983
Jawohl	-4984
ittern	-4985
kaufen	-4986
ropfen	-4987
öffnet	-4988
ückten	-4989
▁Besen	-4990
▁Dorfe	-4991
▁Fatme	-4992
▁Halsb	-4993
▁Kaffe	-4994
▁Rauch	-4995
▁Taube	-4996
▁Wolke	-4997
▁Wunde	-4998
▁assen	-4999
▁erret	-5000
▁himml	-5001
▁inner	-5002
▁klang	-5003
▁trägt	-5004
▁wusch	-5005
▁Anfang	-5006
▁Dornen	-5007
▁Farben	-5008
▁Gewohn	-5009
▁Joseph	-5010
▁Köhler	-5011
▁Peters	-5012
▁Prophe	-5013
▁Schlei	-5014
▁Sänger	-5015
▁Sünder	-5016
▁Willst	-5017
▁befrei	-5018
▁deines	-5019
▁einsch	-5020
▁grüßte	-5021
▁liebte	-5022
▁strich	-5023
▁verbar	-5024
▁warmen	-5025
▁Geselle	-5026
▁Schmerz	-5027
▁Strasse	-5028
▁besetzt	-5029
▁einigem	-5030
▁ergehen	-5031
▁gelegen	-5032
▁gelehrt	-5033
▁herange	-5034
▁kriegte	-5035
▁schauen	-5036
▁schrien	-5037
▁täglich	-5038
▁unseren	-5039
▁vierten	-5040
▁Anführer	-5041
▁Gefallen	-5042
▁Karawane	-5043
▁Körbchen	-5044
▁Liebsten	-5045
▁Mahlzeit	-5046
▁Schwalbe	-5047
▁Schwelle	-5048
▁Weilchen	-5049
▁bestimmt	-5050
▁deswegen	-5051
▁deutlich	-5052
▁forderte	-5053
▁fürchten	-5054
▁gestellt	-5055
▁lächelnd	-5056
▁untersch	-5057
▁Begleiter	-5058
▁gewünscht	-5059
▁schlimmer	-5060
▁schneewei	-5061
▁trefflich	-5062
▁vergangen	-5063
▁Goldstücke	-5064
▁Kronenwirt	-5065
▁Traumbuche	-5066
▁beschäftig	-5067
▁zugegangen	-5068
▁Augenblicke	-5069
▁auseinander	-5070
▁dreihundert	-5071
▁geschlossen	-5072
▁sonderbaren	-5073
▁wunderschöne	-5074
▁`	-5075
Hör	-5076
Vor	-5077
eff	-5078
ftr	-5079
mir	-5080
sei	-5081
▁It	-5082
▁Lü	-5083
asch	-5084
denn	-5085
esse	-5086
etze	-5087
geld	-5088
gesp	-5089
hier	-5090
holz	-5091
icke	-5092
iehl	-5093
krie	-5094
nehm	-5095
onig	-5096
reie	-5097
änke	-5098
önte	-5099
ühte	-5100
▁Ben	-5101
▁Par	-5102
▁Stä	-5103
▁grä	-5104
apfen	-5105
arfen	-5106
ettel	-5107
geist	-5108
ieder	-5109
iegel	-5110
itzte	-5111
ratet	-5112
rauch	-5113
reckt	-5114
zeigt	-5115
▁Blei	-5116
▁Eule	-5117
▁Gäns	-5118
▁Herd	-5119
▁Kist	-5120
▁Krug	-5121
▁Mohr	-5122
▁Pelz	-5123
▁Rand	-5124
▁Rück	-5125
▁Unbe	-5126
▁einf	-5127
▁heft	-5128
▁klat	-5129
▁sorg	-5130
artete	-5131
ehnten	-5132
gingen	-5133
ichtes	-5134
langte	-5135
lieber	-5136
oschen	-5137
wendig	-5138
wiesen	-5139
üsseln	-5140
▁Arbei	-5141
▁Beste	-5142
▁Dache	-5143
▁Eiche	-5144
▁Fluss	-5145
▁Henne	-5146
▁Kälte	-5147
▁Salat	-5148
▁Wider	-5149
▁Woche	-5150
▁achte	-5151
▁bange	-5152
▁bunte	-5153
▁gehör	-5154
▁gerad	-5155
▁indes	-5156
▁neuem	-5157
▁wagen	-5158
▁zerst	-5159
▁Ärger	-5160
geladen	-5161
mherzig	-5162
▁Erbsen	-5163
▁Karren	-5164
▁Könige	-5165
▁Körper	-5166
▁Marsch	-5167
▁Nachtl	-5168
▁Nächte	-5169
▁bisher	-5170
▁deckte	-5171
▁dunkle	-5172
▁erbärm	-5173
▁gnädig	-5174
▁größte	-5175
▁hüpfte	-5176
▁jämmer	-5177
▁klagen	-5178
▁könnet	-5179
▁leeren	-5180
▁nennen	-5181
▁vierte	-5182
▁vollem	-5183
▁zählen	-5184
▁Aufgabe	-5185
▁Männern	-5186
▁Schnell	-5187
▁dunkler	-5188
▁gedient	-5189
▁gefragt	-5190
▁gehörte	-5191
▁gerührt	-5192
▁herüber	-5193
▁kehrten	-5194
▁scheint	-5195
▁streich	-5196
▁tüchtig	-5197
▁vorigen	-5198
▁weichen	-5199
▁zurecht	-5200
▁Groschen	-5201
▁Kistchen	-5202
▁Söhnlein	-5203
▁Tüchlein	-5204
▁ausgesch	-5205
▁dieselbe	-5206
▁einziger	-5207
▁entfernt	-5208
▁erfüllen	-5209
▁schicken	-5210
▁schimmer	-5211
▁tröstete	-5212
▁versehen	-5213
▁Großvater	-5214
▁Schlitten	-5215
▁Vorschlag	-5216
▁abgehauen	-5217
▁allerhand	-5218
▁geschieht	-5219
▁getrieben	-5220
▁getroffen	-5221
▁gewachsen	-5222
▁schwimmen	-5223
▁versteckt	-5224
▁vornehmer	-5225
▁ärgerlich	-5226
▁Einäuglein	-5227
▁Gefangenen	-5228
▁Hauptstadt	-5229
▁Mütterchen	-5230
▁gesprungen	-5231
▁Blitzschwab	-5232
▁Friederchen	-5233
▁beschlossen	-5234
▁Herrlichkeit	-5235
▁wiederkommen	-5236
Le	-5237
gy	-5238
hm	-5239
tum	-5240
ugs	-5241
urf	-5242
zum	-5243
zun	-5244
▁Fu	-5245
▁Ku	-5246
▁gs	-5247
▁gä	-5248
Frau	-5249
Halt	-5250
erin	-5251
flog	-5252
irbt	-5253
lauf	-5254
neur	-5255
olgt	-5256
pfei	-5257
rein	-5258
uern	-5259
ungs	-5260
uver	-5261
ürte	-5262
▁Ant	-5263
▁Ast	-5264
▁Gar	-5265
▁Lam	-5266
▁Neu	-5267
▁Wil	-5268
▁bar	-5269
▁erl	-5270
▁hau	-5271
▁mut	-5272
▁nah	-5273
▁quä	-5274
▁reg	-5275
Einen	-5276
ehlen	-5277
elben	-5278
elden	-5279
hügel	-5280
ittel	-5281
licht	-5282
reuen	-5283
wesir	-5284
örner	-5285
ünden	-5286
▁Betr	-5287
▁Gren	-5288
▁Hünd	-5289
▁Reue	-5290
▁Spur	-5291
▁Tags	-5292
▁Voll	-5293
▁Weis	-5294
▁besp	-5295
▁galt	-5296
▁greu	-5297
▁mild	-5298
▁mirs	-5299
▁tust	-5300
blasen	-5301
ierten	-5302
itzten	-5303
jungen	-5304
kuchen	-5305
laster	-5306
wasser	-5307
▁Abner	-5308
▁Beweg	-5309
▁Damen	-5310
▁Elend	-5311
▁Euren	-5312
▁Gebet	-5313
▁Geige	-5314
▁Hexen	-5315
▁Honig	-5316
▁Juden	-5317
▁Krank	-5318
▁Meere	-5319
▁Mütze	-5320
▁Saale	-5321
▁Schaf	-5322
▁Schon	-5323
▁Schoß	-5324
▁Seide	-5325
▁Staub	-5326
▁Troll	-5327
▁Wände	-5328
▁artig	-5329
▁ausru	-5330
▁drang	-5331
▁führt	-5332
▁geseg	-5333
▁kling	-5334
▁plump	-5335
▁schob	-5336
▁trotz	-5337
erdings	-5338
reichte	-5339
tochter	-5340
östlich	-5341
▁Bilder	-5342
▁Bissen	-5343
▁Flözer	-5344
▁Gewehr	-5345
▁Gouver	-5346
▁Handel	-5347
▁Rechte	-5348
▁Scherz	-5349
▁Schwer	-5350
▁Spiess	-5351
▁Spring	-5352
▁Stange	-5353
▁Sterne	-5354
▁Stuben	-5355
▁Waffen	-5356
▁Wangen	-5357
▁Weiden	-5358
▁Zettel	-5359
▁betete	-5360
▁blühen	-5361
▁danken	-5362
▁droben	-5363
▁dummer	-5364
▁erfuhr	-5365
▁erster	-5366
▁geschl	-5367
▁goldne	-5368
▁junges	-5369
▁klugen	-5370
▁ritten	-5371
▁steckt	-5372
▁trinkt	-5373
▁unters	-5374
▁vergaß	-5375
▁zauber	-5376
gefahren	-5377
zukommen	-5378
zunehmen	-5379
▁Flammen	-5380
▁Gewölbe	-5381
▁Wohnung	-5382
▁befreit	-5383
▁bringst	-5384
▁eiserne	-5385
▁empfing	-5386
▁gerufen	-5387
▁horchte	-5388
▁krachte	-5389
▁lachend	-5390
▁schenkt	-5391
▁schläft	-5392
▁starken	-5393
▁versamm	-5394
▁weinend	-5395
▁Derwisch	-5396
▁Feldmaus	-5397
▁Fußboden	-5398
▁Hähnchen	-5399
▁Schleppe	-5400
▁Schwaben	-5401
▁aufheben	-5402
▁bedeuten	-5403
▁fürchter	-5404
▁geradezu	-5405
▁geritten	-5406
▁schreien	-5407
▁seltsame	-5408
▁steckten	-5409
▁versteht	-5410
▁wolltest	-5411
▁übrigens	-5412
lichkeiten	-5413
▁Gefährten	-5414
▁Glashütte	-5415
▁Nachbarin	-5416
▁dieselben	-5417
▁ernsthaft	-5418
▁flüsterte	-5419
▁natürlich	-5420
▁neugierig	-5421
▁schreiben	-5422
▁versunken	-5423
▁Gouverneur	-5424
▁abschlagen	-5425
▁erscheinen	-5426
▁unschuldig	-5427
▁versteckte	-5428
▁wunderbare	-5429
▁Dreiäuglein	-5430
▁Wahrzeichen	-5431
▁gleichfalls	-5432
▁glücklicher	-5433
▁versprechen	-5434
▁Hirschgulden	-5435
▁Räubermädchen	-5436
▁schrecklichen	-5437
▁Tanzbodenkönig	-5438
di	-5439
hö	-5440
ps	-5441
▁«	-5442
dam	-5443
eig	-5444
eis	-5445
müt	-5446
änk	-5447
▁-«	-5448
▁Oh	-5449
▁al	-5450
▁dü	-5451
▁ed	-5452
Hans	-5453
Höre	-5454
auss	-5455
blät	-5456
dass	-5457
dest	-5458
eder	-5459
ehle	-5460
erer	-5461
feld	-5462
geln	-5463
helm	-5464
hung	-5465
kopf	-5466
lose	-5467
pten	-5468
tuch	-5469
wurf	-5470
▁Pas	-5471
▁Rät	-5472
▁gep	-5473
▁unv	-5474
▁Ärm	-5475
Warte	-5476
ahmen	-5477
allte	-5478
erten	-5479
fchen	-5480
ieden	-5481
ieger	-5482
ielte	-5483
iesen	-5484
illen	-5485
liebe	-5486
otten	-5487
reppe	-5488
urren	-5489
wagen	-5490
äusch	-5491
▁Flie	-5492
▁Hirt	-5493
▁Kreb	-5494
▁Narr	-5495
▁Soll	-5496
▁Stör	-5497
▁Zech	-5498
▁entw	-5499
▁erwe	-5500
▁gelb	-5501
▁heiß	-5502
▁hätt	-5503
▁isst	-5504
▁just	-5505
▁leid	-5506
▁lern	-5507
▁ruft	-5508
▁wild	-5509
Siehst	-5510
fangen	-5511
herren	-5512
liefen	-5513
ritten	-5514
sleute	-5515
vollen	-5516
▁Affen	-5517
▁Bassa	-5518
▁Dolch	-5519
▁Faden	-5520
▁Halse	-5521
▁Insel	-5522
▁Jeden	-5523
▁Schna	-5524
▁Strom	-5525
▁Treue	-5526
▁Wesir	-5527
▁Zähne	-5528
▁angeh	-5529
▁besaß	-5530
▁beten	-5531
▁bloss	-5532
▁dumme	-5533
▁erbar	-5534
▁euren	-5535
▁frage	-5536
▁heira	-5537
▁linke	-5538
▁nacht	-5539
▁verur	-5540
▁weise	-5541
▁zieht	-5542
etwegen	-5543
gekehrt	-5544
schnitt	-5545
▁Befehl	-5546
▁Bäcker	-5547
▁Fragte	-5548
▁Freier	-5549
▁Glücks	-5550
▁Haupte	-5551
▁Heller	-5552
▁Hutzel	-5553
▁Kindes	-5554
▁Kittel	-5555
▁Mauern	-5556
▁Muster	-5557
▁Sessel	-5558
▁Traume	-5559
▁Winkel	-5560
▁bequem	-5561
▁bleibe	-5562
▁drohte	-5563
▁eilend	-5564
▁freuen	-5565
▁gebaut	-5566
▁geschw	-5567
▁glaubt	-5568
▁glühen	-5569
▁lernte	-5570
▁manche	-5571
▁ordent	-5572
▁redete	-5573
▁sinken	-5574
▁stille	-5575
▁teilen	-5576
▁wenige	-5577
gebunden	-5578
gestellt	-5579
heimerin	-5580
zwischen	-5581
▁Ansehen	-5582
▁Holland	-5583
▁Kranken	-5584
▁Schwäne	-5585
▁Strümpf	-5586
▁Sultans	-5587
▁Wilhelm	-5588
▁Zukunft	-5589
▁befiehl	-5590
▁bekommt	-5591
▁brennen	-5592
▁gezeigt	-5593
▁möchten	-5594
▁näherte	-5595
▁schickt	-5596
▁springt	-5597
▁ungeheu	-5598
▁verdrie	-5599
▁verfiel	-5600
▁verschm	-5601
▁Besseres	-5602
▁Hühnchen	-5603
▁Schleier	-5604
▁Tänzerin	-5605
▁Zugleich	-5606
▁abziehen	-5607
▁annehmen	-5608
▁bereitet	-5609
▁besuchen	-5610
▁dahinter	-5611
▁gewartet	-5612
▁geöffnet	-5613
▁hingehen	-5614
▁hässlich	-5615
▁mitgehen	-5616
▁schuldig	-5617
▁vierzehn	-5618
▁wunderte	-5619
▁Großwesir	-5620
▁Schneeflo	-5621
▁Schwieger	-5622
▁Tischlein	-5623
▁antworten	-5624
▁gefressen	-5625
▁immerfort	-5626
▁schwammen	-5627
▁silbernen	-5628
▁unterwegs	-5629
▁vergingen	-5630
▁Gastfreund	-5631
▁Kammerfrau	-5632
▁Landstraße	-5633
▁Nachtlager	-5634
▁aufmerksam	-5635
▁eingeladen	-5636
▁mitgenommen	-5637
▁verwunderte	-5638
▁wunderbaren	-5639
▁Feldheimerin	-5640
▁gewöhnlichen	-5641
▁Königstöchter	-5642
ja	-5643
ko	-5644
mo	-5645
ui	-5646
uk	-5647
▁	-5648
Von	-5649
alm	-5650
hut	-5651
ion	-5652
jen	-5653
läu	-5654
nig	-5655
ruh	-5656
sle	-5657
urr	-5658
▁Ru	-5659
buch	-5660
frig	-5661
immt	-5662
kehr	-5663
osen	-5664
schä	-5665
trat	-5666
trug	-5667
uhen	-5668
wurm	-5669
zahl	-5670
äche	-5671
▁Fah	-5672
▁Fee	-5673
▁Kav	-5674
▁Mir	-5675
▁Müh	-5676
▁Wöl	-5677
▁flö	-5678
▁klü	-5679
Alles	-5680
andte	-5681
atzte	-5682
blatt	-5683
bruch	-5684
gerte	-5685
hansl	-5686
herum	-5687
hlten	-5688
irten	-5689
lesen	-5690
musik	-5691
sonst	-5692
volle	-5693
weile	-5694
wurst	-5695
älder	-5696
ärten	-5697
öhnen	-5698
▁Acht	-5699
▁Back	-5700
▁Buck	-5701
▁Erfü	-5702
▁Fluß	-5703
▁Gemü	-5704
▁Lehr	-5705
▁Metz	-5706
▁Name	-5707
▁Pers	-5708
▁Säle	-5709
▁Trin	-5710
▁Verb	-5711
▁ausb	-5712
▁dünn	-5713
▁rund	-5714
▁samt	-5715
▁umdr	-5716
▁wozu	-5717
bergen	-5718
ernarr	-5719
gelegt	-5720
gräber	-5721
hstück	-5722
häuser	-5723
häuter	-5724
leidig	-5725
reisen	-5726
würdig	-5727
▁Ander	-5728
▁Busch	-5729
▁Dabei	-5730
▁Daher	-5731
▁Jubel	-5732
▁Noten	-5733
▁Sohne	-5734
▁Tabak	-5735
▁Weide	-5736
▁absch	-5737
▁behen	-5738
▁blaue	-5739
▁gebar	-5740
▁gutem	-5741
▁ischt	-5742
▁sichs	-5743
▁wahre	-5744
euchten	-5745
lichter	-5746
orbenen	-5747
räulein	-5748
stecken	-5749
▁Büchse	-5750
▁Geschm	-5751
▁Gnaden	-5752
▁Hunden	-5753
▁Jahres	-5754
▁Kaffee	-5755
▁Künste	-5756
▁Leibes	-5757
▁Lieder	-5758
▁Linsen	-5759
▁Lumpen	-5760
▁Scheff	-5761
▁Schoss	-5762
▁Spruch	-5763
▁Stühle	-5764
▁Weiber	-5765
▁aufsch	-5766
▁dummen	-5767
▁fester	-5768
▁gewand	-5769
▁harten	-5770
▁heiter	-5771
▁kalten	-5772
▁kosten	-5773
▁kurzer	-5774
▁nachzu	-5775
▁rannte	-5776
▁schnar	-5777
▁sowohl	-5778
▁öffnen	-5779
häuschen	-5780
richtete	-5781
▁Ameisen	-5782
▁Bettler	-5783
▁Blicken	-5784
▁Dienern	-5785
▁Metzger	-5786
▁Mittags	-5787
▁Polster	-5788
▁Schlafe	-5789
▁bekomme	-5790
▁braucht	-5791
▁rauchte	-5792
▁stillen	-5793
▁trieben	-5794
▁unserem	-5795
▁verbarg	-5796
▁verirrt	-5797
▁waschen	-5798
▁wischte	-5799
▁Älteste	-5800
▁überzeu	-5801
▁Gesindel	-5802
▁Nachbarn	-5803
▁Schiffer	-5804
▁Weisheit	-5805
▁beschloß	-5806
▁entstand	-5807
▁köstlich	-5808
▁langweil	-5809
▁manchmal	-5810
▁nochmals	-5811
▁stürzten	-5812
▁unschuld	-5813
▁vornehme	-5814
▁Bäuerlein	-5815
▁Erfüllung	-5816
▁Frühstück	-5817
▁Galoschen	-5818
▁Propheten	-5819
▁Schlangen	-5820
▁Schritten	-5821
▁Schüsseln	-5822
▁Unterhalt	-5823
▁ausziehen	-5824
▁erstaunte	-5825
▁leuchtete	-5826
▁mitleidig	-5827
▁verkaufte	-5828
▁Kammerjung	-5829
▁Spielhansl	-5830
▁erblickten	-5831
▁erschlagen	-5832
▁verstanden	-5833
▁Bärenhäuter	-5834
▁Eigenschaft	-5835
▁Totengräber	-5836
▁beschäftigt	-5837
▁entsetzlich	-5838
▁zweihundert	-5839
▁Schwarzwälder	-5840
▁unglücklicher	-5841
lä	-5842
Als	-5843
Gib	-5844
Nur	-5845
erb	-5846
hes	-5847
ixe	-5848
näd	-5849
rad	-5850
set	-5851
tor	-5852
änn	-5853
ätt	-5854
öne	-5855
▁Eh	-5856
▁di	-5857
Nimm	-5858
iebt	-5859
iete	-5860
ippe	-5861
jahr	-5862
lapp	-5863
lege	-5864
litz	-5865
mahl	-5866
raus	-5867
samm	-5868
stab	-5869
unst	-5870
urin	-5871
▁Fle	-5872
▁Hän	-5873
▁Jen	-5874
▁Kob	-5875
▁Ruh	-5876
▁Trö	-5877
▁bog	-5878
▁dün	-5879
▁eis	-5880
▁har	-5881
▁leb	-5882
▁mür	-5883
▁nir	-5884
aiser	-5885
ament	-5886
erben	-5887
estät	-5888
hafte	-5889
hören	-5890
iefel	-5891
igten	-5892
jagen	-5893
lande	-5894
locke	-5895
ockel	-5896
prinz	-5897
putzt	-5898
reide	-5899
sagen	-5900
schie	-5901
utsam	-5902
wicht	-5903
zählt	-5904
▁Bach	-5905
▁Bist	-5906
▁Diam	-5907
▁Erbe	-5908
▁Fähr	-5909
▁Gaul	-5910
▁Heil	-5911
▁Lage	-5912
▁Moor	-5913
▁Nord	-5914
▁Stär	-5915
▁Tief	-5916
▁Trom	-5917
▁Veit	-5918
▁dank	-5919
▁denk	-5920
▁gott	-5921
▁herz	-5922
▁matt	-5923
▁rass	-5924
▁zapp	-5925
andelt	-5926
derten	-5927
diener	-5928
haften	-5929
kissen	-5930
küchen	-5931
pfeife	-5932
stchen	-5933
ärchen	-5934
▁Einen	-5935
▁Einer	-5936
▁Faust	-5937
▁Hasel	-5938
▁Kapit	-5939
▁Kaval	-5940
▁Knöpf	-5941
▁Kreis	-5942
▁Maßen	-5943
▁Sinne	-5944
▁Sünde	-5945
▁Väter	-5946
▁Würde	-5947
▁blank	-5948
▁böser	-5949
▁drein	-5950
▁ergöt	-5951
▁fahre	-5952
▁flugs	-5953
▁fränk	-5954
▁gibst	-5955
▁heben	-5956
▁setzt	-5957
▁trage	-5958
▁verab	-5959
▁warte	-5960
▁wenns	-5961
fliegen	-5962
tausend	-5963
änglich	-5964
▁Backen	-5965
▁Brille	-5966
▁Buckel	-5967
▁Bäurin	-5968
▁Geruch	-5969
▁Gockel	-5970
▁Kragen	-5971
▁Kräfte	-5972
▁Krähen	-5973
▁Köchin	-5974
▁Mitten	-5975
▁Nachts	-5976
▁Retter	-5977
▁Schwan	-5978
▁Seelen	-5979
▁Verzei	-5980
▁Vögeln	-5981
▁fünfte	-5982
▁halbes	-5983
▁kostet	-5984
▁linken	-5985
▁packen	-5986
▁rühren	-5987
▁sandte	-5988
▁schalt	-5989
▁stände	-5990
▁wilder	-5991
▁wählen	-5992
▁überra	-5993
zeichnet	-5994
▁Frösche	-5995
▁Gebüsch	-5996
▁Glauben	-5997
▁Glieder	-5998
▁Hirsche	-5999
▁Schande	-6000
▁Sternen	-6001
▁Wurzeln	-6002
▁anbrach	-6003
▁begeben	-6004
▁beladen	-6005
▁bewegen	-6006
▁bezahlt	-6007
▁eigener	-6008
▁einschl	-6009
▁gekocht	-6010
▁gestand	-6011
▁getreue	-6012
▁getrost	-6013
▁höchste	-6014
▁küssten	-6015
▁nirgend	-6016
▁rechter	-6017
▁schwach	-6018
▁steigen	-6019
▁trösten	-6020
▁verließ	-6021
▁wendete	-6022
▁zeigten	-6023
▁zündete	-6024
schneiden	-6025
▁Füllchen	-6026
▁Maulwurf	-6027
▁Palastes	-6028
▁Schlafen	-6029
▁Schwarze	-6030
▁Täubchen	-6031
▁erlauben	-6032
▁gebraten	-6033
▁gespielt	-6034
▁kümmerte	-6035
▁staunten	-6036
▁verlange	-6037
▁willigte	-6038
▁Belohnung	-6039
▁Gesichter	-6040
▁Krankheit	-6041
▁Schnecken	-6042
▁angefüllt	-6043
▁aufstehen	-6044
▁desselben	-6045
▁einfallen	-6046
▁erblicken	-6047
▁erwartete	-6048
▁verzauber	-6049
▁Hirschberg	-6050
▁Hutzelbein	-6051
▁Rosenstock	-6052
▁schlechter	-6053
▁sorgfältig	-6054
▁wunderlich	-6055
▁sonderbarer	-6056
▁verwünschte	-6057
küchenmeister	-6058
▁schreckliche	-6059
18	-6060
St	-6061
om	-6062
,	-6063
ös	-6064
Man	-6065
bal	-6066
ide	-6067
ird	-6068
orm	-6069
rub	-6070
trä	-6071
ußt	-6072
ätz	-6073
ült	-6074
▁Bi	-6075
▁Mö	-6076
▁ak	-6077
▁rä	-6078
▁se	-6079
Bist	-6080
Weil	-6081
ankt	-6082
anzt	-6083
arra	-6084
dert	-6085
ifft	-6086
laub	-6087
lebt	-6088
olge	-6089
ollt	-6090
oral	-6091
sein	-6092
usst	-6093
welt	-6094
ärte	-6095
▁Daß	-6096
▁Dir	-6097
▁Prü	-6098
▁Tur	-6099
▁Unt	-6100
▁güt	-6101
▁höf	-6102
▁miß	-6103
▁sau	-6104
▁ähn	-6105
Adies	-6106
Schon	-6107
acker	-6108
alter	-6109
bogen	-6110
diger	-6111
enner	-6112
grund	-6113
icher	-6114
immte	-6115
ltern	-6116
pfeln	-6117
reift	-6118
risch	-6119
römte	-6120
umher	-6121
▁Anst	-6122
▁Geiz	-6123
▁Gret	-6124
▁Hemd	-6125
▁Käse	-6126
▁Neug	-6127
▁Ohnm	-6128
▁Plan	-6129
▁Zwer	-6130
▁entz	-6131
▁fürs	-6132
▁hole	-6133
▁murm	-6134
▁pick	-6135
▁sähe	-6136
▁zert	-6137
▁zieh	-6138
Wohlan	-6139
ckchen	-6140
ettern	-6141
ftrunk	-6142
gliche	-6143
ickter	-6144
kommst	-6145
lstein	-6146
mmchen	-6147
morgen	-6148
schwar	-6149
sslich	-6150
utlein	-6151
▁Baron	-6152
▁Ecken	-6153
▁Eurer	-6154
▁Füchs	-6155
▁Fürst	-6156
▁Heide	-6157
▁Hofst	-6158
▁Krebs	-6159
▁Nonne	-6160
▁Rosse	-6161
▁Schlö	-6162
▁Segel	-6163
▁Sprün	-6164
▁Tiefe	-6165
▁Webst	-6166
▁Zwill	-6167
▁andre	-6168
▁aufge	-6169
▁dürfe	-6170
▁eitel	-6171
▁fehle	-6172
▁folge	-6173
▁fragt	-6174
▁genie	-6175
▁harte	-6176
▁hoher	-6177
▁kennt	-6178
▁kurze	-6179
▁nehme	-6180
▁scheu	-6181
▁schim	-6182
▁schoß	-6183
▁sitze	-6184
▁spann	-6185
▁steif	-6186
▁steil	-6187
▁suche	-6188
▁warme	-6189
▁wärst	-6190
fernung	-6191
icklein	-6192
leichen	-6193
reckten	-6194
samkeit	-6195
wachsen	-6196
wartung	-6197
▁Birnen	-6198
▁Feinde	-6199
▁Henker	-6200
▁Kairam	-6201
▁Kobold	-6202
▁Köpfen	-6203
▁Marmor	-6204
▁Nichts	-6205
▁Pfarra	-6206
▁Rachen	-6207
▁Schilf	-6208
▁Schutz	-6209
▁Seiden	-6210
▁Träume	-6211
▁Wünsch	-6212
▁Zungen	-6213
▁fliegt	-6214
▁gelöst	-6215
▁gewann	-6216
▁graute	-6217
▁großem	-6218
▁hellen	-6219
▁herank	-6220
▁rückte	-6221
▁schaff	-6222
▁schlaf	-6223
▁seiden	-6224
▁stirbt	-6225
▁tiefes	-6226
▁vieles	-6227
▁Überfl	-6228
arbeiter	-6229
männchen	-6230
▁Antlitz	-6231
▁Barbier	-6232
▁Bruders	-6233
▁Darüber	-6234
▁Fürsten	-6235
▁Gvatter	-6236
▁Lichter	-6237
▁Reichen	-6238
▁Stimmen	-6239
▁Versuch	-6240
▁Zweifel	-6241
▁aufgest	-6242
▁dichter	-6243
▁eilends	-6244
▁empfand	-6245
▁fremder	-6246
▁gedeckt	-6247
▁gekannt	-6248
▁gesucht	-6249
▁gewohnt	-6250
▁grausam	-6251
▁heissen	-6252
▁kräftig	-6253
▁letzter	-6254
▁meldete	-6255
▁merkten	-6256
▁redlich	-6257
▁unrecht	-6258
▁vergass	-6259
▁wieviel	-6260
▁zwölfte	-6261
schreiber	-6262
▁Geschick	-6263
▁Kavalier	-6264
▁Peitsche	-6265
▁Pflaster	-6266
▁anlangte	-6267
▁aufhören	-6268
▁ausgehen	-6269
▁bedachte	-6270
▁befreien	-6271
▁bereiten	-6272
▁einerlei	-6273
▁erlaubte	-6274
▁gleichen	-6275
▁goldenes	-6276
▁hübsches	-6277
▁mächtige	-6278
▁solltest	-6279
▁zierlich	-6280
▁zurückzu	-6281
▁Entschluß	-6282
▁Kräutlein	-6283
▁Marschall	-6284
▁Müdigkeit	-6285
▁Mühlstein	-6286
▁entdeckte	-6287
▁ergriffen	-6288
▁mächtiger	-6289
▁schleppte	-6290
▁verderben	-6291
▁vernommen	-6292
▁Brüderchen	-6293
▁Entfernung	-6294
▁Gewohnheit	-6295
▁Handschuhe	-6296
▁Spielpeter	-6297
▁Unterricht	-6298
▁erschraken	-6299
▁herrlicher	-6300
▁zweitenmal	-6301
▁Grossknecht	-6302
▁Himmelreich	-6303
▁Schlaftrunk	-6304
▁totschlagen	-6305
▁wunderliche	-6306
▁übernachten	-6307
▁Grünwieseler	-6308
▁Wanderschaft	-6309
▁fortgegangen	-6310
▁zurückkehren	-6311
▁Schneeflocken	-6312
Im	-6313
fä	-6314
▁—	-6315
Aha	-6316
fei	-6317
iep	-6318
lem	-6319
pat	-6320
res	-6321
upf	-6322
▁Gü	-6323
▁at	-6324
▁rü	-6325
Drei	-6326
Gehe	-6327
atzt	-6328
eien	-6329
feln	-6330
grau	-6331
hirt	-6332
iede	-6333
ieng	-6334
olde	-6335
rieb	-6336
sung	-6337
test	-6338
urem	-6339
önen	-6340
▁Grö	-6341
▁Kor	-6342
▁Kuß	-6343
▁Käl	-6344
▁Sen	-6345
▁bau	-6346
▁mie	-6347
▁not	-6348
▁pol	-6349
▁rat	-6350
▁rüh	-6351
▁süß	-6352
▁Ägy	-6353
Könnt	-6354
Liebe	-6355
Meine	-6356
altet	-6357
arsch	-6358
auste	-6359
bares	-6360
blein	-6361
ehler	-6362
engte	-6363
hauer	-6364
holte	-6365
ietro	-6366
ildet	-6367
ingst	-6368
istan	-6369
ittes	-6370
jetzt	-6371
klein	-6372
knabe	-6373
losen	-6374
mmert	-6375
mutig	-6376
riger	-6377
schal	-6378
terte	-6379
ustin	-6380
ästen	-6381
ätzen	-6382
öhnte	-6383
üttel	-6384
▁Ball	-6385
▁Brei	-6386
▁Dazu	-6387
▁Garn	-6388
▁Gram	-6389
▁Hörn	-6390
▁Hüne	-6391
▁Kann	-6392
▁Kurz	-6393
▁Kühe	-6394
▁Lang	-6395
▁Mast	-6396
▁Maus	-6397
▁Nixe	-6398
▁Rute	-6399
▁Rüst	-6400
▁Satz	-6401
▁Star	-6402
▁feil	-6403
▁gang	-6404
▁gepf	-6405
▁gäbe	-6406
▁laßt	-6407
▁prob	-6408
▁roch	-6409
▁winz	-6410
▁Äste	-6411
ahrung	-6412
bursch	-6413
ehrter	-6414
eitung	-6415
etzten	-6416
gelten	-6417
gesagt	-6418
indest	-6419
rochen	-6420
rossen	-6421
teilte	-6422
▁Bande	-6423
▁Duett	-6424
▁Gebir	-6425
▁Geiss	-6426
▁Gerte	-6427
▁Gänge	-6428
▁Kette	-6429
▁Leder	-6430
▁Meise	-6431
▁Neben	-6432
▁Speck	-6433
▁Staat	-6434
▁Stier	-6435
▁Warum	-6436
▁Zehen	-6437
▁berau	-6438
▁eurer	-6439
▁freie	-6440
▁heiss	-6441
▁hoben	-6442
▁jagen	-6443
▁magst	-6444
▁möcht	-6445
▁nehmt	-6446
▁neuer	-6447
▁richt	-6448
▁ruhen	-6449
▁ruhte	-6450
▁sehet	-6451
▁singt	-6452
▁wüßte	-6453
▁öfter	-6454
kräften	-6455
mittags	-6456
schchen	-6457
schwein	-6458
spielen	-6459
ächtnis	-6460
▁Dunkel	-6461
▁Füllen	-6462
▁Pforte	-6463
▁Pietro	-6464
▁Urteil	-6465
▁Zucker	-6466
▁bunten	-6467
▁dannen	-6468
▁eilten	-6469
▁entflo	-6470
▁erging	-6471
▁flehen	-6472
▁füllte	-6473
▁hastig	-6474
▁heiser	-6475
▁kaiser	-6476
▁klüger	-6477
▁müßten	-6478
▁pflegt	-6479
▁schmal	-6480
▁versah	-6481
▁wachen	-6482
▁wachte	-6483
▁wärest	-6484
▁zerrei	-6485
▁zählte	-6486
bendrein	-6487
ünstlich	-6488
————————	-6489
▁Ankunft	-6490
▁Deutsch	-6491
▁Eselein	-6492
▁Hütchen	-6493
▁Kammern	-6494
▁Pfeifen	-6495
▁Strecke	-6496
▁ansehen	-6497
▁ausging	-6498
▁bewegte	-6499
▁brechen	-6500
▁brächte	-6501
▁dritter	-6502
▁ehrlich	-6503
▁erkannt	-6504
▁frommen	-6505
▁hungern	-6506
▁höflich	-6507
▁müssten	-6508
▁nannten	-6509
▁offenen	-6510
▁schenke	-6511
▁spannte	-6512
▁treiben	-6513
▁wenigen	-6514
▁zusehen	-6515
geblieben	-6516
▁Bescheid	-6517
▁Freiheit	-6518
▁Fräulein	-6519
▁Fährmann	-6520
▁Gewissen	-6521
▁Herberge	-6522
▁Hänschen	-6523
▁Indessen	-6524
▁Kleidung	-6525
▁Knöpfles	-6526
▁Kätzchen	-6527
▁Ohnmacht	-6528
▁Schnecke	-6529
▁Schweine	-6530
▁Schätzen	-6531
▁Strümpfe	-6532
▁Wanderer	-6533
▁achtzehn	-6534
▁alsobald	-6535
▁begegnen	-6536
▁bekannte	-6537
▁bewunder	-6538
▁gedrückt	-6539
▁geglaubt	-6540
▁geringer	-6541
▁glänzten	-6542
▁herzlich	-6543
▁leuchten	-6544
▁nirgends	-6545
▁offenbar	-6546
▁schmeckt	-6547
▁schrieen	-6548
▁verliess	-6549
▁verstehe	-6550
▁versucht	-6551
▁verzehrt	-6552
▁Einsiedel	-6553
▁Feuerzeug	-6554
▁Florentin	-6555
▁Mitleiden	-6556
▁Schmerzen	-6557
▁entdecken	-6558
▁gewandert	-6559
▁ungeheure	-6560
▁zurückkam	-6561
▁Daumerling	-6562
▁Frankistan	-6563
▁Musikanten	-6564
▁Stadtmusik	-6565
▁Verzeihung	-6566
▁bitterlich	-6567
▁herrliches	-6568
▁jämmerlich	-6569
▁verwandeln	-6570
▁vorsichtig	-6571
▁aufgenommen	-6572
▁behaupteten	-6573
▁geschickter	-6574
▁verheiratet	-6575
▁Goldarbeiter	-6576
▁Schlafkammer	-6577
▁freundlichen	-6578
▁vernünftiger	-6579
▁zurückkehrte	-6580
▁nebeneinander	-6581
▁schreckliches	-6582
▁wunderschönen	-6583
?	-6584
Un	-6585
ub	-6586
▁q	-6587
Auf	-6588
Laß	-6589
brü	-6590
emm	-6591
gan	-6592
laß	-6593
tal	-6594
▁En	-6595
▁Nu	-6596
▁dä	-6597
Eine	-6598
Zwei	-6599
bret	-6600
dung	-6601
ehnt	-6602
emal	-6603
fell	-6604
gere	-6605
gült	-6606
ität	-6607
korb	-6608
ruhe	-6609
tert	-6610
uckt	-6611
vert	-6612
ätzt	-6613
üren	-6614
▁Dro	-6615
▁Faß	-6616
▁Flo	-6617
▁Hin	-6618
▁Huf	-6619
▁Kla	-6620
▁Leh	-6621
▁Maß	-6622
▁Paß	-6623
▁Rol	-6624
▁Tri	-6625
▁Zum	-6626
▁dul	-6627
▁fau	-6628
▁näh	-6629
▁pre	-6630
▁sor	-6631
▁zür	-6632
▁öde	-6633
Deine	-6634
Lasst	-6635
angst	-6636
attet	-6637
auert	-6638
bäume	-6639
erdem	-6640
hunde	-6641
ielen	-6642
ipfel	-6643
itzer	-6644
obten	-6645
warum	-6646
ängst	-6647
ündet	-6648
▁Bund	-6649
▁Eide	-6650
▁Eing	-6651
▁Früh	-6652
▁Harn	-6653
▁Kamm	-6654
▁Kart	-6655
▁Kinn	-6656
▁Kuss	-6657
▁Läch	-6658
▁Melo	-6659
▁Mess	-6660
▁Nuss	-6661
▁Rest	-6662
▁Salz	-6663
▁Scho	-6664
▁Seeh	-6665
▁Szen	-6666
▁Wahl	-6667
▁Zaum	-6668
▁Zwar	-6669
▁Züge	-6670
▁bang	-6671
▁bekl	-6672
▁bekü	-6673
▁dran	-6674
▁ents	-6675
▁gnäd	-6676
▁ober	-6677
▁quer	-6678
▁ring	-6679
▁wißt	-6680
▁zuzu	-6681
dachte	-6682
ftigen	-6683
gegend	-6684
gemach	-6685
gewand	-6686
innung	-6687
leuten	-6688
mantel	-6689
männer	-6690
pfchen	-6691
spitze	-6692
steine	-6693
▁Adler	-6694
▁Buben	-6695
▁Dampf	-6696
▁Durch	-6697
▁Füsse	-6698
▁Ganze	-6699
▁Gebot	-6700
▁Hafer	-6701
▁Hosen	-6702
▁Jeder	-6703
▁Kommt	-6704
▁Lampe	-6705
▁Nüsse	-6706
▁Organ	-6707
▁Parad	-6708
▁Paten	-6709
▁Pfote	-6710
▁Rasen	-6711
▁Sonst	-6712
▁Spitz	-6713
▁Toren	-6714
▁Unget	-6715
▁Waren	-6716
▁Weihn	-6717
▁ausst	-6718
▁behag	-6719
▁flink	-6720
▁frass	-6721
▁fände	-6722
▁gebot	-6723
▁helle	-6724
▁kämen	-6725
▁meint	-6726
▁teils	-6727
▁trink	-6728
▁unruh	-6729
▁wohne	-6730
▁wovon	-6731
▁zarte	-6732
▁Ärmel	-6733
▁überw	-6734
achtete	-6735
kannter	-6736
kleidet	-6737
stiefel	-6738
öchtern	-6739
▁Allein	-6740
▁Bitten	-6741
▁Briefe	-6742
▁Flachs	-6743
▁Geschw	-6744
▁Gläser	-6745
▁Gänsem	-6746
▁Hörner	-6747
▁Ketten	-6748
▁Kunden	-6749
▁Lehnst	-6750
▁Leiden	-6751
▁Leiter	-6752
▁Meeres	-6753
▁Platze	-6754
▁Rechen	-6755
▁Roland	-6756
▁Saales	-6757
▁Weiher	-6758
▁Wälder	-6759
▁Wänden	-6760
▁aufgew	-6761
▁auszur	-6762
▁bekäme	-6763
▁dicker	-6764
▁einzel	-6765
▁feiner	-6766
▁freien	-6767
▁fühlen	-6768
▁gehöre	-6769
▁gejagt	-6770
▁haltet	-6771
▁herang	-6772
▁hoffen	-6773
▁hütete	-6774
▁langem	-6775
▁rissen	-6776
▁rächen	-6777
▁sauber	-6778
▁tapfer	-6779
▁treibt	-6780
▁ungest	-6781
▁unsern	-6782
▁weckte	-6783
▁währte	-6784
▁wütend	-6785
▁zumute	-6786
burschen	-6787
springen	-6788
zufahren	-6789
▁Grieche	-6790
▁Häslein	-6791
▁Häupter	-6792
▁Kirchen	-6793
▁Knochen	-6794
▁Minuten	-6795
▁Traurig	-6796
▁Verdeck	-6797
▁Wassers	-6798
▁bekamen	-6799
▁dankbar	-6800
▁dankten	-6801
▁dunkeln	-6802
▁erhoben	-6803
▁erraten	-6804
▁falsche	-6805
▁frische	-6806
▁gefüllt	-6807
▁gewöhnt	-6808
▁hattest	-6809
▁imstand	-6810
▁lustige	-6811
▁manchen	-6812
▁seitdem	-6813
▁stolzen	-6814
▁Ägypten	-6815
▁überaus	-6816
zusteigen	-6817
▁Backofen	-6818
▁Beistand	-6819
▁Eigentum	-6820
▁Hofstaat	-6821
▁Kästchen	-6822
▁Kürdchen	-6823
▁Majestät	-6824
▁Mädchens	-6825
▁Sogleich	-6826
▁Wünschel	-6827
▁Zechinen	-6828
▁aufstand	-6829
▁aussehen	-6830
▁aussieht	-6831
▁behutsam	-6832
▁beweisen	-6833
▁bisschen	-6834
▁ertragen	-6835
▁frischen	-6836
▁fünfzehn	-6837
▁geflogen	-6838
▁gestehen	-6839
▁getraute	-6840
▁goldener	-6841
▁herankam	-6842
▁murmelte	-6843
▁scharfen	-6844
▁schwebte	-6845
▁schwerer	-6846
▁warteten	-6847
ordentlich	-6848
prinzessin	-6849
▁Bedienste	-6850
▁Bösewicht	-6851
▁Erwartung	-6852
▁Geheimnis	-6853
▁Zweiglein	-6854
▁berühmten	-6855
▁einigemal	-6856
▁einlassen	-6857
▁fortgehen	-6858
▁geringste	-6859
▁gestiegen	-6860
▁obendrein	-6861
▁schlüpfte	-6862
▁schwarzem	-6863
▁standhaft	-6864
▁steinerne	-6865
▁ungeheuer	-6866
▁vergelten	-6867
mherzigkeit	-6868
▁Gedächtnis	-6869
▁Mondschein	-6870
▁allerdings	-6871
▁anzufangen	-6872
▁behauptete	-6873
▁erbärmlich	-6874
▁prachtvoll	-6875
▁verständig	-6876
▁Herzenslust	-6877
▁Töchterchen	-6878
▁aufgestellt	-6879
▁vollbringen	-6880
▁Torschreiber	-6881
▁Kammerjungfer	-6882
▁Leibeskräften	-6883
▁Barmherzigkeit	-6884
▁Bürgermeisters	-6885
▁Sonnenstrahlen	-6886
▁Menschenfleisch	-6887
!,	-6888
He	-6889
Nu	-6890
Um	-6891
bü	-6892
kn	-6893
sf	-6894
va	-6895
,	-6896
Bei	-6897
Wel	-6898
Wem	-6899
Zur	-6900
aal	-6901
fol	-6902
hat	-6903
hir	-6904
ian	-6905
irn	-6906
oft	-6907
ost	-6908
tre	-6909
äte	-6910
ött	-6911
▁Lo	-6912
▁Rh	-6913
Blei	-6914
Hört	-6915
Mach	-6916
adet	-6917
bung	-6918
dige	-6919
gehe	-6920
gung	-6921
hing	-6922
legt	-6923
mmte	-6924
mond	-6925
rupp	-6926
usse	-6927
volk	-6928
zeln	-6929
zert	-6930
öhnt	-6931
▁Arz	-6932
▁Aug	-6933
▁Dör	-6934
▁Fer	-6935
▁Flä	-6936
▁Hab	-6937
▁Har	-6938
▁Hei	-6939
▁Kön	-6940
▁Zeu	-6941
▁eng	-6942
▁gra	-6943
▁gän	-6944
▁höl	-6945
▁mil	-6946
▁müh	-6947
▁nüt	-6948
▁ras	-6949
▁sen	-6950
▁unn	-6951
▁unw	-6952
▁äch	-6953
Siehe	-6954
abend	-6955
agest	-6956
asche	-6957
chern	-6958
dacht	-6959
eilte	-6960
erung	-6961
gespr	-6962
heben	-6963
heiss	-6964
isset	-6965
liess	-6966
riegt	-6967
stern	-6968
önnte	-6969
ühten	-6970
▁Bals	-6971
▁Beil	-6972
▁Fahr	-6973
▁Finn	-6974
▁Flei	-6975
▁Gift	-6976
▁Habe	-6977
▁Halt	-6978
▁Heer	-6979
▁Kahn	-6980
▁Kohl	-6981
▁Lauf	-6982
▁Lind	-6983
▁Mehl	-6984
▁Pist	-6985
▁Vert	-6986
▁Wink	-6987
▁Zopf	-6988
▁blut	-6989
▁erhe	-6990
▁fraß	-6991
▁fror	-6992
▁gefl	-6993
▁gewe	-6994
▁höhn	-6995
▁irre	-6996
▁klei	-6997
▁lebt	-6998
▁rapp	-6999
▁rech	-7000
▁rühr	-7001
▁säße	-7002
▁umzu	-7003
▁wers	-7004
ffnung	-7005
flogen	-7006
hängen	-7007
kasten	-7008
ließen	-7009
lungen	-7010
rallen	-7011
schrei	-7012
sinnig	-7013
stunde	-7014
ummert	-7015
voller	-7016
ßerdem	-7017
ürchte	-7018
ürlich	-7019
▁Allem	-7020
▁Ebene	-7021
▁Franz	-7022
▁Glied	-7023
▁Grube	-7024
▁Ihnen	-7025
▁Kehle	-7026
▁Leber	-7027
▁Mägde	-7028
▁Osten	-7029
▁Pflug	-7030
▁Rhein	-7031
▁Sarge	-7032
▁Sechs	-7033
▁Sehen	-7034
▁Sitte	-7035
▁Säule	-7036
▁Teile	-7037
▁Verse	-7038
▁abgek	-7039
▁angek	-7040
▁angez	-7041
▁begrü	-7042
▁beher	-7043
▁dräng	-7044
▁einig	-7045
▁erzür	-7046
▁ewige	-7047
▁führe	-7048
▁grimm	-7049
▁hauen	-7050
▁klapp	-7051
▁ließe	-7052
▁lösen	-7053
▁sperr	-7054
▁umsah	-7055
▁ungem	-7056
▁verro	-7057
▁väter	-7058
▁zuber	-7059
blätter	-7060
brenner	-7061
gerufen	-7062
ickelte	-7063
ristall	-7064
▁Baruch	-7065
▁Bewohn	-7066
▁Blicke	-7067
▁Dieses	-7068
▁Flamme	-7069
▁Fragen	-7070
▁Gitter	-7071
▁Glocke	-7072
▁Kriegs	-7073
▁Krämer	-7074
▁Kupfer	-7075
▁Lippen	-7076
▁Person	-7077
▁Rappen	-7078
▁Sohnes	-7079
▁Stufen	-7080
▁Stärke	-7081
▁Stätte	-7082
▁Türken	-7083
▁Wiesen	-7084
▁Wurzel	-7085
▁aufspr	-7086
▁ausser	-7087
▁bewaff	-7088
▁bindet	-7089
▁dummes	-7090
▁ehemal	-7091
▁entfer	-7092
▁flücht	-7093
▁heller	-7094
▁höchst	-7095
▁obwohl	-7096
▁passen	-7097
▁schenk	-7098
▁vernei	-7099
▁verzei	-7100
▁wagten	-7101
▁wohlbe	-7102
▁wächst	-7103
▁zuckte	-7104
aufseher	-7105
behalten	-7106
wesenden	-7107
▁Balsora	-7108
▁Deshalb	-7109
▁Dichter	-7110
▁Flügeln	-7111
▁Gesinde	-7112
▁Hofdame	-7113
▁Jungfer	-7114
▁Konzert	-7115
▁Messing	-7116
▁Räubern	-7117
▁Schalks	-7118
▁Schwarz	-7119
▁Unrecht	-7120
▁Verbeug	-7121
▁anderem	-7122
▁durften	-7123
▁erzogen	-7124
▁flatter	-7125
▁geputzt	-7126
▁gewusst	-7127
▁handeln	-7128
▁hübsche	-7129
▁kletter	-7130
▁kriegst	-7131
▁leisten	-7132
▁schämte	-7133
▁spinnen	-7134
▁umarmte	-7135
▁ungesch	-7136
▁wandern	-7137
▁zugesch	-7138
▁Allerlei	-7139
▁Arbeiter	-7140
▁Entelein	-7141
▁Erlösung	-7142
▁Freunden	-7143
▁Handvoll	-7144
▁Kaiserin	-7145
▁Musikant	-7146
▁Scheffel	-7147
▁aufgesch	-7148
▁bedeckte	-7149
▁beschämt	-7150
▁bespannt	-7151
▁betrübte	-7152
▁erwartet	-7153
▁finstere	-7154
▁gehorsam	-7155
▁gelehrte	-7156
▁gänzlich	-7157
▁häßliche	-7158
▁hübscher	-7159
▁jenseits	-7160
▁liebster	-7161
▁meldeten	-7162
▁rauschen	-7163
▁rauschte	-7164
▁silberne	-7165
▁ungewöhn	-7166
▁zitternd	-7167
▁zufällig	-7168
▁überdies	-7169
▁Gelächter	-7170
▁Neugierde	-7171
▁Plötzlich	-7172
▁Verlangen	-7173
▁Zaunkönig	-7174
▁begleiten	-7175
▁beständig	-7176
▁gelangten	-7177
▁herrschte	-7178
▁niedliche	-7179
▁schmeckte	-7180
▁schnappte	-7181
▁verlangst	-7182
▁wirkliche	-7183
▁Herrschaft	-7184
▁Kopfkissen	-7185
▁Mannschaft	-7186
▁Schlosshof	-7187
▁ausrichten	-7188
▁betrachten	-7189
▁festhalten	-7190
▁ringsumher	-7191
▁unterbrach	-7192
▁willkommen	-7193
▁zugetragen	-7194
▁überfallen	-7195
▁Edelsteinen	-7196
▁Kohlenpeter	-7197
▁Unbekannten	-7198
▁freundliche	-7199
▁herrlichsten	-7200
▁Dienstmädchen	-7201
▁Spiegelschwab	-7202
▁Unglücklichen	-7203
▁zurückgekehrt	-7204
▁Knöpflesschwab	-7205
sb	-7206
ue	-7207
ve	-7208
▁“	-7209
Dem	-7210
ada	-7211
arb	-7212
brä	-7213
ete	-7214
for	-7215
ilt	-7216
jah	-7217
kuh	-7218
met	-7219
mäh	-7220
pfe	-7221
tat	-7222
ule	-7223
äll	-7224
ürz	-7225
▁18	-7226
Habt	-7227
Lieb	-7228
amin	-7229
anft	-7230
deut	-7231
ehin	-7232
fuss	-7233
gefr	-7234
groß	-7235
hang	-7236
ifen	-7237
mmel	-7238
olke	-7239
othe	-7240
sack	-7241
satz	-7242
sohn	-7243
stel	-7244
weib	-7245
weih	-7246
wort	-7247
zern	-7248
zieh	-7249
äude	-7250
üten	-7251
▁Fig	-7252
▁Mat	-7253
▁Sze	-7254
▁Zen	-7255
▁blü	-7256
▁bos	-7257
▁prü	-7258
▁tod	-7259
▁won	-7260
agdad	-7261
anntw	-7262
anzte	-7263
artig	-7264
ausen	-7265
aßten	-7266
erich	-7267
haupt	-7268
hause	-7269
ickel	-7270
iebte	-7271
ieter	-7272
lecht	-7273
lückt	-7274
pfarr	-7275
ppten	-7276
reute	-7277
riech	-7278
rucht	-7279
ränke	-7280
sagte	-7281
selte	-7282
ulver	-7283
ustiz	-7284
utzte	-7285
wandt	-7286
willk	-7287
ßlich	-7288
älter	-7289
ühlen	-7290
▁Bote	-7291
▁Dick	-7292
▁Droh	-7293
▁Duft	-7294
▁Floh	-7295
▁Grin	-7296
▁Gruß	-7297
▁Körn	-7298
▁Lass	-7299
▁Oben	-7300
▁Rinn	-7301
▁Tann	-7302
▁Torn	-7303
▁Töne	-7304
▁Ware	-7305
▁aust	-7306
▁bill	-7307
▁deut	-7308
▁gelo	-7309
▁hinl	-7310
▁kenn	-7311
▁kohl	-7312
▁krau	-7313
▁kühl	-7314
▁list	-7315
▁meck	-7316
▁rieb	-7317
▁riet	-7318
▁rufe	-7319
▁rück	-7320
▁steh	-7321
▁stra	-7322
▁summ	-7323
▁tapf	-7324
▁trüb	-7325
Bruder	-7326
Kannst	-7327
aussch	-7328
emerkt	-7329
gültig	-7330
leicht	-7331
reiche	-7332
richen	-7333
schuld	-7334
schwei	-7335
sleder	-7336
sprang	-7337
stände	-7338
theiss	-7339
treten	-7340
▁Bauch	-7341
▁Bänke	-7342
▁Degen	-7343
▁Erinn	-7344
▁Fahrt	-7345
▁Gelde	-7346
▁Greis	-7347
▁Grimm	-7348
▁Güter	-7349
▁Halle	-7350
▁Hohen	-7351
▁Klang	-7352
▁Körbe	-7353
▁Laden	-7354
▁Later	-7355
▁Lehre	-7356
▁Maler	-7357
▁Mutes	-7358
▁Ringe	-7359
▁Sagte	-7360
▁Schau	-7361
▁Stich	-7362
▁Tanze	-7363
▁Töpfe	-7364
▁Verst	-7365
▁augen	-7366
▁blind	-7367
▁braun	-7368
▁dürft	-7369
▁frühe	-7370
▁fängt	-7371
▁gerau	-7372
▁glich	-7373
▁herzu	-7374
▁kanns	-7375
▁ledig	-7376
▁letzt	-7377
▁tobte	-7378
▁tönte	-7379
▁unget	-7380
▁zumut	-7381
▁Ästen	-7382
drücken	-7383
geboren	-7384
gehängt	-7385
gewesen	-7386
leitung	-7387
richtet	-7388
stellte	-7389
stürzte	-7390
▁Anzahl	-7391
▁Bagdad	-7392
▁Beiden	-7393
▁Blutst	-7394
▁Fehler	-7395
▁Flusse	-7396
▁Flöten	-7397
▁Funken	-7398
▁Grenze	-7399
▁Grunde	-7400
▁Hagest	-7401
▁Herbst	-7402
▁Hinkel	-7403
▁Justiz	-7404
▁Katzen	-7405
▁Kissen	-7406
▁Leiche	-7407
▁Löcher	-7408
▁Nadeln	-7409
▁Ohrfei	-7410
▁Palmen	-7411
▁Riegel	-7412
▁Rätsel	-7413
▁Schaum	-7414
▁Schorn	-7415
▁Sorbet	-7416
▁Strahl	-7417
▁Söhnen	-7418
▁Throne	-7419
▁Untier	-7420
▁Werkst	-7421
▁Wieder	-7422
▁Ziegel	-7423
▁Zufall	-7424
▁abgest	-7425
▁achten	-7426
▁allgem	-7427
▁beschw	-7428
▁binden	-7429
▁brennt	-7430
▁eifrig	-7431
▁eigent	-7432
▁einher	-7433
▁geschn	-7434
▁gewagt	-7435
▁graues	-7436
▁hoffte	-7437
▁hättet	-7438
▁kurzem	-7439
▁küssen	-7440
▁lehren	-7441
▁neigte	-7442
▁riesen	-7443
▁schief	-7444
▁selben	-7445
▁vieler	-7446
▁wartet	-7447
▁weiser	-7448
▁wärmen	-7449
anntwein	-7450
gefunden	-7451
ichteten	-7452
patschen	-7453
recklich	-7454
zumachen	-7455
▁Beifall	-7456
▁Draußen	-7457
▁Haustür	-7458
▁Hütlein	-7459
▁Kartoff	-7460
▁Rechten	-7461
▁Rehchen	-7462
▁Schrift	-7463
▁Schweif	-7464
▁Schönes	-7465
▁Störche	-7466
▁Trommel	-7467
▁Ungetüm	-7468
▁Zweigen	-7469
▁aufging	-7470
▁braunen	-7471
▁einiges	-7472
▁erheben	-7473
▁gemerkt	-7474
▁geringe	-7475
▁geweint	-7476
▁gezählt	-7477
▁immerzu	-7478
▁manches	-7479
▁mittags	-7480
▁rollten	-7481
▁schaden	-7482
▁spreche	-7483
▁stehlen	-7484
▁tauchte	-7485
▁verspot	-7486
▁würdest	-7487
▁älteren	-7488
scheinung	-7489
▁Augustin	-7490
▁Beinchen	-7491
▁Bergmann	-7492
▁Bewegung	-7493
▁Erdboden	-7494
▁Glasmann	-7495
▁Gretchen	-7496
▁Halsband	-7497
▁Holzherr	-7498
▁Schlacht	-7499
▁Streiche	-7500
▁Teppiche	-7501
▁Umgegend	-7502
▁Unschuld	-7503
▁Webstuhl	-7504
▁Windhund	-7505
▁aufgeben	-7506
▁ausruhen	-7507
▁bedankte	-7508
▁befiehlt	-7509
▁beginnen	-7510
▁besorgen	-7511
▁einladen	-7512
▁ernähren	-7513
▁erstemal	-7514
▁erwerben	-7515
▁geheißen	-7516
▁gemeinen	-7517
▁geringen	-7518
▁getreten	-7519
▁gewinnen	-7520
▁gläserne	-7521
▁hergeben	-7522
▁heutigen	-7523
▁indessen	-7524
▁inwendig	-7525
▁lauschte	-7526
▁letztere	-7527
▁liebsten	-7528
▁sprengte	-7529
▁umkehren	-7530
▁verrückt	-7531
▁Geschwind	-7532
▁Goldstück	-7533
▁Hagestolz	-7534
▁Jünglings	-7535
▁Lehnstuhl	-7536
▁Oberpfarr	-7537
▁Pantoffel	-7538
▁Rinnstein	-7539
▁Schlosser	-7540
▁Schmetter	-7541
▁Studenten	-7542
▁Tornister	-7543
▁Vertrauen	-7544
▁Waldgeist	-7545
▁abbrechen	-7546
▁aufmachte	-7547
▁begreifen	-7548
▁behaglich	-7549
▁erstenmal	-7550
▁garstigen	-7551
▁gelehrter	-7552
▁glänzende	-7553
▁hinterher	-7554
▁klatschte	-7555
▁künstlich	-7556
▁rückwärts	-7557
▁schnallte	-7558
▁schwarzer	-7559
▁schweigen	-7560
▁trockenen	-7561
▁unbemerkt	-7562
▁verbrannt	-7563
▁vertragen	-7564
▁verzehren	-7565
willkürlich	-7566
▁Branntwein	-7567
▁Dunkelheit	-7568
▁Edelsteine	-7569
▁Gespenster	-7570
▁Glückskind	-7571
▁Hausknecht	-7572
▁Kunstvogel	-7573
▁Schlafrock	-7574
▁Springbock	-7575
▁arbeiteten	-7576
▁aufgesetzt	-7577
▁dazwischen	-7578
▁gebrauchen	-7579
▁gefährlich	-7580
▁glänzenden	-7581
▁verflossen	-7582
▁vollbracht	-7583
▁Erzählungen	-7584
▁Schornstein	-7585
▁Schultheiss	-7586
▁Unterdessen	-7587
▁ausgegangen	-7588
▁unterdessen	-7589
▁verheiraten	-7590
▁zerspringen	-7591
▁Küchenjungen	-7592
▁Samtpatschen	-7593
▁Stieftochter	-7594
▁Unterhaltung	-7595
▁verwünschten	-7596
▁schrecklicher	-7597
▁Schwefelhölzer	-7598
▁fünfundzwanzig	-7599
▁herangewachsen	-7600
▁Sklavenaufseher	-7601
Pf	-7602
gi	-7603
Dar	-7604
Gew	-7605
Hat	-7606
erw	-7607
hem	-7608
hör	-7609
kka	-7610
ode	-7611
ole	-7612
otz	-7613
sig	-7614
sol	-7615
stä	-7616
tan	-7617
tze	-7618
unt	-7619
upp	-7620
ure	-7621
zie	-7622
ürk	-7623
üßt	-7624
▁Ew	-7625
▁ch	-7626
▁fä	-7627
▁lu	-7628
Frei	-7629
ahme	-7630
brau	-7631
dach	-7632
dieb	-7633
egen	-7634
ehlt	-7635
erbe	-7636
eule	-7637
gedr	-7638
habt	-7639
horn	-7640
inte	-7641
itwe	-7642
ortr	-7643
rauh	-7644
rede	-7645
rien	-7646
räte	-7647
ucke	-7648
wein	-7649
weis	-7650
ähen	-7651
öpft	-7652
▁Eil	-7653
▁Fin	-7654
▁Gau	-7655
▁Han	-7656
▁Ruf	-7657
▁Ser	-7658
▁Sof	-7659
▁Unw	-7660
▁Zur	-7661
▁anb	-7662
▁ank	-7663
▁biß	-7664
▁dat	-7665
▁dus	-7666
▁eig	-7667
▁gie	-7668
▁hel	-7669
▁irr	-7670
▁klä	-7671
▁ohn	-7672
▁rut	-7673
▁tro	-7674
König	-7675
ahnen	-7676
buben	-7677
busch	-7678
egeln	-7679
gsten	-7680
hielt	-7681
iebel	-7682
iform	-7683
ilung	-7684
jamin	-7685
mchen	-7686
rängt	-7687
schwe	-7688
seite	-7689
stock	-7690
unten	-7691
zweig	-7692
ächer	-7693
ärmte	-7694
äufer	-7695
öpfer	-7696
▁Amme	-7697
▁Aufm	-7698
▁Band	-7699
▁Best	-7700
▁Chin	-7701
▁Elle	-7702
▁Kein	-7703
▁Kost	-7704
▁Leut	-7705
▁Mehr	-7706
▁Moos	-7707
▁Neck	-7708
▁Neid	-7709
▁Nimm	-7710
▁Oder	-7711
▁Part	-7712
▁Pfen	-7713
▁Prof	-7714
▁Punk	-7715
▁Tote	-7716
▁Wend	-7717
▁Wich	-7718
▁Ziel	-7719
▁anrü	-7720
▁frug	-7721
▁gehn	-7722
▁gilt	-7723
▁größ	-7724
▁ists	-7725
▁keck	-7726
▁kupf	-7727
▁kühn	-7728
▁läge	-7729
▁neid	-7730
▁ohnm	-7731
▁türk	-7732
▁wars	-7733
▁zier	-7734
Johann	-7735
ankbar	-7736
auerte	-7737
beeren	-7738
eshalb	-7739
iebten	-7740
ierung	-7741
jenige	-7742
reitet	-7743
riften	-7744
schuhe	-7745
sstube	-7746
suchen	-7747
wollen	-7748
zünden	-7749
ändert	-7750
▁Altar	-7751
▁Anden	-7752
▁Brett	-7753
▁Deine	-7754
▁Dicht	-7755
▁Eifer	-7756
▁Fahne	-7757
▁Fluch	-7758
▁Fremd	-7759
▁Frühl	-7760
▁Gasse	-7761
▁Heinz	-7762
▁Hälse	-7763
▁Hören	-7764
▁Kegel	-7765
▁Laune	-7766
▁Lüfte	-7767
▁Mekka	-7768
▁Mäuse	-7769
▁Nebel	-7770
▁Nägel	-7771
▁Pfund	-7772
▁Rande	-7773
▁Stolz	-7774
▁Tritt	-7775
▁Walpe	-7776
▁Wölfe	-7777
▁angeg	-7778
▁baute	-7779
▁böses	-7780
▁feier	-7781
▁ferne	-7782
▁floss	-7783
▁fügte	-7784
▁gelbe	-7785
▁glatt	-7786
▁hinst	-7787
▁läuft	-7788
▁sauer	-7789
▁sooft	-7790
▁süßen	-7791
▁wehte	-7792
▁wirds	-7793
▁zumal	-7794
brunnen	-7795
euchtet	-7796
gestalt	-7797
ischten	-7798
knechte	-7799
schläge	-7800
zehnten	-7801
ächlich	-7802
äubigen	-7803
öcklein	-7804
örtchen	-7805
▁Apothe	-7806
▁Befrei	-7807
▁Bursch	-7808
▁Falada	-7809
▁Geigen	-7810
▁Geiger	-7811
▁Gering	-7812
▁Haspel	-7813
▁Helden	-7814
▁Heusch	-7815
▁Höllen	-7816
▁Itsche	-7817
▁Kleide	-7818
▁Kreuze	-7819
▁Markte	-7820
▁Selbst	-7821
▁Sprich	-7822
▁Starke	-7823
▁Stille	-7824
▁Versen	-7825
▁Wachen	-7826
▁Weiter	-7827
▁Zähnen	-7828
▁bellen	-7829
▁bemerk	-7830
▁bewill	-7831
▁braten	-7832
▁dauern	-7833
▁einget	-7834
▁falsch	-7835
▁friert	-7836
▁ganzer	-7837
▁griech	-7838
▁hackte	-7839
▁heulen	-7840
▁hölzer	-7841
▁jammer	-7842
▁kluger	-7843
▁kniete	-7844
▁kurzen	-7845
▁kämmte	-7846
▁lasset	-7847
▁marsch	-7848
▁quälte	-7849
▁raffte	-7850
▁schade	-7851
▁schlag	-7852
▁strupp	-7853
▁würdig	-7854
▁zuviel	-7855
▁Äpfeln	-7856
Freilich	-7857
denklich	-7858
geflogen	-7859
geritten	-7860
gewonnen	-7861
jungfrau	-7862
▁Bretter	-7863
▁Einfall	-7864
▁Füchsin	-7865
▁Gebäude	-7866
▁Glocken	-7867
▁Heimweg	-7868
▁Häschen	-7869
▁Häusern	-7870
▁Krallen	-7871
▁Mandeln	-7872
▁Rüstung	-7873
▁Schluck	-7874
▁Steinen	-7875
▁Teppich	-7876
▁Verlust	-7877
▁Wäldern	-7878
▁abgesch	-7879
▁abhauen	-7880
▁anhaben	-7881
▁berühmt	-7882
▁berührt	-7883
▁besorgt	-7884
▁betteln	-7885
▁bißchen	-7886
▁bliesen	-7887
▁blitzen	-7888
▁brachen	-7889
▁entflie	-7890
▁findest	-7891
▁fischen	-7892
▁fleißig	-7893
▁fordern	-7894
▁frieren	-7895
▁füttern	-7896
▁gebührt	-7897
▁geendet	-7898
▁gehoben	-7899
▁gehörig	-7900
▁geliebt	-7901
▁geraden	-7902
▁gerades	-7903
▁geteilt	-7904
▁gewollt	-7905
▁glatten	-7906
▁glaubst	-7907
▁heimkam	-7908
▁hierauf	-7909
▁liebten	-7910
▁manchem	-7911
▁mochten	-7912
▁mächtig	-7913
▁reizend	-7914
▁schlage	-7915
▁schämen	-7916
▁siebene	-7917
▁spitzen	-7918
▁strömte	-7919
▁weinten	-7920
▁wieders	-7921
▁winzige	-7922
▁zaubern	-7923
blicklich	-7924
irdischen	-7925
schlagten	-7926
▁Andenken	-7927
▁Benjamin	-7928
▁Gebieter	-7929
▁Gerichts	-7930
▁Geräusch	-7931
▁Handlung	-7932
▁Hemdchen	-7933
▁Pfarrers	-7934
▁Richtung	-7935
▁Schmiede	-7936
▁Schönste	-7937
▁Stadttor	-7938
▁Töchtern	-7939
▁Unglücks	-7940
▁anhalten	-7941
▁begehrte	-7942
▁bemerken	-7943
▁benützen	-7944
▁besinnen	-7945
▁besitzen	-7946
▁betrügen	-7947
▁brannten	-7948
▁breitete	-7949
▁erfolgte	-7950
▁erinnern	-7951
▁gekriegt	-7952
▁gelungen	-7953
▁gescheit	-7954
▁gewahrte	-7955
▁hübschen	-7956
▁irgendwo	-7957
▁kriechen	-7958
▁schießen	-7959
▁schnürte	-7960
▁siebente	-7961
▁steinern	-7962
▁trauerte	-7963
▁ungemein	-7964
▁vermählt	-7965
▁überfiel	-7966
erksamkeit	-7967
▁Diamanten	-7968
▁Gegenteil	-7969
▁Jünglinge	-7970
▁Pfeifchen	-7971
▁Pferdchen	-7972
▁Schrittes	-7973
▁Werkstatt	-7974
▁aufmachen	-7975
▁bestellte	-7976
▁ehrlichen	-7977
▁einzelnen	-7978
▁entschloß	-7979
▁ernstlich	-7980
▁erwachten	-7981
▁gebrochen	-7982
▁gehorchen	-7983
▁häßlichen	-7984
▁schiessen	-7985
▁stattlich	-7986
▁törichter	-7987
▁tüchtigen	-7988
▁verbeugte	-7989
▁verfallen	-7990
▁vermählen	-7991
▁vorbeikam	-7992
▁wünschten	-7993
▁Einsiedler	-7994
▁Entschluss	-7995
▁Geburtstag	-7996
▁Kittelchen	-7997
▁Langeweile	-7998
▁Verbeugung	-7999
▁begegneten	-8000
▁einschlief	-8001
▁geschmückt	-8002
▁gewaltiger	-8003
▁heimkehren	-8004
▁langweilig	-8005
▁ohnmächtig	-8006
▁prächtiger	-8007
▁ringsherum	-8008
▁schlachten	-8009
▁schweigend	-8010
▁tausendmal	-8011
▁verlangten	-8012
▁versammelt	-8013
▁verstecken	-8014
▁vollkommen	-8015
▁zueinander	-8016
▁überlassen	-8017
▁Erdmännchen	-8018
▁Tanzmeister	-8019
▁hineingehen	-8020
▁schüttelten	-8021
▁vornehmsten	-8022
▁weitergehen	-8023
▁Allerleirauh	-8024
▁Rosenstrauch	-8025
▁aufgestanden	-8026
▁betrachteten	-8027
▁herauskommen	-8028
▁Kohlenbrenner	-8029
▁unglücklichen	-8030
▁unterscheiden	-8031
▁unwillkürlich	-8032
▁verdriesslich	-8033
▁Aufmerksamkeit	-8034
▁augenblicklich	-8035
▁heraufgekommen	-8036
▁zurückzukehren	-8037
27	-8038
An	-8039
Au	-8040
je	-8041
od	-8042
ül	-8043
Hab	-8044
Ste	-8045
aas	-8046
chi	-8047
lag	-8048
lug	-8049
mes	-8050
rer	-8051
tau	-8052
tra	-8053
▁Pa	-8054
▁Rö	-8055
▁Zö	-8056
▁zö	-8057
Dein	-8058
Dies	-8059
Laßt	-8060
Pfui	-8061
Somm	-8062
Weiß	-8063
andt	-8064
anka	-8065
arve	-8066
bens	-8067
bett	-8068
büch	-8069
emel	-8070
errt	-8071
etit	-8072
ftan	-8073
gebe	-8074
glas	-8075
hahn	-8076
iten	-8077
lend	-8078
ment	-8079
nack	-8080
nein	-8081
nstr	-8082
olen	-8083
paar	-8084
rten	-8085
ruck	-8086
seln	-8087
tage	-8088
upft	-8089
vier	-8090
warf	-8091
ählt	-8092
ümer	-8093
▁App	-8094
▁Bew	-8095
▁Bro	-8096
▁Bub	-8097
▁Elf	-8098
▁Klö	-8099
▁Knä	-8100
▁Krü	-8101
▁Leb	-8102
▁Mor	-8103
▁Mus	-8104
▁Res	-8105
▁Rän	-8106
▁Sau	-8107
▁Sol	-8108
▁Stö	-8109
▁Wel	-8110
▁Zut	-8111
▁arg	-8112
▁art	-8113
▁duf	-8114
▁fas	-8115
▁ick	-8116
▁kom	-8117
▁kru	-8118
▁mer	-8119
▁net	-8120
▁noh	-8121
▁pro	-8122
▁spä	-8123
▁sto	-8124
▁zun	-8125
Bring	-8126
achts	-8127
alien	-8128
angel	-8129
anzös	-8130
chtes	-8131
chzen	-8132
decke	-8133
drein	-8134
egeld	-8135
einem	-8136
flein	-8137
hacke	-8138
hätte	-8139
ierer	-8140
krank	-8141
meine	-8142
ordet	-8143
orgte	-8144
räuch	-8145
samen	-8146
sfrau	-8147
stieg	-8148
still	-8149
stuhl	-8150
szeit	-8151
treff	-8152
tritt	-8153
uckte	-8154
uerst	-8155
unker	-8156
unser	-8157
warte	-8158
▁1827	-8159
▁Arzn	-8160
▁Baur	-8161
▁Bäch	-8162
▁Dose	-8163
▁Elen	-8164
▁Empf	-8165
▁Gere	-8166
▁Gute	-8167
▁Güte	-8168
▁Höre	-8169
▁Lapp	-8170
▁Lüge	-8171
▁Post	-8172
▁Raub	-8173
▁Seit	-8174
▁Semm	-8175
▁Spaz	-8176
▁Spuk	-8177
▁Strö	-8178
▁Wehr	-8179
▁Zahl	-8180
▁atme	-8181
▁belo	-8182
▁beob	-8183
▁entb	-8184
▁erqu	-8185
▁errö	-8186
▁ersp	-8187
▁ertr	-8188
▁floß	-8189
▁frie	-8190
▁guck	-8191
▁hilf	-8192
▁kehr	-8193
▁mitt	-8194
▁pfei	-8195
▁plau	-8196
▁spei	-8197
▁spot	-8198
▁stüt	-8199
▁such	-8200
▁zerl	-8201
Weisst	-8202
altete	-8203
ankten	-8204
aporal	-8205
arrten	-8206
blumen	-8207
chlein	-8208
endigt	-8209
erbiet	-8210
estall	-8211
fuhren	-8212
haufen	-8213
ickelt	-8214
ikäfer	-8215
ischem	-8216
lleute	-8217
orchen	-8218
packen	-8219
ppchen	-8220
reifte	-8221
stigen	-8222
untern	-8223
wachen	-8224
zeiten	-8225
ändler	-8226
▁Altan	-8227
▁Angel	-8228
▁Bösen	-8229
▁Diebe	-8230
▁Ellen	-8231
▁Ersch	-8232
▁Farbe	-8233
▁Feste	-8234
▁Fleck	-8235
▁Fülle	-8236
▁Gabel	-8237
▁Gerät	-8238
▁Golde	-8239
▁Grind	-8240
▁Hacke	-8241
▁Heute	-8242
▁Hitze	-8243
▁Instr	-8244
▁Knien	-8245
▁Larve	-8246
▁Laube	-8247
▁Linde	-8248
▁Pfeil	-8249
▁Rappe	-8250
▁Rings	-8251
▁Schlä	-8252
▁Schub	-8253
▁Streu	-8254
▁Summe	-8255
▁Viele	-8256
▁Weibe	-8257
▁Wette	-8258
▁Witwe	-8259
▁Zeuge	-8260
▁belas	-8261
▁edlen	-8262
▁einge	-8263
▁fürst	-8264
▁gehst	-8265
▁gieng	-8266
▁grade	-8267
▁gsagt	-8268
▁günst	-8269
▁heimk	-8270
▁lande	-8271
▁lobte	-8272
▁nähte	-8273
▁preis	-8274
▁rotem	-8275
▁singe	-8276
▁sucht	-8277
▁sässe	-8278
▁trock	-8279
▁wobei	-8280
▁wähle	-8281
▁wäret	-8282
▁ziehe	-8283
ahnsinn	-8284
blickte	-8285
deutung	-8286
frieden	-8287
geister	-8288
itterte	-8289
liessen	-8290
mählich	-8291
schaute	-8292
schenke	-8293
spannen	-8294
ständig	-8295
öckchen	-8296
▁Achmet	-8297
▁Ausspr	-8298
▁Baumes	-8299
▁Bequem	-8300
▁Bianka	-8301
▁Diesen	-8302
▁Einige	-8303
▁Finnin	-8304
▁Frucht	-8305
▁Gemüse	-8306
▁Gipfel	-8307
▁Grütze	-8308
▁Gärten	-8309
▁Hammer	-8310
▁Hemden	-8311
▁Herzel	-8312
▁Kaftan	-8313
▁Kamele	-8314
▁Keiner	-8315
▁Knappe	-8316
▁Kämmer	-8317
▁Lappen	-8318
▁Meinst	-8319
▁Nachen	-8320
▁Partie	-8321
▁Pfanne	-8322
▁Schnau	-8323
▁Schnur	-8324
▁Schule	-8325
▁Schwän	-8326
▁Spuren	-8327
▁Sünden	-8328
▁Tritte	-8329
▁Triump	-8330
▁Trompe	-8331
▁Verste	-8332
▁Weizen	-8333
▁Ziegen	-8334
▁banden	-8335
▁beißen	-8336
▁bellte	-8337
▁bewahr	-8338
▁bewegt	-8339
▁bissen	-8340
▁diente	-8341
▁drückt	-8342
▁dächte	-8343
▁ferner	-8344
▁fromme	-8345
▁gewußt	-8346
▁hausen	-8347
▁holten	-8348
▁klaren	-8349
▁lobten	-8350
▁lächer	-8351
▁mühsam	-8352
▁reicht	-8353
▁stecke	-8354
▁stelle	-8355
▁stolze	-8356
▁trafen	-8357
▁traute	-8358
▁trifft	-8359
▁ungern	-8360
▁verrie	-8361
▁vielem	-8362
▁wahren	-8363
▁weißer	-8364
▁weißes	-8365
▁wenden	-8366
▁willig	-8367
▁Ältern	-8368
▁ändern	-8369
Zicklein	-8370
almanach	-8371
arbeitet	-8372
geschrei	-8373
kriechen	-8374
würdigen	-8375
zutragen	-8376
zuziehen	-8377
▁Appetit	-8378
▁Begeben	-8379
▁Bekannt	-8380
▁Brocken	-8381
▁Büchern	-8382
▁Eingang	-8383
▁Figuren	-8384
▁Geister	-8385
▁Hundert	-8386
▁Hungers	-8387
▁Kalifen	-8388
▁Kamerad	-8389
▁Königss	-8390
▁Lächeln	-8391
▁Nahrung	-8392
▁Pastete	-8393
▁Pferdes	-8394
▁Platsch	-8395
▁Pächter	-8396
▁Rückweg	-8397
▁Scheuer	-8398
▁Seehaas	-8399
▁Spinnen	-8400
▁Sprüche	-8401
▁Sprünge	-8402
▁Staunen	-8403
▁Stücken	-8404
▁allemal	-8405
▁begehrt	-8406
▁bereits	-8407
▁besitzt	-8408
▁blühten	-8409
▁brauste	-8410
▁drangen	-8411
▁dreißig	-8412
▁einzeln	-8413
▁französ	-8414
▁fühlten	-8415
▁garstig	-8416
▁gehängt	-8417
▁geladen	-8418
▁gemeint	-8419
▁greifen	-8420
▁heulend	-8421
▁jammern	-8422
▁klagten	-8423
▁klopfen	-8424
▁kostete	-8425
▁kratzte	-8426
▁mietete	-8427
▁packten	-8428
▁schluch	-8429
▁schmerz	-8430
▁speisen	-8431
▁starben	-8432
▁starker	-8433
▁staunen	-8434
▁treffen	-8435
▁träumen	-8436
▁unruhig	-8437
▁unsanft	-8438
▁unseres	-8439
▁verkünd	-8440
▁verzwei	-8441
▁vollauf	-8442
▁zerschm	-8443
gestiegen	-8444
▁Aussehen	-8445
▁Beispiel	-8446
▁Besonder	-8447
▁Bächlein	-8448
▁Ewigkeit	-8449
▁Harnisch	-8450
▁Kälbchen	-8451
▁Liedchen	-8452
▁Paradies	-8453
▁Spinnrad	-8454
▁Söhnchen	-8455
▁Zauberei	-8456
▁angehört	-8457
▁begannen	-8458
▁begierig	-8459
▁berührte	-8460
▁erklärte	-8461
▁erretten	-8462
▁fleissig	-8463
▁fliessen	-8464
▁gesegnet	-8465
▁kleidete	-8466
▁klopften	-8467
▁leichtes	-8468
▁letzthin	-8469
▁ringelte	-8470
▁schläfst	-8471
▁schwerem	-8472
▁sechzehn	-8473
▁wickelte	-8474
Sommernarr	-8475
Wahrhaftig	-8476
gesprungen	-8477
▁Apotheker	-8478
▁Besinnung	-8479
▁Eisenofen	-8480
▁Erdbeeren	-8481
▁Gestalten	-8482
▁Hausierer	-8483
▁Helmerich	-8484
▁Herrscher	-8485
▁Instrumen	-8486
▁Justizrat	-8487
▁Schwerter	-8488
▁Stockwerk	-8489
▁Unterwegs	-8490
▁Verwünsch	-8491
▁angezogen	-8492
▁auftragen	-8493
▁begleitet	-8494
▁bewundern	-8495
▁eintreten	-8496
▁erreichte	-8497
▁friedlich	-8498
▁gehorchte	-8499
▁gekrochen	-8500
▁gerichtet	-8501
▁heiratete	-8502
▁innerlich	-8503
▁kletterte	-8504
▁schlossen	-8505
▁schnurren	-8506
▁schüttete	-8507
▁siebenten	-8508
▁trauriger	-8509
▁vermochte	-8510
▁versetzte	-8511
▁vollendet	-8512
▁zubringen	-8513
▁Anwesenden	-8514
▁Wirtsstube	-8515
▁aneinander	-8516
▁angezündet	-8517
▁ausgelernt	-8518
▁bestimmten	-8519
▁betrachtet	-8520
▁hässlichen	-8521
▁lieblichen	-8522
▁mancherlei	-8523
▁manierlich	-8524
▁nachdachte	-8525
▁prächtiges	-8526
▁schlechtes	-8527
▁schnarchte	-8528
▁umgebracht	-8529
▁verrichten	-8530
▁Erscheinung	-8531
▁Heuschrecke	-8532
▁Oberpfarrer	-8533
▁Schalksberg	-8534
▁Schuhmacher	-8535
▁Taschentuch	-8536
▁Traurigkeit	-8537
▁abgebrochen	-8538
▁flehentlich	-8539
▁glücklichen	-8540
▁herbeiholen	-8541
▁himmlischen	-8542
▁meinetwegen	-8543
▁natürlicher	-8544
▁verschieden	-8545
▁versprichst	-8546
▁voneinander	-8547
▁widerfahren	-8548
▁widerstehen	-8549
▁wiederholte	-8550
▁Blutstropfen	-8551
▁Elfenmädchen	-8552
▁Königskinder	-8553
▁Rechenschaft	-8554
▁Wasserpfeife	-8555
▁Wohlgefallen	-8556
▁ausgestanden	-8557
▁freundlicher	-8558
▁fürchterlich	-8559
▁gleichgültig	-8560
▁ungewöhnlich	-8561
▁verschwanden	-8562
▁Bekanntschaft	-8563
▁Schweinsleder	-8564
▁Schwesterlein	-8565
▁hunderttausend	-8566
▁außerordentlich	-8567
ek	-8568
mü	-8569
üs	-8570
“.	-8571
▁	-8572
ano	-8573
ats	-8574
ban	-8575
bis	-8576
blö	-8577
bür	-8578
cks	-8579
eiz	-8580
kap	-8581
lig	-8582
ree	-8583
rim	-8584
siz	-8585
the	-8586
öse	-8587
ütz	-8588
▁Ph	-8589
▁Tu	-8590
▁Ul	-8591
▁Ze	-8592
▁lü	-8593
▁ur	-8594
▁Öl	-8595
Dank	-8596
Gebt	-8597
Lebe	-8598
Lege	-8599
Mann	-8600
Nach	-8601
Sage	-8602
Soll	-8603
agst	-8604
dose	-8605
emen	-8606
endr	-8607
heil	-8608
iner	-8609
mter	-8610
mähl	-8611
pelz	-8612
ppel	-8613
rief	-8614
rige	-8615
rohr	-8616
sank	-8617
satt	-8618
tels	-8619
telt	-8620
urre	-8621
utzt	-8622
weck	-8623
wege	-8624
ägst	-8625
äubt	-8626
öhne	-8627
ühlt	-8628
▁Apo	-8629
▁Bot	-8630
▁Fäu	-8631
▁Hus	-8632
▁Inn	-8633
▁Käs	-8634
▁Liv	-8635
▁Lor	-8636
▁Mam	-8637
▁Nes	-8638
▁Sam	-8639
▁Tru	-8640
▁Trü	-8641
▁iss	-8642
▁näm	-8643
▁när	-8644
Sieht	-8645
Wollt	-8646
ahnte	-8647
damit	-8648
ecker	-8649
egten	-8650
ehten	-8651
einst	-8652
eltes	-8653
fahrt	-8654
fisch	-8655
hecke	-8656
inker	-8657
ionen	-8658
itsch	-8659
ittet	-8660
köpfe	-8661
lloch	-8662
losch	-8663
nisse	-8664
nüpft	-8665
schlü	-8666
serei	-8667
stube	-8668
tehen	-8669
urrte	-8670
wechs	-8671
ährte	-8672
äumte	-8673
öpfte	-8674
örper	-8675
üssen	-8676
▁Beim	-8677
▁Blüm	-8678
▁Fuße	-8679
▁Haue	-8680
▁Hoft	-8681
▁Horn	-8682
▁Händ	-8683
▁Klug	-8684
▁Mach	-8685
▁Merk	-8686
▁Mord	-8687
▁Obst	-8688
▁Orte	-8689
▁Rohr	-8690
▁Seen	-8691
▁Seht	-8692
▁Seuf	-8693
▁Trab	-8694
▁Wert	-8695
▁Zora	-8696
▁Zust	-8697
▁ausf	-8698
▁buck	-8699
▁erbe	-8700
▁erfr	-8701
▁erpr	-8702
▁fied	-8703
▁herv	-8704
▁hohl	-8705
▁hold	-8706
▁hüte	-8707
▁ichs	-8708
▁inne	-8709
▁kitz	-8710
▁krän	-8711
▁lahm	-8712
▁leib	-8713
▁piep	-8714
▁spar	-8715
▁trei	-8716
▁verr	-8717
▁wech	-8718
▁zahl	-8719
▁zart	-8720
Diesen	-8721
Morgen	-8722
brannt	-8723
braten	-8724
eugnen	-8725
fielen	-8726
frisch	-8727
geduld	-8728
geklei	-8729
gesamt	-8730
hacken	-8731
hafter	-8732
hirsch	-8733
ildern	-8734
keller	-8735
messer	-8736
nieder	-8737
orsten	-8738
pforte	-8739
reiter	-8740
rinnen	-8741
schämt	-8742
setzte	-8743
sinnen	-8744
wandte	-8745
werden	-8746
willen	-8747
örster	-8748
üstern	-8749
▁Blüte	-8750
▁Dicke	-8751
▁Einst	-8752
▁Erben	-8753
▁Essig	-8754
▁Frist	-8755
▁Frost	-8756
▁Größe	-8757
▁Guten	-8758
▁Haken	-8759
▁Hecke	-8760
▁Hülle	-8761
▁Jener	-8762
▁Kairo	-8763
▁Köche	-8764
▁Kühen	-8765
▁Micki	-8766
▁Musel	-8767
▁Petit	-8768
▁Rüben	-8769
▁Sacke	-8770
▁Scheu	-8771
▁Spass	-8772
▁Steck	-8773
▁Trine	-8774
▁Tänze	-8775
▁Türme	-8776
▁Unser	-8777
▁Weber	-8778
▁Wille	-8779
▁abger	-8780
▁antun	-8781
▁bedeu	-8782
▁beruh	-8783
▁bewir	-8784
▁bleib	-8785
▁edler	-8786
▁ehren	-8787
▁eilen	-8788
▁emsig	-8789
▁fangt	-8790
▁gütig	-8791
▁hoffe	-8792
▁innen	-8793
▁innig	-8794
▁kauft	-8795
▁lügen	-8796
▁musiz	-8797
▁mutig	-8798
▁nachs	-8799
▁namen	-8800
▁nähen	-8801
▁nähme	-8802
▁nützt	-8803
▁pries	-8804
▁schra	-8805
▁spitz	-8806
▁tanzt	-8807
▁tritt	-8808
▁vorzu	-8809
▁wirft	-8810
▁zerbr	-8811
▁zusch	-8812
▁Ähren	-8813
▁übeln	-8814
blendet	-8815
deckung	-8816
ertigen	-8817
gedacht	-8818
händler	-8819
reicher	-8820
scherer	-8821
ündeten	-8822
▁Berges	-8823
▁Betrug	-8824
▁Betten	-8825
▁Braune	-8826
▁Daumen	-8827
▁Felder	-8828
▁Getier	-8829
▁Glaube	-8830
▁Goldes	-8831
▁Heiden	-8832
▁Junker	-8833
▁Kisten	-8834
▁Klauen	-8835
▁Knoten	-8836
▁Körner	-8837
▁Livree	-8838
▁Lorber	-8839
▁Monate	-8840
▁Nachte	-8841
▁Neckar	-8842
▁Nimmer	-8843
▁Pflege	-8844
▁Schale	-8845
▁Schelm	-8846
▁Schill	-8847
▁Schuss	-8848
▁Schwur	-8849
▁Siehst	-8850
▁Sonder	-8851
▁Spalte	-8852
▁Steinm	-8853
▁Strand	-8854
▁Szenen	-8855
▁Tracht	-8856
▁Ulrich	-8857
▁Vorder	-8858
▁Weinen	-8859
▁Wunden	-8860
▁Zuerst	-8861
▁abnahm	-8862
▁armsel	-8863
▁aufger	-8864
▁banger	-8865
▁beugte	-8866
▁drehen	-8867
▁drohen	-8868
▁düster	-8869
▁erholt	-8870
▁erhält	-8871
▁erlebt	-8872
▁erwärm	-8873
▁ewigen	-8874
▁fresse	-8875
▁frisst	-8876
▁geigen	-8877
▁graben	-8878
▁heilte	-8879
▁hinger	-8880
▁kriege	-8881
▁kriegt	-8882
▁lahmen	-8883
▁lauten	-8884
▁lehnte	-8885
▁lehrte	-8886
▁lernst	-8887
▁melden	-8888
▁pflück	-8889
▁reißen	-8890
▁schier	-8891
▁schiff	-8892
▁schmer	-8893
▁schwur	-8894
▁senden	-8895
▁soeben	-8896
▁starke	-8897
▁stellt	-8898
▁trauen	-8899
▁unserm	-8900
▁untern	-8901
▁unverd	-8902
▁verfol	-8903
▁verzog	-8904
▁weinst	-8905
▁weisst	-8906
▁wildes	-8907
▁wirfst	-8908
▁zahlen	-8909
▁zuging	-8910
▁zurief	-8911
▁ächzte	-8912
▁übrige	-8913
arbeiten	-8914
eltreppe	-8915
endreher	-8916
kleidern	-8917
licheres	-8918
schicken	-8919
stochter	-8920
▁Absicht	-8921
▁Achtung	-8922
▁Apostel	-8923
▁Hierauf	-8924
▁Kanonen	-8925
▁Laterne	-8926
▁Leichen	-8927
▁Liebste	-8928
▁Schafen	-8929
▁Schafsh	-8930
▁Scheiks	-8931
▁Städten	-8932
▁Torheit	-8933
▁Trödler	-8934
▁Uniform	-8935
▁Verlauf	-8936
▁achtete	-8937
▁angesch	-8938
▁anhielt	-8939
▁besehen	-8940
▁bestand	-8941
▁blanken	-8942
▁blenden	-8943
▁brüllte	-8944
▁drunten	-8945
▁duftete	-8946
▁entlang	-8947
▁gelacht	-8948
▁gereist	-8949
▁gewogen	-8950
▁gleiche	-8951
▁gnädige	-8952
▁gütigen	-8953
▁hinauss	-8954
▁lernten	-8955
▁nackten	-8956
▁rauchen	-8957
▁schadet	-8958
▁schlafe	-8959
▁schlank	-8960
▁solchem	-8961
▁sperrte	-8962
▁spiegel	-8963
▁stachen	-8964
▁stechen	-8965
▁steilen	-8966
▁stießen	-8967
▁umsehen	-8968
▁unmutig	-8969
▁verabre	-8970
▁weisses	-8971
▁worüber	-8972
▁wünscht	-8973
▁zugehen	-8974
▁zuhause	-8975
▁Öffnung	-8976
▁äußerte	-8977
Ferdinand	-8978
üsselloch	-8979
▁Außerdem	-8980
▁Behälter	-8981
▁Bettchen	-8982
▁Christus	-8983
▁Dickicht	-8984
▁Diensten	-8985
▁Familien	-8986
▁Friedens	-8987
▁Geschöpf	-8988
▁Gewitter	-8989
▁Hündlein	-8990
▁Jüngsten	-8991
▁Kapitano	-8992
▁Kristall	-8993
▁Lindwurm	-8994
▁Lämmchen	-8995
▁Maikäfer	-8996
▁Pasteten	-8997
▁Röcklein	-8998
▁Schellen	-8999
▁Schwanen	-9000
▁Sprachen	-9001
▁Sprechen	-9002
▁Umstände	-9003
▁Untersch	-9004
▁Vollmond	-9005
▁allesamt	-9006
▁anderswo	-9007
▁aufrecht	-9008
▁begangen	-9009
▁beiseite	-9010
▁belohnen	-9011
▁beschwer	-9012
▁bestehen	-9013
▁bestraft	-9014
▁bestürzt	-9015
▁bezahlte	-9016
▁bezauber	-9017
▁darinnen	-9018
▁einbrach	-9019
▁einholen	-9020
▁einzusch	-9021
▁entführt	-9022
▁erblickt	-9023
▁erfüllte	-9024
▁errettet	-9025
▁erwecken	-9026
▁erwehren	-9027
▁erwischt	-9028
▁früheren	-9029
▁garstige	-9030
▁gebieten	-9031
▁geblasen	-9032
▁gedauert	-9033
▁gefielen	-9034
▁gefällig	-9035
▁gestoßen	-9036
▁greulich	-9037
▁grössten	-9038
▁imstande	-9039
▁kostbare	-9040
▁mürrisch	-9041
▁pflanzte	-9042
▁plumpste	-9043
▁rutschte	-9044
▁schweres	-9045
▁staunend	-9046
▁streifte	-9047
▁tiefsten	-9048
▁vergehen	-9049
▁verkehrt	-9050
▁vortreff	-9051
▁zugesagt	-9052
▁überwält	-9053
▁Apfelbaum	-9054
▁Festkleid	-9055
▁Geisslein	-9056
▁Geschmack	-9057
▁Geschäfte	-9058
▁Herzeleid	-9059
▁Lichtchen	-9060
▁Muselmann	-9061
▁Männleins	-9062
▁Regierung	-9063
▁Strümpfen	-9064
▁Vögelchen	-9065
▁Zwillinge	-9066
▁anständig	-9067
▁besondere	-9068
▁betroffen	-9069
▁erhielten	-9070
▁erkannten	-9071
▁erklangen	-9072
▁gebraucht	-9073
▁gefürchte	-9074
▁geheimnis	-9075
▁geheissen	-9076
▁gewaltige	-9077
▁gleichsam	-9078
▁herauskam	-9079
▁insgesamt	-9080
▁liebliche	-9081
▁nämlichen	-9082
▁probieren	-9083
▁schnitten	-9084
▁schrieben	-9085
▁traurigen	-9086
▁verachten	-9087
▁verlangen	-9088
▁verzeihen	-9089
▁wanderten	-9090
▁wünschest	-9091
▁Überfluss	-9092
▁Besonderes	-9093
▁Elfenkönig	-9094
▁Entdeckung	-9095
▁Ritterfrau	-9096
▁Schicksale	-9097
▁Städtchens	-9098
▁Todesangst	-9099
▁Wunschring	-9100
▁angefangen	-9101
▁aufgegeben	-9102
▁ausgezogen	-9103
▁entfliehen	-9104
▁erstaunten	-9105
▁gearbeitet	-9106
▁geschickte	-9107
▁glückliche	-9108
▁himmlische	-9109
▁kohlschwar	-9110
▁köstlichen	-9111
▁leuchteten	-9112
▁schleppten	-9113
▁steinernes	-9114
▁verbrennen	-9115
▁versichert	-9116
▁verurteilt	-9117
▁wirklichen	-9118
▁zerreissen	-9119
▁übelnehmen	-9120
▁überzeugen	-9121
▁Bedingungen	-9122
▁Beinkleider	-9123
▁Pflegevater	-9124
▁Waldschenke	-9125
▁angegriffen	-9126
▁aufrichtete	-9127
▁einschlafen	-9128
▁erschrecken	-9129
▁geschnitten	-9130
▁prachtvolle	-9131
▁unschuldige	-9132
▁unternehmen	-9133
▁verschaffen	-9134
▁versicherte	-9135
▁vorgefallen	-9136
▁Karawanserei	-9137
▁Meerjungfrau	-9138
▁Tannendreher	-9139
▁abgeschlagen	-9140
▁gewöhnlicher	-9141
▁hineinsetzen	-9142
▁ordentlicher	-9143
▁unterrichten	-9144
▁Küchenmeister	-9145
▁Nachbarschaft	-9146
▁Schlüsselloch	-9147
▁Schwiegersohn	-9148
▁Wünschelgerte	-9149
▁verschmachten	-9150
▁hintereinander	-9151
!	-9152
??	-9153
Am	-9154
Hu	-9155
Na	-9156
Sp	-9157
Zu	-9158
ai	-9159
ay	-9160
op	-9161
tz	-9162
äm	-9163
!,“	-9164
Tut	-9165
aht	-9166
amb	-9167
bes	-9168
bew	-9169
dor	-9170
fla	-9171
gib	-9172
gru	-9173
har	-9174
ial	-9175
ihr	-9176
ika	-9177
ina	-9178
ino	-9179
ket	-9180
kug	-9181
las	-9182
ohr	-9183
ore	-9184
par	-9185
ssp	-9186
sta	-9187
tzt	-9188
tür	-9189
unz	-9190
weh	-9191
äht	-9192
▁!“	-9193
▁On	-9194
▁ex	-9195
▁ga	-9196
▁ve	-9197
Dass	-9198
Holl	-9199
Seid	-9200
abin	-9201
aget	-9202
asid	-9203
atra	-9204
aude	-9205
balg	-9206
bank	-9207
bare	-9208
bild	-9209
drig	-9210
eier	-9211
eins	-9212
geiz	-9213
gste	-9214
haut	-9215
iebe	-9216
itel	-9217
ivit	-9218
jüte	-9219
ndes	-9220
peln	-9221
riss	-9222
römt	-9223
rümm	-9224
saal	-9225
seht	-9226
twas	-9227
uert	-9228
utze	-9229
ßler	-9230
ähre	-9231
änen	-9232
▁Bad	-9233
▁Bos	-9234
▁Ell	-9235
▁Ihm	-9236
▁Kie	-9237
▁Kur	-9238
▁Laß	-9239
▁Mei	-9240
▁Mim	-9241
▁Nor	-9242
▁Ost	-9243
▁Pau	-9244
▁Pon	-9245
▁Pre	-9246
▁Rad	-9247
▁Sär	-9248
▁Tul	-9249
▁Weh	-9250
▁abf	-9251
▁erd	-9252
▁fla	-9253
▁flü	-9254
▁han	-9255
▁oda	-9256
▁spu	-9257
▁säm	-9258
▁tät	-9259
▁umf	-9260
▁Äuß	-9261
Diese	-9262
Kommt	-9263
Schau	-9264
adelt	-9265
augen	-9266
bauer	-9267
belte	-9268
brett	-9269
denke	-9270
diese	-9271
erlei	-9272
eugen	-9273
gehst	-9274
icker	-9275
iegte	-9276
iften	-9277
kunst	-9278
lasse	-9279
lebte	-9280
nicht	-9281
orten	-9282
ossch	-9283
perte	-9284
rosen	-9285
ssern	-9286
stage	-9287
steht	-9288
stell	-9289
stuch	-9290
weide	-9291
ängte	-9292
ärbte	-9293
ümpel	-9294
üstet	-9295
▁Amte	-9296
▁Auer	-9297
▁Cham	-9298
▁Dich	-9299
▁Dunk	-9300
▁Fang	-9301
▁Feen	-9302
▁Ganz	-9303
▁Gefä	-9304
▁Glut	-9305
▁Hani	-9306
▁Kehr	-9307
▁Kell	-9308
▁Kerk	-9309
▁Laut	-9310
▁Lein	-9311
▁Mark	-9312
▁Mich	-9313
▁Reim	-9314
▁Samm	-9315
▁Seer	-9316
▁Sieh	-9317
▁Sofa	-9318
▁Sten	-9319
▁Trän	-9320
▁Verz	-9321
▁Wech	-9322
▁Wurm	-9323
▁Zehe	-9324
▁Zens	-9325
▁Zuge	-9326
▁arab	-9327
▁bezw	-9328
▁darb	-9329
▁drum	-9330
▁elen	-9331
▁floh	-9332
▁gezw	-9333
▁grav	-9334
▁grub	-9335
▁habs	-9336
▁holt	-9337
▁kund	-9338
▁litt	-9339
▁mögt	-9340
▁sies	-9341
▁sitt	-9342
▁sonn	-9343
▁sper	-9344
▁süße	-9345
▁toll	-9346
▁tote	-9347
▁trag	-9348
▁täte	-9349
▁tück	-9350
▁öden	-9351
Schatz	-9352
antwor	-9353
arbeit	-9354
atzten	-9355
bringe	-9356
brücke	-9357
bäumen	-9358
dienst	-9359
eignis	-9360
eitern	-9361
eitete	-9362
euchen	-9363
federn	-9364
felten	-9365
fertig	-9366
ffelte	-9367
finger	-9368
flucht	-9369
fänger	-9370
gehört	-9371
gejagt	-9372
nungen	-9373
prügel	-9374
ratter	-9375
räbnis	-9376
räubte	-9377
schloß	-9378
serrat	-9379
sschen	-9380
staben	-9381
ungern	-9382
urstig	-9383
zählen	-9384
ädchen	-9385
▁Brenn	-9386
▁Einge	-9387
▁Falle	-9388
▁Gaben	-9389
▁Gicht	-9390
▁Hätte	-9391
▁Indes	-9392
▁Kerle	-9393
▁Keule	-9394
▁Lügen	-9395
▁Mamel	-9396
▁Meile	-9397
▁Neues	-9398
▁Onkel	-9399
▁Orang	-9400
▁Pater	-9401
▁Pfahl	-9402
▁Räder	-9403
▁Schnä	-9404
▁Sense	-9405
▁Spott	-9406
▁Stiel	-9407
▁Still	-9408
▁Strau	-9409
▁Säcke	-9410
▁Taufe	-9411
▁Unmut	-9412
▁Volke	-9413
▁Wicht	-9414
▁Wägel	-9415
▁Zwirn	-9416
▁Zügel	-9417
▁Zügen	-9418
▁abgel	-9419
▁alber	-9420
▁angem	-9421
▁anger	-9422
▁anklo	-9423
▁bedür	-9424
▁belei	-9425
▁bespr	-9426
▁blüht	-9427
▁falle	-9428
▁feste	-9429
▁fortw	-9430
▁freue	-9431
▁freut	-9432
▁gedru	-9433
▁gehts	-9434
▁geist	-9435
▁kehre	-9436
▁krumm	-9437
▁lasen	-9438
▁mögen	-9439
▁nacha	-9440
▁nahen	-9441
▁raten	-9442
▁regen	-9443
▁schwä	-9444
▁steig	-9445
▁stärk	-9446
▁sunst	-9447
▁trübe	-9448
▁unbes	-9449
▁unend	-9450
▁unged	-9451
▁wills	-9452
▁woran	-9453
▁zeige	-9454
Caporal	-9455
abinett	-9456
barkeit	-9457
blicken	-9458
dlichen	-9459
fenster	-9460
geselle	-9461
kleiden	-9462
lichste	-9463
schritt	-9464
sstücke	-9465
standen	-9466
ßiggang	-9467
ändigen	-9468
üchtern	-9469
▁Arznei	-9470
▁Ausweg	-9471
▁Besorg	-9472
▁Besten	-9473
▁Blatte	-9474
▁Chasid	-9475
▁Decken	-9476
▁Dörfer	-9477
▁Eichen	-9478
▁Entsch	-9479
▁Flüche	-9480
▁Fässer	-9481
▁Garaus	-9482
▁Gefühl	-9483
▁Geheim	-9484
▁Geldes	-9485
▁Gelehr	-9486
▁Gerade	-9487
▁Gewinn	-9488
▁Grauen	-9489
▁Hahnen	-9490
▁Herden	-9491
▁Herrin	-9492
▁Hütten	-9493
▁Jägern	-9494
▁Kajüte	-9495
▁Kerzen	-9496
▁Kircht	-9497
▁Käufer	-9498
▁Latein	-9499
▁Lehren	-9500
▁Lehrer	-9501
▁Lichte	-9502
▁Lilien	-9503
▁Meiler	-9504
▁Muader	-9505
▁Mühlen	-9506
▁Natter	-9507
▁Pauken	-9508
▁Prügel	-9509
▁Pulver	-9510
▁Scharf	-9511
▁Spieße	-9512
▁Sporen	-9513
▁Stalle	-9514
▁Strich	-9515
▁Städte	-9516
▁Suchen	-9517
▁Tatzen	-9518
▁Unruhe	-9519
▁Veitle	-9520
▁Veitli	-9521
▁Volkes	-9522
▁Zeltes	-9523
▁atmete	-9524
▁ausgeb	-9525
▁aussen	-9526
▁ausste	-9527
▁bauten	-9528
▁behend	-9529
▁berief	-9530
▁blanke	-9531
▁blühte	-9532
▁braven	-9533
▁dahing	-9534
▁derben	-9535
▁dichte	-9536
▁donner	-9537
▁erkund	-9538
▁fernen	-9539
▁festen	-9540
▁füllen	-9541
▁gefaßt	-9542
▁geheim	-9543
▁geküßt	-9544
▁gelben	-9545
▁halfen	-9546
▁heilig	-9547
▁heulte	-9548
▁hietzt	-9549
▁hinkam	-9550
▁hinkte	-9551
▁kommet	-9552
▁kämmen	-9553
▁leider	-9554
▁leiten	-9555
▁lenkte	-9556
▁locken	-9557
▁pickte	-9558
▁pochen	-9559
▁prüfen	-9560
▁putzen	-9561
▁rieche	-9562
▁sanfte	-9563
▁senkte	-9564
▁sinnen	-9565
▁sollet	-9566
▁sparen	-9567
▁spiele	-9568
▁steigt	-9569
▁sterbe	-9570
▁tiefem	-9571
▁unheim	-9572
▁weiche	-9573
▁wählte	-9574
▁zapfen	-9575
▁zugest	-9576
▁zupfte	-9577
▁zwölfe	-9578
Wahrlich	-9579
angenehm	-9580
gehenden	-9581
wandtnis	-9582
▁Anstand	-9583
▁Brillen	-9584
▁Büschen	-9585
▁Flieder	-9586
▁Gebirge	-9587
▁Gewerbe	-9588
▁Gewicht	-9589
▁Henkers	-9590
▁Hernach	-9591
▁Husaren	-9592
▁Hörnern	-9593
▁Kapelle	-9594
▁Kletten	-9595
▁Künsten	-9596
▁Profess	-9597
▁Scheibe	-9598
▁Schemel	-9599
▁Schippe	-9600
▁Schneeg	-9601
▁Spazier	-9602
▁Spinnrä	-9603
▁Stengel	-9604
▁Vorfall	-9605
▁Zimmern	-9606
▁Zoraide	-9607
▁bedeckt	-9608
▁beissen	-9609
▁besitze	-9610
▁bewahre	-9611
▁bleibst	-9612
▁drängte	-9613
▁durstig	-9614
▁einwill	-9615
▁eisgrau	-9616
▁erhalte	-9617
▁erlöste	-9618
▁ertönte	-9619
▁etliche	-9620
▁fassten	-9621
▁feurige	-9622
▁fluchte	-9623
▁frommer	-9624
▁fünften	-9625
▁gebeten	-9626
▁geraubt	-9627
▁gerecht	-9628
▁geweckt	-9629
▁gewähre	-9630
▁grossem	-9631
▁heftige	-9632
▁herzten	-9633
▁hüpften	-9634
▁krangen	-9635
▁kraulen	-9636
▁krochen	-9637
▁krummen	-9638
▁meinige	-9639
▁mitleid	-9640
▁müßtest	-9641
▁niedrig	-9642
▁ohnehin	-9643
▁pflügen	-9644
▁rüstete	-9645
▁staunte	-9646
▁stärken	-9647
▁stöhnte	-9648
▁stürzen	-9649
▁stützte	-9650
▁teilten	-9651
▁trennen	-9652
▁unartig	-9653
▁unterst	-9654
▁verding	-9655
▁wandten	-9656
▁zuliebe	-9657
▁überkam	-9658
schwimmen	-9659
seligkeit	-9660
▁Anschlag	-9661
▁Arbeiten	-9662
▁Betracht	-9663
▁Blümchen	-9664
▁Eichbaum	-9665
▁Ellbogen	-9666
▁Ereignis	-9667
▁Flaschen	-9668
▁Früchten	-9669
▁Geschirr	-9670
▁Getreide	-9671
▁Getränke	-9672
▁Griechen	-9673
▁Halstuch	-9674
▁Hausfrau	-9675
▁Hündchen	-9676
▁Irrwisch	-9677
▁Kindheit	-9678
▁Klugheit	-9679
▁Kräutern	-9680
▁Landstra	-9681
▁Ränzchen	-9682
▁Scheiben	-9683
▁Schiffes	-9684
▁Schilder	-9685
▁Schinken	-9686
▁Schlucht	-9687
▁Schulden	-9688
▁Stiefeln	-9689
▁Ungeduld	-9690
▁Vorsicht	-9691
▁abhalten	-9692
▁ankommen	-9693
▁ausgespr	-9694
▁befanden	-9695
▁besessen	-9696
▁bestrich	-9697
▁besuchte	-9698
▁betreten	-9699
▁ehrliche	-9700
▁einsamen	-9701
▁entgehen	-9702
▁erinnert	-9703
▁erwiesen	-9704
▁erworben	-9705
▁fütterte	-9706
▁gebildet	-9707
▁gedrängt	-9708
▁geduldig	-9709
▁genießen	-9710
▁geradeso	-9711
▁gereicht	-9712
▁gerieten	-9713
▁gewissen	-9714
▁gravität	-9715
▁heiliger	-9716
▁herauszu	-9717
▁hingeben	-9718
▁höhnisch	-9719
▁immerhin	-9720
▁kläglich	-9721
▁munterer	-9722
▁niederzu	-9723
▁rasselte	-9724
▁rauchten	-9725
▁schallte	-9726
▁schwören	-9727
▁schämten	-9728
▁schöpfte	-9729
▁sechsten	-9730
▁sichtbar	-9731
▁sämtlich	-9732
▁tüchtige	-9733
▁umdrehte	-9734
▁verschmä	-9735
▁wackelte	-9736
▁weiteres	-9737
▁wiederzu	-9738
▁ärgerten	-9739
▁öffneten	-9740
▁überlief	-9741
Vielleicht	-9742
erstochter	-9743
ratteratra	-9744
schleichen	-9745
▁Befreiung	-9746
▁Begräbnis	-9747
▁Betrübnis	-9748
▁Blutwurst	-9749
▁Bärenfell	-9750
▁Drohungen	-9751
▁Eisenhans	-9752
▁Fleischer	-9753
▁Fremdling	-9754
▁Geliebten	-9755
▁Halsbinde	-9756
▁Hirschkuh	-9757
▁Holzherrn	-9758
▁Kreuzlein	-9759
▁Reisegeld	-9760
▁Schlösser	-9761
▁Schusters	-9762
▁Steinmetz	-9763
▁Trompeten	-9764
▁Wägelchen	-9765
▁anstellen	-9766
▁aufhängen	-9767
▁aufnehmen	-9768
▁aufschlug	-9769
▁bemerkten	-9770
▁bestanden	-9771
▁dagewesen	-9772
▁entflohen	-9773
▁entkommen	-9774
▁entrissen	-9775
▁geklungen	-9776
▁geradeaus	-9777
▁gewickelt	-9778
▁herkommen	-9779
▁hernieder	-9780
▁lebendige	-9781
▁rasselten	-9782
▁schleppen	-9783
▁schließen	-9784
▁schreiend	-9785
▁schwarzes	-9786
▁ungestört	-9787
▁verhelfen	-9788
▁vernehmen	-9789
▁verneigte	-9790
▁wegnehmen	-9791
▁übermütig	-9792
▁Bettelmann	-9793
▁Bewandtnis	-9794
▁Buchstaben	-9795
▁Donnerstag	-9796
▁Elfenhügel	-9797
▁Frankreich	-9798
▁Geschmeide	-9799
▁Instrument	-9800
▁Kreuzhacke	-9801
▁Lagerplatz	-9802
▁Leberwurst	-9803
▁Mamelucken	-9804
▁Nachdenken	-9805
▁Organisten	-9806
▁Schiffchen	-9807
▁Sklavinnen	-9808
▁Sommernarr	-9809
▁Weihnachts	-9810
▁Wirtschaft	-9811
▁angefahren	-9812
▁angewiesen	-9813
▁besonderen	-9814
▁einzuladen	-9815
▁heimlichen	-9816
▁mitbringen	-9817
▁schändlich	-9818
▁türkischen	-9819
▁unangenehm	-9820
▁ungeduldig	-9821
▁unheimlich	-9822
▁verdächtig	-9823
▁verschlang	-9824
▁vertreiben	-9825
▁verzaubert	-9826
▁vorbeiging	-9827
▁wahrhaftig	-9828
▁zerbrochen	-9829
▁zubereitet	-9830
Schatzhauser	-9831
▁Feldscherer	-9832
▁Königssöhne	-9833
▁Küchenjunge	-9834
▁Nachmittags	-9835
▁Töchterlein	-9836
▁Unterschied	-9837
▁Wildschwein	-9838
▁Wirtshäuser	-9839
▁aufeinander	-9840
▁aufgegangen	-9841
▁aufgetragen	-9842
▁ausgehalten	-9843
▁beschreiben	-9844
▁fortwährend	-9845
▁furchtbaren	-9846
▁heimkehrten	-9847
▁hinlänglich	-9848
▁reichgeklei	-9849
▁streichelte	-9850
▁verschlagen	-9851
▁weggenommen	-9852
▁wiederkomme	-9853
▁Fleischhauer	-9854
▁Freundschaft	-9855
▁Gänsemädchen	-9856
▁Hexenmeister	-9857
▁Hirschfänger	-9858
▁Schatzkammer	-9859
▁Schimmelchen	-9860
▁Schlafgemach	-9861
▁Verstorbenen	-9862
▁Wendeltreppe	-9863
▁ausgerichtet	-9864
▁eingerichtet	-9865
▁entschlossen	-9866
▁geschlachtet	-9867
▁menschlichen	-9868
▁niedersetzen	-9869
▁ratschlagten	-9870
▁unterbrochen	-9871
▁verschlingen	-9872
▁wohlbehalten	-9873
▁Gelehrsamkeit	-9874
▁Schmetterling	-9875
▁Schwarzwaldes	-9876
▁Viertelstunde	-9877
▁Wasserleitung	-9878
▁erschrecklich	-9879
▁wunderschönes	-9880
▁Gefangenschaft	-9881
▁Gerichtsdiener	-9882
▁Glückseligkeit	-9883
▁vierundzwanzig	-9884
▁Geschwindigkeit	-9885
▁Pfarrerstochter	-9886
▁Stadtmusikanten	-9887
;‘	-9888
Be	-9889
Br	-9890
CH	-9891
Ho	-9892
av	-9893
ma	-9894
su	-9895
«.	-9896
“;	-9897
Dam	-9898
Ite	-9899
Kos	-9900
aba	-9901
ble	-9902
enk	-9903
eum	-9904
grü	-9905
kei	-9906
knü	-9907
kon	-9908
pre	-9909
rev	-9910
uht	-9911
ums	-9912
zeß	-9913
ähe	-9914
ähn	-9915
ölf	-9916
▁-„	-9917
▁Gö	-9918
▁Is	-9919
▁Lu	-9920
▁No	-9921
▁Wa	-9922
▁do	-9923
▁fo	-9924
Also	-9925
Auch	-9926
Doch	-9927
Dort	-9928
Dumm	-9929
Geld	-9930
Gelo	-9931
Glau	-9932
ahle	-9933
alen	-9934
ause	-9935
bart	-9936
cchi	-9937
eige	-9938
eigt	-9939
eilt	-9940
elje	-9941
emüs	-9942
fang	-9943
ffel	-9944
ftes	-9945
gelt	-9946
gier	-9947
glei	-9948
herd	-9949
hner	-9950
hsel	-9951
ichn	-9952
iegt	-9953
impf	-9954
innt	-9955
kler	-9956
kreu	-9957
lagt	-9958
mers	-9959
mich	-9960
oder	-9961
orne	-9962
peit	-9963
pekt	-9964
rate	-9965
roht	-9966
romm	-9967
samt	-9968
trau	-9969
uder	-9970
unds	-9971
verg	-9972
züge	-9973
älen	-9974
ären	-9975
äuft	-9976
örse	-9977
üpft	-9978
ütze	-9979
▁Eid	-9980
▁Eva	-9981
▁Kät	-9982
▁Los	-9983
▁Med	-9984
▁Oft	-9985
▁Siz	-9986
▁abw	-9987
▁gez	-9988
▁goß	-9989
▁hen	-9990
▁ird	-9991
▁kum	-9992
▁kür	-9993
▁zau	-9994
▁Ähn	-9995
Bleib	-9996
Damit	-9997
Eines	-9998
Heute	-9999
Setze	-10000
Unser	-10001
Weißt	-10002
abeln	-10003
amten	-10004
antas	-10005
aubte	-10006
blieb	-10007
blume	-10008
brech	-10009
cchio	-10010
denkt	-10011
dlein	-10012
eigen	-10013
elein	-10014
ellte	-10015
eucht	-10016
gebir	-10017
gelte	-10018
haber	-10019
hüter	-10020
ietet	-10021
katze	-10022
kerlo	-10023
kreis	-10024
loses	-10025
markt	-10026
mächt	-10027
mäßig	-10028
nadel	-10029
neter	-10030
nteil	-10031
ollen	-10032
osten	-10033
pelze	-10034
rosch	-10035
ränge	-10036
schle	-10037
schon	-10038
stoss	-10039
teckt	-10040
urche	-10041
wache	-10042
wiese	-10043
zutun	-10044
▁Bock	-10045
▁Brat	-10046
▁Bude	-10047
▁Char	-10048
▁Denk	-10049
▁Dres	-10050
▁Elfi	-10051
▁Fort	-10052
▁Gabe	-10053
▁Held	-10054
▁Knos	-10055
▁Krän	-10056
▁Mimi	-10057
▁Mist	-10058
▁Mode	-10059
▁Munt	-10060
▁Neap	-10061
▁Nähn	-10062
▁Pack	-10063
▁Rapp	-10064
▁Rehe	-10065
▁Rotb	-10066
▁Rübe	-10067
▁Schö	-10068
▁Sind	-10069
▁Sitz	-10070
▁Sper	-10071
▁Steg	-10072
▁Teet	-10073
▁Tsch	-10074
▁Wall	-10075
▁Wass	-10076
▁Wirk	-10077
▁Wohn	-10078
▁Woll	-10079
▁aßen	-10080
▁bere	-10081
▁bläu	-10082
▁bunt	-10083
▁derb	-10084
▁dopp	-10085
▁enth	-10086
▁fühl	-10087
▁grin	-10088
▁grob	-10089
▁hoff	-10090
▁holl	-10091
▁kauf	-10092
▁legt	-10093
▁miss	-10094
▁nord	-10095
▁pers	-10096
▁rate	-10097
▁reif	-10098
▁russ	-10099
▁sitz	-10100
▁trot	-10101
▁wich	-10102
▁wirs	-10103
▁zeit	-10104
▁äIte	-10105
▁übte	-10106
Gelobt	-10107
Gewiss	-10108
Mutter	-10109
antino	-10110
attern	-10111
auscht	-10112
bisker	-10113
bringt	-10114
bänder	-10115
chnung	-10116
dieben	-10117
ernden	-10118
essart	-10119
esselt	-10120
ettert	-10121
furcht	-10122
führte	-10123
gucken	-10124
helfen	-10125
himmel	-10126
iefert	-10127
iglich	-10128
igsten	-10129
kaiser	-10130
leidet	-10131
liebst	-10132
läufer	-10133
mensch	-10134
mittag	-10135
orträt	-10136
putzer	-10137
ranken	-10138
ratzen	-10139
redete	-10140
rollen	-10141
schale	-10142
schenk	-10143
seinig	-10144
siehst	-10145
sonder	-10146
stange	-10147
stelle	-10148
teidig	-10149
tracht	-10150
träger	-10151
winden	-10152
zahlen	-10153
zapfen	-10154
zeitig	-10155
ärgert	-10156
üchtig	-10157
ürzung	-10158
▁Anzug	-10159
▁Bader	-10160
▁Barke	-10161
▁Blute	-10162
▁Bogen	-10163
▁Diebs	-10164
▁Einfl	-10165
▁Eller	-10166
▁Erste	-10167
▁Euern	-10168
▁Eures	-10169
▁Freud	-10170
▁Frömm	-10171
▁Frühe	-10172
▁Gange	-10173
▁Hatte	-10174
▁Haufe	-10175
▁Immer	-10176
▁Kanne	-10177
▁Knopf	-10178
▁Konst	-10179
▁Kreat	-10180
▁Licki	-10181
▁Liebl	-10182
▁Major	-10183
▁Meerk	-10184
▁Orden	-10185
▁Pfiff	-10186
▁Picki	-10187
▁Ponte	-10188
▁Punkt	-10189
▁Rolle	-10190
▁Scher	-10191
▁Setze	-10192
▁Statt	-10193
▁Stell	-10194
▁Stick	-10195
▁Titel	-10196
▁Trotz	-10197
▁Träne	-10198
▁Unten	-10199
▁Vader	-10200
▁Weißt	-10201
▁ahnte	-10202
▁beizu	-10203
▁blinz	-10204
▁eifer	-10205
▁engen	-10206
▁erben	-10207
▁erzog	-10208
▁eurem	-10209
▁fleiß	-10210
▁folgt	-10211
▁fühle	-10212
▁genas	-10213
▁gröss	-10214
▁hause	-10215
▁hohes	-10216
▁koche	-10217
▁kocht	-10218
▁koste	-10219
▁künst	-10220
▁leide	-10221
▁malen	-10222
▁ragte	-10223
▁reise	-10224
▁rohes	-10225
▁schär	-10226
▁sorge	-10227
▁spött	-10228
▁stehn	-10229
▁sterb	-10230
▁stock	-10231
▁tauge	-10232
▁tripp	-10233
▁verfl	-10234
▁verlo	-10235
▁verlö	-10236
▁volle	-10237
▁wegzu	-10238
▁wohlf	-10239
▁wärme	-10240
▁zeigt	-10241
Diesmal	-10242
Grossen	-10243
blieben	-10244
brächte	-10245
dringen	-10246
etschte	-10247
gesinde	-10248
gesucht	-10249
greifen	-10250
ilflich	-10251
immerte	-10252
knüpfen	-10253
mählung	-10254
orentin	-10255
richter	-10256
rinelje	-10257
rischen	-10258
röschen	-10259
schalen	-10260
treiben	-10261
uldigte	-10262
zigsten	-10263
zuholen	-10264
änglein	-10265
äuschen	-10266
ünschen	-10267
▁Anteil	-10268
▁Begehr	-10269
▁Bergen	-10270
▁Blüten	-10271
▁Drüben	-10272
▁Fahnen	-10273
▁Falten	-10274
▁Feiert	-10275
▁Flinte	-10276
▁Friede	-10277
▁Furche	-10278
▁Gebirg	-10279
▁Gemein	-10280
▁Gräben	-10281
▁Gänsen	-10282
▁Gästen	-10283
▁Hirtin	-10284
▁Hundes	-10285
▁Kerker	-10286
▁Kranke	-10287
▁Landen	-10288
▁Lasset	-10289
▁Lecker	-10290
▁Leichn	-10291
▁Malter	-10292
▁Nestel	-10293
▁Nutzen	-10294
▁Obdach	-10295
▁Oberst	-10296
▁Okerlo	-10297
▁Puppen	-10298
▁Reihen	-10299
▁Ritzen	-10300
▁Rollen	-10301
▁Schere	-10302
▁Schmal	-10303
▁Schöne	-10304
▁Sieben	-10305
▁Staats	-10306
▁Stuhle	-10307
▁Tanzen	-10308
▁Tiefen	-10309
▁Tugend	-10310
▁Türkei	-10311
▁Vogels	-10312
▁Vorles	-10313
▁Wirbel	-10314
▁anvert	-10315
▁aufzur	-10316
▁ausgab	-10317
▁ausget	-10318
▁auszog	-10319
▁befest	-10320
▁befiel	-10321
▁befrie	-10322
▁begehr	-10323
▁behüte	-10324
▁belegt	-10325
▁blaues	-10326
▁dauert	-10327
▁duften	-10328
▁dulden	-10329
▁dämmer	-10330
▁dünkte	-10331
▁dünnen	-10332
▁eingef	-10333
▁feines	-10334
▁foppen	-10335
▁freiem	-10336
▁freier	-10337
▁fängst	-10338
▁fürder	-10339
▁geizig	-10340
▁gelobt	-10341
▁gestär	-10342
▁groben	-10343
▁heisst	-10344
▁heißer	-10345
▁hältst	-10346
▁klingt	-10347
▁klopft	-10348
▁krangs	-10349
▁kummer	-10350
▁lautes	-10351
▁lockte	-10352
▁mahlen	-10353
▁minder	-10354
▁nimmst	-10355
▁passte	-10356
▁prügel	-10357
▁quälen	-10358
▁rauhen	-10359
▁rauher	-10360
▁sauste	-10361
▁schaut	-10362
▁streng	-10363
▁tötete	-10364
▁umschl	-10365
▁verwei	-10366
▁warnte	-10367
▁wecken	-10368
▁wohler	-10369
▁wonach	-10370
▁wüßten	-10371
▁zahlte	-10372
▁zweien	-10373
▁öfters	-10374
Zaleukos	-10375
bäumchen	-10376
euchtete	-10377
getreten	-10378
scheinen	-10379
schwaben	-10380
schwelle	-10381
stellung	-10382
▁Ausgang	-10383
▁Bildern	-10384
▁Blument	-10385
▁Bruader	-10386
▁Ehrgeiz	-10387
▁Elenden	-10388
▁Empfang	-10389
▁Entchen	-10390
▁Fischen	-10391
▁Förster	-10392
▁Gefolge	-10393
▁Glaubst	-10394
▁Habicht	-10395
▁Hinterb	-10396
▁Kapitän	-10397
▁Klumpen	-10398
▁Knöpfen	-10399
▁Knüttel	-10400
▁Melodie	-10401
▁Monaten	-10402
▁Pflicht	-10403
▁Porträt	-10404
▁Prinzeß	-10405
▁Rehbock	-10406
▁Räthsel	-10407
▁Scheren	-10408
▁Schiffs	-10409
▁Schlage	-10410
▁Schnaps	-10411
▁Schnitt	-10412
▁Schweiß	-10413
▁Semmeln	-10414
▁Seufzer	-10415
▁Stangen	-10416
▁Szekler	-10417
▁Trauben	-10418
▁Triumph	-10419
▁Umsonst	-10420
▁Verzwei	-10421
▁Vorräte	-10422
▁Vorüber	-10423
▁Wichtel	-10424
▁Wunderd	-10425
▁Zugemüs	-10426
▁Zustand	-10427
▁Zwerges	-10428
▁abgehen	-10429
▁ankommt	-10430
▁aufgesp	-10431
▁aufräum	-10432
▁beeilte	-10433
▁beschen	-10434
▁besteht	-10435
▁bestieg	-10436
▁blitzte	-10437
▁bucklig	-10438
▁dastand	-10439
▁dauerst	-10440
▁demütig	-10441
▁deuchte	-10442
▁dienten	-10443
▁dringen	-10444
▁elenden	-10445
▁entfloh	-10446
▁entließ	-10447
▁ergeben	-10448
▁erlaube	-10449
▁erleben	-10450
▁erlosch	-10451
▁fristen	-10452
▁frommes	-10453
▁gebannt	-10454
▁gefolgt	-10455
▁geheilt	-10456
▁geheime	-10457
▁gekrümm	-10458
▁gelangt	-10459
▁genarrt	-10460
▁gewisse	-10461
▁gewährt	-10462
▁glitzer	-10463
▁glückte	-10464
▁goldner	-10465
▁hervort	-10466
▁heulten	-10467
▁hinaust	-10468
▁jüngere	-10469
▁knallte	-10470
▁kranken	-10471
▁kämpfen	-10472
▁leitete	-10473
▁lichter	-10474
▁liebste	-10475
▁mitsamt	-10476
▁mittler	-10477
▁mutigen	-10478
▁pfiffen	-10479
▁pflegen	-10480
▁rascher	-10481
▁rechnen	-10482
▁rechtes	-10483
▁rückten	-10484
▁rührten	-10485
▁schiess	-10486
▁schlüge	-10487
▁schwöre	-10488
▁sechste	-10489
▁sprühen	-10490
▁stutzte	-10491
▁unersch	-10492
▁vecchio	-10493
▁vergeht	-10494
▁vernehm	-10495
▁vertrau	-10496
▁wegging	-10497
▁wundern	-10498
▁zankten	-10499
▁zerlump	-10500
▁zugegen	-10501
▁ähnlich	-10502
▁übergab	-10503
antinopel	-10504
chtigkeit	-10505
eitausend	-10506
legenheit	-10507
schreiten	-10508
schweigen	-10509
▁Bediente	-10510
▁Begehren	-10511
▁Bewohner	-10512
▁Bäumchen	-10513
▁Deutsche	-10514
▁Draussen	-10515
▁Freundin	-10516
▁Frühling	-10517
▁Gedichte	-10518
▁Gefieder	-10519
▁Genossen	-10520
▁Gerümpel	-10521
▁Himmelst	-10522
▁Hörnlein	-10523
▁Knäblein	-10524
▁Köpfchen	-10525
▁Körnchen	-10526
▁Küchlein	-10527
▁Manieren	-10528
▁Mastbaum	-10529
▁Matrosen	-10530
▁Meisters	-10531
▁Mägdlein	-10532
▁Müllerin	-10533
▁Nußzweig	-10534
▁Obgleich	-10535
▁Rückkehr	-10536
▁Schnauze	-10537
▁Schnupft	-10538
▁Spessart	-10539
▁Stellung	-10540
▁Strassen	-10541
▁Streifen	-10542
▁Tischler	-10543
▁Töpfchen	-10544
▁Versuche	-10545
▁Vorhaben	-10546
▁Zutrauen	-10547
▁abkaufen	-10548
▁angelegt	-10549
▁bedecken	-10550
▁befehlen	-10551
▁belastet	-10552
▁berühren	-10553
▁besorgte	-10554
▁besseren	-10555
▁bewahren	-10556
▁bewegten	-10557
▁blendend	-10558
▁blickten	-10559
▁blitzten	-10560
▁dastehen	-10561
▁droschen	-10562
▁entweder	-10563
▁entzückt	-10564
▁erbarmte	-10565
▁errötete	-10566
▁erscholl	-10567
▁erzürnte	-10568
▁fortfuhr	-10569
▁fürchtet	-10570
▁gebacken	-10571
▁gemordet	-10572
▁geschehe	-10573
▁gespannt	-10574
▁gespeist	-10575
▁gestickt	-10576
▁gestützt	-10577
▁gesunden	-10578
▁geärgert	-10579
▁gleicher	-10580
▁klagende	-10581
▁kleinste	-10582
▁kriegten	-10583
▁liebstes	-10584
▁nebenher	-10585
▁neidisch	-10586
▁pflückte	-10587
▁reinlich	-10588
▁richtige	-10589
▁scheinen	-10590
▁schliefe	-10591
▁schossen	-10592
▁schreibt	-10593
▁schwimmt	-10594
▁seidenen	-10595
▁seltenen	-10596
▁sprichst	-10597
▁stritten	-10598
▁treulich	-10599
▁trocknen	-10600
▁umdrehen	-10601
▁ungetreu	-10602
▁unschein	-10603
▁unsicher	-10604
▁unwillig	-10605
▁vergaßen	-10606
▁verliebt	-10607
▁versetzt	-10608
▁zappelte	-10609
▁zweitens	-10610
▁zwölften	-10611
▁Ältesten	-10612
▁Überfluß	-10613
geschossen	-10614
schreibung	-10615
vielleicht	-10616
▁Besorgnis	-10617
▁Eidechsen	-10618
▁Erbschaft	-10619
▁Feuerherd	-10620
▁Feuerlein	-10621
▁Flämmchen	-10622
▁Hochzeits	-10623
▁Holzhauer	-10624
▁Königssch	-10625
▁Kürbisker	-10626
▁Lebensart	-10627
▁Plätzchen	-10628
▁Professor	-10629
▁Rotmantel	-10630
▁Schwalben	-10631
▁Stickerei	-10632
▁Stromberg	-10633
▁Ställchen	-10634
▁Stöckchen	-10635
▁Stücklein	-10636
▁Tiefental	-10637
▁Trompeter	-10638
▁Tränklein	-10639
▁Verderben	-10640
▁Vermögens	-10641
▁Verwandte	-10642
▁Verzauber	-10643
▁Vorschein	-10644
▁Vorzimmer	-10645
▁Zwillings	-10646
▁abzulegen	-10647
▁befiehlst	-10648
▁behandeln	-10649
▁behandelt	-10650
▁beschloss	-10651
▁bestimmte	-10652
▁breiteten	-10653
▁entfernte	-10654
▁enthalten	-10655
▁entsetzte	-10656
▁erschöpft	-10657
▁erstiegen	-10658
▁erwachsen	-10659
▁erweichen	-10660
▁florentin	-10661
▁frühesten	-10662
▁geschrien	-10663
▁gewaschen	-10664
▁greuliche	-10665
▁heimgehen	-10666
▁heimwärts	-10667
▁heraussch	-10668
▁herauszog	-10669
▁hinauskam	-10670
▁hässliche	-10671
▁höchstens	-10672
▁hölzernen	-10673
▁kleinsten	-10674
▁kupfernen	-10675
▁langsamer	-10676
▁nachsehen	-10677
▁riesengro	-10678
▁rundherum	-10679
▁schnellen	-10680
▁schwebten	-10681
▁seltsames	-10682
▁spöttisch	-10683
▁streckten	-10684
▁streichen	-10685
▁trübselig	-10686
▁törichten	-10687
▁umzugehen	-10688
▁verbergen	-10689
▁verbrennt	-10690
▁verdorben	-10691
▁vergraben	-10692
▁verrostet	-10693
▁vertreibt	-10694
▁verzehrte	-10695
▁verziehen	-10696
▁wenigsten	-10697
▁zersprang	-10698
▁zierliche	-10699
▁zitterten	-10700
▁ärmlichen	-10701
▁übergeben	-10702
▁überlegte	-10703
▁überreden	-10704
▁übersehen	-10705
▁überzogen	-10706
Zweiäuglein	-10707
geschlichen	-10708
schweinchen	-10709
▁Abendessen	-10710
▁Bestürzung	-10711
▁Bräutigams	-10712
▁Gesangbuch	-10713
▁Geschlecht	-10714
▁Hoffnungen	-10715
▁Kartoffeln	-10716
▁Katrinelje	-10717
▁Landsleute	-10718
▁Muntserrat	-10719
▁Reichtümer	-10720
▁Schafshirt	-10721
▁Tageslicht	-10722
▁Vaterstadt	-10723
▁Vermählung	-10724
▁allmählich	-10725
▁aufgehängt	-10726
▁aufgewacht	-10727
▁blitzenden	-10728
▁fortlassen	-10729
▁fröhliches	-10730
▁fürchteten	-10731
▁gefürchtet	-10732
▁gemächlich	-10733
▁geradewegs	-10734
▁geschaffen	-10735
▁geschossen	-10736
▁glänzender	-10737
▁hereintrat	-10738
▁hinzugehen	-10739
▁klatschten	-10740
▁kummervoll	-10741
▁natürliche	-10742
▁niedlichen	-10743
▁schleichen	-10744
▁stattliche	-10745
▁unsereiner	-10746
▁untergehen	-10747
▁verhungern	-10748
▁verspreche	-10749
▁vorstellen	-10750
▁Dankbarkeit	-10751
▁Dienerinnen	-10752
▁Dornröschen	-10753
▁Ellermutter	-10754
▁Goldstücken	-10755
▁Handschuhen	-10756
▁Hirtenknabe	-10757
▁Mittagessen	-10758
▁Pfarrersohn	-10759
▁Schlafenden	-10760
▁Schlänglein	-10761
▁Spaziergang	-10762
▁Unterkommen	-10763
▁Verwandlung	-10764
▁allerliebst	-10765
▁aufgehalten	-10766
▁aufzusuchen	-10767
▁beschrieben	-10768
▁einwilligte	-10769
▁entscheiden	-10770
▁fürstlichen	-10771
▁gefährliche	-10772
▁herabfallen	-10773
▁hergelaufen	-10774
▁hingegangen	-10775
▁stattlichen	-10776
▁unbekannter	-10777
▁väterlichen	-10778
▁weggeworfen	-10779
▁zurückkomme	-10780
▁überraschen	-10781
▁überreichte	-10782
▁Bediensteten	-10783
▁Bediensteter	-10784
▁Herrschaften	-10785
▁Kammerdiener	-10786
▁Nestelschwab	-10787
▁Schüsselchen	-10788
▁Verlegenheit	-10789
▁Waldhäuschen	-10790
▁entschließen	-10791
▁köstlichsten	-10792
▁liebgewonnen	-10793
▁ordentlichen	-10794
▁unglückliche	-10795
▁unverdrossen	-10796
▁verschrieben	-10797
▁verstorbenen	-10798
▁wunderlichen	-10799
▁wunderliches	-10800
▁Gerätschaften	-10801
▁Kammermädchen	-10802
▁Schlüsselchen	-10803
▁durcheinander	-10804
▁französischen	-10805
▁herausbringen	-10806
▁wiederzusehen	-10807
▁Bequemlichkeit	-10808
▁Goldprinzessin	-10809
▁Konstantinopel	-10810
▁Menschenkinder	-10811
▁herbeischaffen	-10812
▁niedergelassen	-10813
▁Meerschweinchen	-10814
▁schrecklichsten	-10815
-,	-10816
.’	-10817
1)	-10818
Ar	-10819
By	-10820
ER	-10821
Kö	-10822
ST	-10823
bä	-10824
ia	-10825
of	-10826
ok	-10827
yn	-10828
zö	-10829
‘!	-10830
!«,	-10831
.’«	-10832
Für	-10833
Her	-10834
Oho	-10835
Sel	-10836
Tue	-10837
Ver	-10838
Wen	-10839
bog	-10840
cho	-10841
cki	-10842
dar	-10843
dür	-10844
ekt	-10845
elk	-10846
eul	-10847
fle	-10848
hal	-10849
irm	-10850
kri	-10851
lan	-10852
lfe	-10853
mei	-10854
onn	-10855
oph	-10856
opä	-10857
ram	-10858
roß	-10859
see	-10860
tän	-10861
urp	-10862
usi	-10863
utt	-10864
war	-10865
zah	-10866
äre	-10867
öde	-10868
▁Ak	-10869
▁dö	-10870
▁sa	-10871
▁th	-10872
Darf	-10873
Denn	-10874
Fort	-10875
Gold	-10876
Habe	-10877
Hotz	-10878
Hätt	-10879
Mich	-10880
Rapp	-10881
Sitz	-10882
Trin	-10883
Utan	-10884
Wart	-10885
Wehe	-10886
adan	-10887
affe	-10888
alem	-10889
anst	-10890
ante	-10891
band	-10892
blut	-10893
bätz	-10894
ckst	-10895
dich	-10896
dort	-10897
eimt	-10898
engt	-10899
etty	-10900
euen	-10901
falt	-10902
fest	-10903
ffiz	-10904
ftet	-10905
halm	-10906
hals	-10907
hast	-10908
hofe	-10909
holt	-10910
hten	-10911
iden	-10912
inga	-10913
inkt	-10914
izei	-10915
jähr	-10916
kenn	-10917
krei	-10918
lach	-10919
lade	-10920
lehr	-10921
lotz	-10922
nell	-10923
neun	-10924
nige	-10925
noch	-10926
nuss	-10927
onnt	-10928
opft	-10929
seid	-10930
soll	-10931
stig	-10932
strä	-10933
uhme	-10934
ujah	-10935
uper	-10936
ures	-10937
ußts	-10938
vieh	-10939
viet	-10940
wams	-10941
weit	-10942
weiß	-10943
wies	-10944
witz	-10945
äler	-10946
ärme	-10947
ätze	-10948
örst	-10949
ühre	-10950
üsst	-10951
ütet	-10952
üßen	-10953
▁Aal	-10954
▁Aas	-10955
▁Baß	-10956
▁Bis	-10957
▁Cha	-10958
▁Erf	-10959
▁Fag	-10960
▁For	-10961
▁Fün	-10962
▁Haß	-10963
▁Hel	-10964
▁Jan	-10965
▁Lob	-10966
▁Loh	-10967
▁Mos	-10968
▁Nel	-10969
▁Paf	-10970
▁Pif	-10971
▁Ram	-10972
▁Rom	-10973
▁Sek	-10974
▁Sän	-10975
▁Val	-10976
▁Woh	-10977
▁Wäm	-10978
▁Zei	-10979
▁Zit	-10980
▁Zög	-10981
▁anm	-10982
▁bek	-10983
▁blo	-10984
▁blä	-10985
▁bra	-10986
▁här	-10987
▁jub	-10988
▁kal	-10989
▁lug	-10990
▁nit	-10991
▁prä	-10992
▁qua	-10993
▁sal	-10994
▁sog	-10995
▁tad	-10996
▁umw	-10997
▁unt	-10998
▁wat	-10999
▁zus	-11000
Arbei	-11001
Klein	-11002
Lasse	-11003
Macht	-11004
Selim	-11005
Wovon	-11006
ambul	-11007
arien	-11008
artes	-11009
auten	-11010
besch	-11011
bitte	-11012
deter	-11013
diges	-11014
dreck	-11015
egnet	-11016
ennte	-11017
feder	-11018
flung	-11019
fuchs	-11020
fällt	-11021
ginge	-11022
grube	-11023
hosen	-11024
hände	-11025
ibaba	-11026
ießen	-11027
iment	-11028
inkte	-11029
itzel	-11030
jagte	-11031
jahte	-11032
kchen	-11033
kenne	-11034
lasst	-11035
leide	-11036
lemmt	-11037
loser	-11038
ltere	-11039
lösen	-11040
macht	-11041
malen	-11042
meckt	-11043
nacht	-11044
nahme	-11045
nehme	-11046
nehmt	-11047
oldet	-11048
ostet	-11049
pferd	-11050
pferk	-11051
reben	-11052
rifft	-11053
ronen	-11054
roten	-11055
ruben	-11056
ränkt	-11057
röhre	-11058
schel	-11059
schlä	-11060
sdose	-11061
stair	-11062
stamm	-11063
stolz	-11064
suppe	-11065
tlein	-11066
tänig	-11067
urker	-11068
urzel	-11069
utzig	-11070
wollt	-11071
würfe	-11072
ächst	-11073
änden	-11074
änner	-11075
önnen	-11076
üchen	-11077
üllte	-11078
ünste	-11079
ürzen	-11080
▁Abte	-11081
▁Adel	-11082
▁Faul	-11083
▁Fels	-11084
▁Gehe	-11085
▁Gran	-11086
▁Grau	-11087
▁Halm	-11088
▁Hung	-11089
▁Hüte	-11090
▁Jock	-11091
▁Knäu	-11092
▁Kuck	-11093
▁Lebe	-11094
▁Mass	-11095
▁Ohne	-11096
▁Papa	-11097
▁Pech	-11098
▁Perg	-11099
▁Polt	-11100
▁Reiz	-11101
▁Ruhm	-11102
▁Räte	-11103
▁Saus	-11104
▁SchI	-11105
▁Sepp	-11106
▁Stüm	-11107
▁Susi	-11108
▁Takt	-11109
▁Test	-11110
▁Treu	-11111
▁Ungl	-11112
▁Verk	-11113
▁Viel	-11114
▁Vorn	-11115
▁Wehm	-11116
▁bade	-11117
▁blaß	-11118
▁bohr	-11119
▁dürr	-11120
▁edel	-11121
▁enge	-11122
▁ermü	-11123
▁fahr	-11124
▁fang	-11125
▁funk	-11126
▁geho	-11127
▁geiz	-11128
▁haue	-11129
▁haut	-11130
▁hebt	-11131
▁lock	-11132
▁lärm	-11133
▁löst	-11134
▁männ	-11135
▁selb	-11136
▁soff	-11137
▁stam	-11138
▁tapp	-11139
▁unab	-11140
▁verü	-11141
▁vorm	-11142
▁wehm	-11143
▁weht	-11144
▁weis	-11145
▁wund	-11146
▁zerk	-11147
Bygott	-11148
Schwei	-11149
Wollen	-11150
allein	-11151
artier	-11152
balken	-11153
büchse	-11154
deckte	-11155
drehen	-11156
dunkel	-11157
echnet	-11158
elchen	-11159
esseln	-11160
eugten	-11161
fläche	-11162
flügel	-11163
folger	-11164
füßler	-11165
gerten	-11166
gesell	-11167
graben	-11168
gungen	-11169
handel	-11170
hunder	-11171
immern	-11172
immten	-11173
irrten	-11174
kaplan	-11175
kelten	-11176
klagen	-11177
knaben	-11178
lachen	-11179
liberg	-11180
lichem	-11181
lieika	-11182
lleben	-11183
meilen	-11184
mütige	-11185
nnlein	-11186
oldung	-11187
ordnet	-11188
rengen	-11189
revelt	-11190
riffel	-11191
rängen	-11192
römten	-11193
rücken	-11194
sehens	-11195
seitig	-11196
sitzen	-11197
sohlen	-11198
sstadt	-11199
teress	-11200
uperbe	-11201
utzten	-11202
viette	-11203
wiegen	-11204
willst	-11205
ährten	-11206
ändern	-11207
▁1827«	-11208
▁Adies	-11209
▁Anker	-11210
▁Bohne	-11211
▁Brand	-11212
▁Braus	-11213
▁Dafür	-11214
▁Danke	-11215
▁Deich	-11216
▁Dreck	-11217
▁Eimer	-11218
▁Einla	-11219
▁Erbse	-11220
▁Erret	-11221
▁Fasse	-11222
▁Ferse	-11223
▁Fuder	-11224
▁Gemüt	-11225
▁Gesim	-11226
▁Grenz	-11227
▁Grüne	-11228
▁Hirse	-11229
▁Häute	-11230
▁Jedes	-11231
▁Kalek	-11232
▁Kamel	-11233
▁Keine	-11234
▁Klage	-11235
▁Knöch	-11236
▁Koran	-11237
▁Kranz	-11238
▁Käfer	-11239
▁Käset	-11240
▁Laufe	-11241
▁Leide	-11242
▁Lezah	-11243
▁Liese	-11244
▁Messe	-11245
▁Offiz	-11246
▁Oheim	-11247
▁Pasch	-11248
▁Pfand	-11249
▁Pfann	-11250
▁Sagen	-11251
▁Schuß	-11252
▁Spatz	-11253
▁Stahl	-11254
▁Sterb	-11255
▁Stute	-11256
▁Stühl	-11257
▁Särge	-11258
▁Taten	-11259
▁Tocki	-11260
▁Trink	-11261
▁Vorbe	-11262
▁Wegen	-11263
▁Wuchs	-11264
▁Ziele	-11265
▁Zweck	-11266
▁altem	-11267
▁angew	-11268
▁baden	-11269
▁bebte	-11270
▁begoß	-11271
▁benei	-11272
▁besän	-11273
▁boten	-11274
▁brave	-11275
▁bräun	-11276
▁dalag	-11277
▁drehe	-11278
▁dumpf	-11279
▁entlo	-11280
▁erbot	-11281
▁faule	-11282
▁fette	-11283
▁fährt	-11284
▁gefor	-11285
▁gsund	-11286
▁husch	-11287
▁höret	-11288
▁hörst	-11289
▁irden	-11290
▁kühne	-11291
▁lacht	-11292
▁lauft	-11293
▁liebt	-11294
▁loszu	-11295
▁luden	-11296
▁mager	-11297
▁meist	-11298
▁nackt	-11299
▁paßte	-11300
▁pocht	-11301
▁purem	-11302
▁quoll	-11303
▁raste	-11304
▁redet	-11305
▁riefe	-11306
▁riefs	-11307
▁roter	-11308
▁schar	-11309
▁somit	-11310
▁süßer	-11311
▁tanze	-11312
▁tröpf	-11313
▁unger	-11314
▁verpf	-11315
▁verte	-11316
▁viert	-11317
▁weben	-11318
▁wohlt	-11319
▁zwang	-11320
▁Äcker	-11321
▁überm	-11322
Hundert	-11323
Märchen	-11324
Schönen	-11325
alteten	-11326
brannte	-11327
bringst	-11328
bätzner	-11329
derchen	-11330
emachen	-11331
gedreht	-11332
gehoben	-11333
gelesen	-11334
gereist	-11335
geschen	-11336
hielten	-11337
ichelte	-11338
icklich	-11339
kindern	-11340
kriegen	-11341
nechten	-11342
nehmend	-11343
nichten	-11344
ordeten	-11345
phezeit	-11346
reitete	-11347
schauer	-11348
schland	-11349
schloss	-11350
spitzen	-11351
sprüche	-11352
sternis	-11353
undneun	-11354
ußtsein	-11355
weglich	-11356
ärtlich	-11357
▁Allahs	-11358
▁Andern	-11359
▁Beeren	-11360
▁Besitz	-11361
▁Bremen	-11362
▁Chakam	-11363
▁Dorfes	-11364
▁Dresch	-11365
▁Dutzen	-11366
▁Dämmer	-11367
▁Erzieh	-11368
▁Fagott	-11369
▁Fliege	-11370
▁Füchse	-11371
▁Führer	-11372
▁Galopp	-11373
▁Geheul	-11374
▁Gemäch	-11375
▁Geweih	-11376
▁Gickel	-11377
▁Gräber	-11378
▁Hecken	-11379
▁Hering	-11380
▁Hoftor	-11381
▁Homers	-11382
▁Kampfe	-11383
▁Kannst	-11384
▁Kiesel	-11385
▁Klagen	-11386
▁Kreide	-11387
▁Kreise	-11388
▁Kugeln	-11389
▁Lampen	-11390
▁Lappin	-11391
▁Liebes	-11392
▁Linnen	-11393
▁Lärmen	-11394
▁Malcho	-11395
▁Mangel	-11396
▁Mansor	-11397
▁Medina	-11398
▁Meinen	-11399
▁Munkin	-11400
▁Mägden	-11401
▁Mörsel	-11402
▁Mücken	-11403
▁Notenp	-11404
▁Rosses	-11405
▁Sammet	-11406
▁Schalt	-11407
▁Schenk	-11408
▁Schuck	-11409
▁Segeln	-11410
▁Selten	-11411
▁Sicher	-11412
▁Sollte	-11413
▁Summen	-11414
▁Sänfte	-11415
▁Säulen	-11416
▁Tausch	-11417
▁Tulpen	-11418
▁Turban	-11419
▁Türmen	-11420
▁Untern	-11421
▁Vorrat	-11422
▁Wacker	-11423
▁Weibes	-11424
▁Wollen	-11425
▁Würfel	-11426
▁Zensur	-11427
▁anrühr	-11428
▁aufbew	-11429
▁auserw	-11430
▁behält	-11431
▁belust	-11432
▁bestät	-11433
▁bluten	-11434
▁brauch	-11435
▁braver	-11436
▁breite	-11437
▁bricht	-11438
▁christ	-11439
▁darbot	-11440
▁denkst	-11441
▁dürren	-11442
▁einges	-11443
▁entblö	-11444
▁entkam	-11445
▁erregt	-11446
▁faulen	-11447
▁faßten	-11448
▁froher	-11449
▁frühen	-11450
▁geehrt	-11451
▁gelten	-11452
▁genäht	-11453
▁giftig	-11454
▁gossen	-11455
▁gönnte	-11456
▁habest	-11457
▁harrte	-11458
▁heiler	-11459
▁heisse	-11460
▁herzte	-11461
▁himmel	-11462
▁hinken	-11463
▁hinnen	-11464
▁hohlen	-11465
▁jagten	-11466
▁jünger	-11467
▁kranke	-11468
▁kühlen	-11469
▁leckte	-11470
▁leises	-11471
▁lossch	-11472
▁milden	-11473
▁plagen	-11474
▁plagte	-11475
▁preßte	-11476
▁reckte	-11477
▁reinen	-11478
▁schlei	-11479
▁schwäb	-11480
▁segnen	-11481
▁siegte	-11482
▁sprich	-11483
▁stoßen	-11484
▁säuber	-11485
▁taufen	-11486
▁taugen	-11487
▁trabte	-11488
▁treibe	-11489
▁trägst	-11490
▁tröste	-11491
▁untere	-11492
▁unterm	-11493
▁unverr	-11494
▁unweit	-11495
▁unzähl	-11496
▁verfin	-11497
▁vergif	-11498
▁verlei	-11499
▁vornen	-11500
▁wachst	-11501
▁wehrte	-11502
▁wichen	-11503
▁wisset	-11504
▁zielte	-11505
▁zuleid	-11506
▁zusamm	-11507
▁zuteil	-11508
▁zürnen	-11509
▁Ältere	-11510
▁ältern	-11511
▁ärgern	-11512
Arbeiter	-11513
ausenden	-11514
blitzten	-11515
gebildet	-11516
gegraben	-11517
gesellen	-11518
gespannt	-11519
gesperrt	-11520
löckchen	-11521
menschen	-11522
schieben	-11523
schlugen	-11524
strecken	-11525
würdiges	-11526
zuhalten	-11527
▁Aalkopf	-11528
▁Abgrund	-11529
▁Almosen	-11530
▁Anbruch	-11531
▁Astloch	-11532
▁Begriff	-11533
▁Bosheit	-11534
▁Büchsen	-11535
▁Diamant	-11536
▁Dorthin	-11537
▁Dunkeln	-11538
▁Fäusten	-11539
▁Gartens	-11540
▁Gerührt	-11541
▁Gläsern	-11542
▁Heimweh	-11543
▁Herzogs	-11544
▁Hutzeln	-11545
▁Hühnern	-11546
▁Italien	-11547
▁Jockele	-11548
▁Jägerei	-11549
▁Kanälen	-11550
▁Kostbar	-11551
▁Krachen	-11552
▁Kuckuck	-11553
▁Königen	-11554
▁Lerchen	-11555
▁Mehrere	-11556
▁Pistole	-11557
▁Polizei	-11558
▁Poltrie	-11559
▁Ramadan	-11560
▁Rechtes	-11561
▁Respekt	-11562
▁Schlimm	-11563
▁Schloßt	-11564
▁Schreib	-11565
▁Sklavin	-11566
▁Spielen	-11567
▁Stambul	-11568
▁Sterben	-11569
▁Steuern	-11570
▁Stühlen	-11571
▁Thiulis	-11572
▁Valetty	-11573
▁Walnuss	-11574
▁Wechsel	-11575
▁Zwiebel	-11576
▁Zögling	-11577
▁abholen	-11578
▁anfinge	-11579
▁anstatt	-11580
▁aussehe	-11581
▁bedient	-11582
▁begehre	-11583
▁behalte	-11584
▁bejahte	-11585
▁beliebt	-11586
▁bellten	-11587
▁beraubt	-11588
▁bescher	-11589
▁besucht	-11590
▁betäubt	-11591
▁bewacht	-11592
▁bezogen	-11593
▁blankes	-11594
▁blicken	-11595
▁blinken	-11596
▁darnach	-11597
▁dickste	-11598
▁einfach	-11599
▁erfährt	-11600
▁erkenne	-11601
▁erregte	-11602
▁erwacht	-11603
▁erweckt	-11604
▁feinste	-11605
▁fragend	-11606
▁gekehrt	-11607
▁gemeine	-11608
▁genauer	-11609
▁gepackt	-11610
▁getanzt	-11611
▁griffen	-11612
▁grimmig	-11613
▁holländ	-11614
▁hungert	-11615
▁höheren	-11616
▁kannten	-11617
▁knackte	-11618
▁krieche	-11619
▁könntet	-11620
▁lebhaft	-11621
▁letztes	-11622
▁loderte	-11623
▁nebenan	-11624
▁nickten	-11625
▁obschon	-11626
▁pfeifen	-11627
▁pfiffig	-11628
▁platzen	-11629
▁poliert	-11630
▁reisten	-11631
▁sagtest	-11632
▁schauer	-11633
▁schnupp	-11634
▁schreit	-11635
▁segelte	-11636
▁seligen	-11637
▁silbern	-11638
▁singend	-11639
▁sinnend	-11640
▁solltet	-11641
▁sparsam	-11642
▁speiste	-11643
▁standet	-11644
▁stiller	-11645
▁streuen	-11646
▁stärkte	-11647
▁summten	-11648
▁trotzig	-11649
▁vergißt	-11650
▁verhaßt	-11651
▁weithin	-11652
▁weshalb	-11653
▁wüssten	-11654
▁zehnten	-11655
▁zittern	-11656
▁zuleide	-11657
▁zweiter	-11658
▁überein	-11659
antwortet	-11660
eckerchen	-11661
euchteten	-11662
gerischen	-11663
geschickt	-11664
igerweise	-11665
schleppen	-11666
untergang	-11667
zerreiber	-11668
▁Andersen	-11669
▁Auerhahn	-11670
▁Balingen	-11671
▁Begierde	-11672
▁Bekannte	-11673
▁Benehmen	-11674
▁Brettern	-11675
▁Christen	-11676
▁Drescher	-11677
▁Einsicht	-11678
▁Entenhof	-11679
▁Erwachen	-11680
▁Faulheit	-11681
▁Feiertag	-11682
▁Franzose	-11683
▁Frühjahr	-11684
▁Gedränge	-11685
▁Gegenden	-11686
▁Geißhirt	-11687
▁Geliebte	-11688
▁Gerichte	-11689
▁Gliedern	-11690
▁Hinterfü	-11691
▁Hufeisen	-11692
▁Händchen	-11693
▁Kanarien	-11694
▁Kleinode	-11695
▁Leichnam	-11696
▁Leinwand	-11697
▁Liebstes	-11698
▁Melodien	-11699
▁Mäuschen	-11700
▁Norwegen	-11701
▁Oberwelt	-11702
▁Ofenbank	-11703
▁Ohrfeige	-11704
▁Organist	-11705
▁Pflanzen	-11706
▁Rauschen	-11707
▁Rechnung	-11708
▁Schaukel	-11709
▁Schinder	-11710
▁Schläfer	-11711
▁Schuppen	-11712
▁Schöpfer	-11713
▁Sizilien	-11714
▁Sprüngen	-11715
▁Storchen	-11716
▁Sulieika	-11717
▁Tierchen	-11718
▁Versteck	-11719
▁Zauberin	-11720
▁Zicklein	-11721
▁Zuflucht	-11722
▁abnehmen	-11723
▁absonder	-11724
▁aufgehen	-11725
▁aufgetan	-11726
▁aufhörte	-11727
▁bequemen	-11728
▁berieten	-11729
▁bestellt	-11730
▁betrifft	-11731
▁bildeten	-11732
▁bleicher	-11733
▁brummend	-11734
▁einemmal	-11735
▁eingehen	-11736
▁erfuhren	-11737
▁ermattet	-11738
▁erquickt	-11739
▁erschlug	-11740
▁feurigen	-11741
▁folgende	-11742
▁forschte	-11743
▁fortlief	-11744
▁frischer	-11745
▁frisches	-11746
▁gedruckt	-11747
▁geglückt	-11748
▁gekostet	-11749
▁geliebte	-11750
▁gestopft	-11751
▁gestärkt	-11752
▁gestürzt	-11753
▁getadelt	-11754
▁gewährte	-11755
▁grössere	-11756
▁größeren	-11757
▁heftiger	-11758
▁hineinzu	-11759
▁höchster	-11760
▁interess	-11761
▁klettern	-11762
▁lustiges	-11763
▁mitunter	-11764
▁musstest	-11765
▁nützlich	-11766
▁reinigen	-11767
▁scharfes	-11768
▁schlafet	-11769
▁schlimme	-11770
▁schlägst	-11771
▁schönere	-11772
▁seltener	-11773
▁seufzend	-11774
▁stiessen	-11775
▁strahlte	-11776
▁sträubte	-11777
▁törichte	-11778
▁umarmten	-11779
▁verfolgt	-11780
▁verirrte	-11781
▁verliere	-11782
▁verstumm	-11783
▁vorlesen	-11784
▁weidlich	-11785
▁weigerte	-11786
▁wärmeres	-11787
▁zerbrach	-11788
▁zerbrech	-11789
▁zündeten	-11790
atürlichen	-11791
baumeister	-11792
geschichte	-11793
großmutter	-11794
▁Ausspruch	-11795
▁Bedeutung	-11796
▁Bewohnern	-11797
▁Brautpaar	-11798
▁Brünnlein	-11799
▁Christoph	-11800
▁Dornbusch	-11801
▁Dämmerung	-11802
▁Edelknabe	-11803
▁Fischchen	-11804
▁Geringste	-11805
▁Grabhügel	-11806
▁Hofherren	-11807
▁Karawanen	-11808
▁Kaufmanns	-11809
▁Kehrdreck	-11810
▁Kirchturm	-11811
▁Käsetraut	-11812
▁Meisterin	-11813
▁Messingkn	-11814
▁Müßiggang	-11815
▁Nachsehen	-11816
▁Ofenröhre	-11817
▁Pförtchen	-11818
▁Scharlach	-11819
▁Schilling	-11820
▁Schlurker	-11821
▁Schriften	-11822
▁Seligkeit	-11823
▁Serviette	-11824
▁Spielzeug	-11825
▁Stiefschw	-11826
▁Sturmwind	-11827
▁Stühlchen	-11828
▁Testament	-11829
▁Torheiten	-11830
▁Totenbein	-11831
▁Vorreiter	-11832
▁Wohlstand	-11833
▁Zwerglein	-11834
▁angerührt	-11835
▁antwortet	-11836
▁auffallen	-11837
▁aufsetzen	-11838
▁aufsprang	-11839
▁aussuchen	-11840
▁bedeutend	-11841
▁befestigt	-11842
▁beisetzen	-11843
▁beleidigt	-11844
▁bestimmen	-11845
▁betrunken	-11846
▁blinzelte	-11847
▁derjenige	-11848
▁ehrerbiet	-11849
▁ehrlicher	-11850
▁einkaufen	-11851
▁einwenden	-11852
▁empfehlen	-11853
▁finsterer	-11854
▁flatterte	-11855
▁fletschte	-11856
▁garstiger	-11857
▁gefesselt	-11858
▁gefrevelt	-11859
▁gelehrten	-11860
▁gutwillig	-11861
▁köstliche	-11862
▁mitteilen	-11863
▁niemandem	-11864
▁raschelte	-11865
▁schenkten	-11866
▁schifften	-11867
▁schimmern	-11868
▁schläfrig	-11869
▁schnaubte	-11870
▁schrecken	-11871
▁schwingen	-11872
▁tüchtiger	-11873
▁umbringen	-11874
▁umzusehen	-11875
▁undankbar	-11876
▁unendlich	-11877
▁unterging	-11878
▁verdiente	-11879
▁verdingte	-11880
▁verfolgte	-11881
▁verhalten	-11882
▁verliebte	-11883
▁verliehen	-11884
▁verschlei	-11885
▁verstehst	-11886
▁vertraute	-11887
▁verweilen	-11888
▁vollenden	-11889
▁wiedersah	-11890
▁zertreten	-11891
▁ähnlichen	-11892
▁überzeugt	-11893
▁Bewegungen	-11894
▁Bewußtsein	-11895
▁Bilderbuch	-11896
▁Eierkuchen	-11897
▁Erinnerung	-11898
▁Finsternis	-11899
▁Fläschchen	-11900
▁Gegenstand	-11901
▁Geschenken	-11902
▁Gevatterin	-11903
▁Gickelinge	-11904
▁Goldhirsch	-11905
▁Grossvater	-11906
▁Hohenstolz	-11907
▁Kämmerlein	-11908
▁Mitteilung	-11909
▁Mundschenk	-11910
▁Schweigend	-11911
▁Spielleute	-11912
▁Spitzbuben	-11913
▁Sprichwort	-11914
▁Tanzkaiser	-11915
▁Unbekannte	-11916
▁Verwandten	-11917
▁Weidenbaum	-11918
▁Windbüchse	-11919
▁Zauberstab	-11920
▁Zuckerwerk	-11921
▁abgenommen	-11922
▁abgerissen	-11923
▁allerschön	-11924
▁angenommen	-11925
▁arabischen	-11926
▁aufgezogen	-11927
▁aufschloss	-11928
▁aufsteigen	-11929
▁aufzuheben	-11930
▁ausgeführt	-11931
▁ausgelacht	-11932
▁auszuruhen	-11933
▁begleitete	-11934
▁behilflich	-11935
▁beobachtet	-11936
▁beschlagen	-11937
▁ehemaligen	-11938
▁eingeführt	-11939
▁erschallte	-11940
▁flatterten	-11941
▁geschmeckt	-11942
▁herangesch	-11943
▁hervortrat	-11944
▁köstliches	-11945
▁musizieren	-11946
▁niedersank	-11947
▁niedliches	-11948
▁nordischen	-11949
▁offenstand	-11950
▁prophezeit	-11951
▁schimmerte	-11952
▁schluchzte	-11953
▁schnarchen	-11954
▁schwatzten	-11955
▁schwerlich	-11956
▁sonderlich	-11957
▁untertänig	-11958
▁verdienten	-11959
▁verhandeln	-11960
▁verheissen	-11961
▁wundervoll	-11962
▁zerschnitt	-11963
▁überrascht	-11964
▁Entschuldig	-11965
▁Florentiner	-11966
▁Kinderspiel	-11967
▁Königreiche	-11968
▁Landstrasse	-11969
▁Meisterdieb	-11970
▁Pfannkuchen	-11971
▁Waldgeister	-11972
▁abgehauenen	-11973
▁abschneiden	-11974
▁ausgerissen	-11975
▁einzulassen	-11976
▁fränkischen	-11977
▁gegenseitig	-11978
▁geschwommen	-11979
▁gewöhnliche	-11980
▁herankommen	-11981
▁hinausgehen	-11982
▁hineinsehen	-11983
▁schlafenden	-11984
▁unsichtbare	-11985
▁unterhalten	-11986
▁unterlassen	-11987
▁untersuchen	-11988
▁unverschämt	-11989
▁verlassenen	-11990
▁verlassenes	-11991
▁vernünftige	-11992
▁vollbrachte	-11993
▁vorgekommen	-11994
▁väterliches	-11995
▁wiedergeben	-11996
▁wiedersehen	-11997
▁zerrissenen	-11998
▁zerschlagen	-11999
▁Ameisenkönig	-12000
▁Florentiners	-12001
▁Frauenzimmer	-12002
▁Gewohnheiten	-12003
▁Menschenkind	-12004
▁Nachtigallen	-12005
▁Sechsbätzner	-12006
▁Stallknechte	-12007
▁Tannenzapfen	-12008
▁Verzweiflung	-12009
▁christlichen	-12010
▁durchsichtig	-12011
▁eingetroffen	-12012
▁festgebunden	-12013
▁gefährlichen	-12014
▁griechischen	-12015
▁heimgekommen	-12016
▁heraufkommen	-12017
▁herausfinden	-12018
▁hervorkommen	-12019
▁merkwürdigen	-12020
▁nachdenklich	-12021
▁nachzudenken	-12022
▁niederfallen	-12023
▁schmeichelte	-12024
▁verabredeten	-12025
▁verschreiben	-12026
▁verspotteten	-12027
▁vortrefflich	-12028
▁wunderlicher	-12029
▁Entleinmutter	-12030
▁Gerechtigkeit	-12031
▁Himmelspforte	-12032
▁Kanarienvogel	-12033
▁Königsschloss	-12034
▁Schlossgarten	-12035
▁Straßenläufer	-12036
▁angesehensten	-12037
▁ausgesprochen	-12038
▁ausgezeichnet	-12039
▁bekanntmachen	-12040
▁entschuldigte	-12041
▁herabgefallen	-12042
▁hinübertragen	-12043
▁totgeschlagen	-12044
▁unerschrocken	-12045
Märchenalmanach	-12046
▁Festlichkeiten	-12047
▁Gärtnermädchen	-12048
▁Löweneckerchen	-12049
▁Steinzerreiber	-12050
▁Unterirdischen	-12051
▁Weihnachtsbaum	-12052
▁hineingegangen	-12053
▁zurückgelassen	-12054
▁Freudengeschrei	-12055
▁Orgelbaumeister	-12056
▁Rinnsteinbrücke	-12057
▁Schwefelhölzern	-12058
▁Sonnenuntergang	-12059
▁Tanzbodenkönigs	-12060
▁hinaufzusteigen	-12061
..	-12062
Bo	-12063
EN	-12064
ES	-12065
ee	-12066
zü	-12067
ÄR	-12068
51)	-12069
Aus	-12070
Brü	-12071
Sag	-12072
Ser	-12073
Weh	-12074
aka	-12075
bhü	-12076
bil	-12077
bin	-12078
dru	-12079
eiß	-12080
ent	-12081
fet	-12082
gge	-12083
gut	-12084
idr	-12085
ieß	-12086
ite	-12087
kst	-12088
kum	-12089
laf	-12090
lob	-12091
mäß	-12092
nur	-12093
ppt	-12094
raf	-12095
rag	-12096
riß	-12097
ruf	-12098
sag	-12099
spl	-12100
stö	-12101
tut	-12102
uel	-12103
äße	-12104
öln	-12105
——–	-12106
▁-,	-12107
▁Ad	-12108
▁As	-12109
▁Hy	-12110
▁Mi	-12111
▁gw	-12112
▁hm	-12113
▁ju	-12114
▁mä	-12115
▁rö	-12116
▁za	-12117
▁ze	-12118
▁–,	-12119
CHEN	-12120
Dazu	-12121
Drau	-12122
Frie	-12123
Geht	-12124
Hein	-12125
Hoch	-12126
Piep	-12127
Schl	-12128
Schw	-12129
Verg	-12130
Wann	-12131
abor	-12132
abud	-12133
amme	-12134
ammt	-12135
arre	-12136
aste	-12137
auch	-12138
aunt	-12139
ausp	-12140
ayer	-12141
brah	-12142
dank	-12143
drei	-12144
ehne	-12145
eiss	-12146
eite	-12147
emme	-12148
erzt	-12149
fand	-12150
farb	-12151
fein	-12152
fent	-12153
gypt	-12154
iege	-12155
irkt	-12156
irps	-12157
kere	-12158
korn	-12159
lech	-12160
lohn	-12161
lägt	-12162
läßt	-12163
mael	-12164
ndre	-12165
nimm	-12166
okko	-12167
orge	-12168
otzt	-12169
pper	-12170
raue	-12171
reib	-12172
rims	-12173
rose	-12174
sige	-12175
sset	-12176
stan	-12177
such	-12178
ulen	-12179
unke	-12180
urra	-12181
urva	-12182
verk	-12183
ächs	-12184
ähle	-12185
äumt	-12186
äute	-12187
ögel	-12188
ünze	-12189
▁Alb	-12190
▁Bem	-12191
▁Bey	-12192
▁Bin	-12193
▁Brö	-12194
▁Bän	-12195
▁Dür	-12196
▁Ele	-12197
▁Ern	-12198
▁Fra	-12199
▁Geg	-12200
▁Gla	-12201
▁Jul	-12202
▁Kom	-12203
▁Kri	-12204
▁Lot	-12205
▁Mid	-12206
▁Miß	-12207
▁MÄR	-12208
▁Rev	-12209
▁Stü	-12210
▁Tee	-12211
▁Tom	-12212
▁Ves	-12213
▁Wen	-12214
▁Zus	-12215
▁bün	-12216
▁dän	-12217
▁ißt	-12218
▁knü	-12219
▁käm	-12220
▁les	-12221
▁nag	-12222
▁nöt	-12223
▁stö	-12224
▁umh	-12225
▁umm	-12226
▁wäl	-12227
▁Äng	-12228
Gehet	-12229
Holla	-12230
Hörst	-12231
Meint	-12232
Schen	-12233
Schön	-12234
Steig	-12235
Still	-12236
Wenns	-12237
adung	-12238
auser	-12239
baren	-12240
breit	-12241
drück	-12242
eiche	-12243
eiter	-12244
emach	-12245
emmen	-12246
emmte	-12247
ennst	-12248
faden	-12249
fetzt	-12250
ftige	-12251
ftrag	-12252
fälle	-12253
gaben	-12254
gebet	-12255
gläub	-12256
hucke	-12257
höhle	-12258
indig	-12259
ippod	-12260
irren	-12261
isses	-12262
klipp	-12263
kraft	-12264
krone	-12265
langt	-12266
lanzt	-12267
leibe	-12268
lilie	-12269
lingt	-12270
luckt	-12271
läuft	-12272
manns	-12273
maßen	-12274
mückt	-12275
nerin	-12276
nimmt	-12277
nüsse	-12278
olten	-12279
prang	-12280
ragte	-12281
regen	-12282
rinne	-12283
rufen	-12284
seele	-12285
selnd	-12286
sschw	-12287
sster	-12288
stiel	-12289
strau	-12290
ständ	-12291
taler	-12292
taten	-12293
telte	-12294
twoch	-12295
undet	-12296
urpur	-12297
utsch	-12298
zahlt	-12299
zehrt	-12300
zieht	-12301
ällst	-12302
äufig	-12303
öchen	-12304
ühlte	-12305
üttet	-12306
▁Anne	-12307
▁Balg	-12308
▁Bang	-12309
▁Bord	-12310
▁Eheh	-12311
▁Ehel	-12312
▁Emir	-12313
▁Entw	-12314
▁Entz	-12315
▁Erem	-12316
▁Fack	-12317
▁Ferk	-12318
▁Fied	-12319
▁Flor	-12320
▁Flug	-12321
▁Form	-12322
▁Fund	-12323
▁Gelb	-12324
▁Gust	-12325
▁Hieb	-12326
▁Kanz	-12327
▁Kett	-12328
▁Kund	-12329
▁Käth	-12330
▁Laka	-12331
▁Lämm	-12332
▁Mühl	-12333
▁Rast	-12334
▁Rats	-12335
▁Raum	-12336
▁Seid	-12337
▁Sieg	-12338
▁Sipp	-12339
▁Stro	-12340
▁Verh	-12341
▁Wett	-12342
▁Wies	-12343
▁Zahn	-12344
▁alei	-12345
▁auff	-12346
▁aufr	-12347
▁auft	-12348
▁baum	-12349
▁deck	-12350
▁entr	-12351
▁ergr	-12352
▁fett	-12353
▁fris	-12354
▁gabs	-12355
▁hasp	-12356
▁hurt	-12357
▁kind	-12358
▁kram	-12359
▁krei	-12360
▁kreu	-12361
▁kuma	-12362
▁mann	-12363
▁mind	-12364
▁nett	-12365
▁närr	-12366
▁ruhe	-12367
▁ruht	-12368
▁spie	-12369
▁spor	-12370
▁stak	-12371
▁stud	-12372
▁säen	-12373
▁süss	-12374
▁umge	-12375
▁vorh	-12376
▁weih	-12377
▁widr	-12378
▁wärt	-12379
Dummer	-12380
Dummes	-12381
Glaubt	-12382
Hinter	-12383
Kommst	-12384
Könnte	-12385
Liebes	-12386
Meinst	-12387
ahlten	-12388
annter	-12389
aubten	-12390
barmen	-12391
besten	-12392
bruder	-12393
cklein	-12394
derung	-12395
echter	-12396
ennten	-12397
ernter	-12398
estern	-12399
fachen	-12400
ffendi	-12401
flegel	-12402
geschm	-12403
grauen	-12404
herzen	-12405
idigen	-12406
indern	-12407
ittert	-12408
karten	-12409
kugeln	-12410
köpfen	-12411
künste	-12412
lingel	-12413
lingen	-12414
marsch	-12415
mittel	-12416
nabend	-12417
oppeln	-12418
rannte	-12419
redung	-12420
schult	-12421
selten	-12422
spalte	-12423
spruch	-12424
spänen	-12425
steigt	-12426
stille	-12427
stoßen	-12428
tasche	-12429
teller	-12430
tliche	-12431
unchen	-12432
wecken	-12433
weiser	-12434
wellen	-12435
wetter	-12436
wissen	-12437
wohnen	-12438
wohner	-12439
zehnte	-12440
zliche	-12441
zutage	-12442
ächten	-12443
ührten	-12444
ündigt	-12445
üttert	-12446
▁Alpen	-12447
▁Andre	-12448
▁Armee	-12449
▁Banus	-12450
▁Beile	-12451
▁Bibel	-12452
▁Birne	-12453
▁Blech	-12454
▁Bring	-12455
▁Busen	-12456
▁Busse	-12457
▁Böcke	-12458
▁Börse	-12459
▁Davon	-12460
▁Drang	-12461
▁Dreif	-12462
▁Enkel	-12463
▁Erker	-12464
▁Espen	-12465
▁Etwas	-12466
▁Euerm	-12467
▁Gehör	-12468
▁Glass	-12469
▁Harfe	-12470
▁Hausm	-12471
▁Heere	-12472
▁Hiebe	-12473
▁Hirte	-12474
▁Husch	-12475
▁Ihren	-12476
▁Insch	-12477
▁Jagen	-12478
▁Klotz	-12479
▁Kunos	-12480
▁Küste	-12481
▁Lahme	-12482
▁Lanze	-12483
▁Lasst	-12484
▁Laute	-12485
▁Lilie	-12486
▁Manch	-12487
▁Maria	-12488
▁Murva	-12489
▁Orten	-12490
▁Plage	-12491
▁Predi	-12492
▁Pudel	-12493
▁Rause	-12494
▁Rebhü	-12495
▁Regel	-12496
▁Roten	-12497
▁Ruten	-12498
▁Salbe	-12499
▁Scham	-12500
▁Senat	-12501
▁Siehe	-12502
▁Stach	-12503
▁Stoff	-12504
▁Stufe	-12505
▁Stund	-12506
▁Szene	-12507
▁Talar	-12508
▁Tante	-12509
▁Tragt	-12510
▁Unver	-12511
▁Vieht	-12512
▁Wange	-12513
▁Welle	-12514
▁Wisst	-12515
▁Wohin	-12516
▁Wolle	-12517
▁Zorne	-12518
▁abgew	-12519
▁abhol	-12520
▁abzuw	-12521
▁allda	-12522
▁angeb	-12523
▁anste	-12524
▁atmen	-12525
▁aufer	-12526
▁binde	-12527
▁blass	-12528
▁dasaß	-12529
▁echte	-12530
▁ehrte	-12531
▁elfte	-12532
▁enger	-12533
▁ergeb	-12534
▁erwür	-12535
▁fange	-12536
▁gebil	-12537
▁getrö	-12538
▁gewei	-12539
▁grund	-12540
▁holde	-12541
▁kehrt	-12542
▁klare	-12543
▁laden	-12544
▁laufe	-12545
▁leere	-12546
▁legst	-12547
▁lägen	-12548
▁löste	-12549
▁lügst	-12550
▁malte	-12551
▁merke	-12552
▁milde	-12553
▁möget	-12554
▁nahte	-12555
▁nebst	-12556
▁nächt	-12557
▁nährt	-12558
▁packe	-12559
▁rohen	-12560
▁rütte	-12561
▁saget	-12562
▁schnö	-12563
▁selig	-12564
▁stahl	-12565
▁stell	-12566
▁vermu	-12567
▁vorne	-12568
▁wacht	-12569
▁wagst	-12570
▁weine	-12571
▁weint	-12572
▁wicht	-12573
▁zutun	-12574
▁zuzur	-12575
▁Ärzte	-12576
▁ägypt	-12577
▁ärmer	-12578
▁überg	-12579
▁übert	-12580
Serujah	-12581
Welches	-12582
anbruch	-12583
andelte	-12584
andlung	-12585
ankabud	-12586
antasie	-12587
attelte	-12588
auschen	-12589
auspiel	-12590
bursche	-12591
dankter	-12592
derlich	-12593
dienste	-12594
drückte	-12595
fordern	-12596
gebirge	-12597
geredet	-12598
glichen	-12599
glocken	-12600
jenigen	-12601
langten	-12602
leidung	-12603
llenthe	-12604
ngucker	-12605
reissen	-12606
riechen	-12607
schwanz	-12608
schüsse	-12609
solange	-12610
sondern	-12611
spiegel	-12612
sprache	-12613
stanien	-12614
statten	-12615
steinen	-12616
strömte	-12617
stungen	-12618
svoller	-12619
uldigen	-12620
undheit	-12621
ungslos	-12622
urasche	-12623
wandeln	-12624
wandern	-12625
ättigen	-12626
äumchen	-12627
öffnete	-12628
ückchen	-12629
▁Aufent	-12630
▁Aufsch	-12631
▁Balkon	-12632
▁Barone	-12633
▁Bettes	-12634
▁Blasen	-12635
▁Blinde	-12636
▁Breite	-12637
▁Daheim	-12638
▁Demant	-12639
▁Droben	-12640
▁Drosch	-12641
▁Ebenso	-12642
▁Einöde	-12643
▁Eselin	-12644
▁Euerem	-12645
▁Fatmes	-12646
▁Fetzen	-12647
▁Fügung	-12648
▁Gabeln	-12649
▁Gebein	-12650
▁Geduld	-12651
▁Genien	-12652
▁Getöse	-12653
▁Glatze	-12654
▁Großen	-12655
▁Gänseh	-12656
▁Göcker	-12657
▁Hacken	-12658
▁Hirsen	-12659
▁Hopfen	-12660
▁Höhlen	-12661
▁Hügels	-12662
▁Irrtum	-12663
▁Ismael	-12664
▁Jedoch	-12665
▁Klugen	-12666
▁Knirps	-12667
▁Knäuel	-12668
▁Kümmel	-12669
▁Lieber	-12670
▁Margar	-12671
▁Maurer	-12672
▁Monats	-12673
▁Montag	-12674
▁Motten	-12675
▁Nägeln	-12676
▁Perser	-12677
▁Pfauen	-12678
▁Pfoten	-12679
▁Revier	-12680
▁Riemen	-12681
▁Ringen	-12682
▁Salben	-12683
▁Samuel	-12684
▁Schals	-12685
▁Sohlen	-12686
▁Steuer	-12687
▁Tieres	-12688
▁Tänzen	-12689
▁Töpfer	-12690
▁Verrat	-12691
▁Walzer	-12692
▁Weisst	-12693
▁Westen	-12694
▁Wäsche	-12695
▁Zapfen	-12696
▁Zwerch	-12697
▁albern	-12698
▁annahm	-12699
▁aufhob	-12700
▁ausspr	-12701
▁backen	-12702
▁bedarf	-12703
▁bedien	-12704
▁beherr	-12705
▁benach	-12706
▁besorg	-12707
▁billig	-12708
▁blickt	-12709
▁brause	-12710
▁bücken	-12711
▁deucht	-12712
▁dreien	-12713
▁durchw	-12714
▁dürres	-12715
▁eignen	-12716
▁einträ	-12717
▁elende	-12718
▁endete	-12719
▁erbarm	-12720
▁erhebt	-12721
▁ertrin	-12722
▁feiern	-12723
▁flehte	-12724
▁flohen	-12725
▁fällen	-12726
▁ganzem	-12727
▁gemalt	-12728
▁gewebt	-12729
▁giewen	-12730
▁grüner	-12731
▁handel	-12732
▁harter	-12733
▁haufen	-12734
▁heilen	-12735
▁helden	-12736
▁hetzte	-12737
▁hierzu	-12738
▁hießen	-12739
▁hilflo	-12740
▁husten	-12741
▁härter	-12742
▁klarer	-12743
▁körper	-12744
▁kürzer	-12745
▁leihen	-12746
▁neunte	-12747
▁nähern	-12748
▁putzte	-12749
▁rauben	-12750
▁reiner	-12751
▁reitet	-12752
▁ruhten	-12753
▁rupfte	-12754
▁schlau	-12755
▁schleu	-12756
▁schmel	-12757
▁schwor	-12758
▁schwül	-12759
▁schänd	-12760
▁segeln	-12761
▁solang	-12762
▁späten	-12763
▁spürte	-12764
▁stören	-12765
▁tadeln	-12766
▁taugte	-12767
▁teurer	-12768
▁treuer	-12769
▁umgest	-12770
▁umschw	-12771
▁verurs	-12772
▁vorber	-12773
▁vorder	-12774
▁vorige	-12775
▁wankte	-12776
▁warmes	-12777
▁weilen	-12778
▁weites	-12779
▁weißem	-12780
▁welken	-12781
▁wetzte	-12782
▁wiegen	-12783
▁wieher	-12784
▁winzig	-12785
▁wirken	-12786
▁wollts	-12787
▁worein	-12788
▁wärmte	-12789
▁zahmen	-12790
▁zapfte	-12791
▁zermal	-12792
▁zerspl	-12793
▁ziehet	-12794
▁zugefr	-12795
▁zutrau	-12796
▁ältere	-12797
Fuhrmann	-12798
bekommen	-12799
geländer	-12800
geschenk	-12801
ischland	-12802
laublich	-12803
nügungen	-12804
schenkel	-12805
schweben	-12806
schüssel	-12807
sprangen	-12808
würdiger	-12809
äuschung	-12810
ümlichen	-12811
▁Abscheu	-12812
▁Anstren	-12813
▁Auftrag	-12814
▁Bildung	-12815
▁Bäuerin	-12816
▁Dieners	-12817
▁Diesmal	-12818
▁Drinnen	-12819
▁Einfluß	-12820
▁Einhorn	-12821
▁Feindes	-12822
▁Fuchses	-12823
▁Fürstin	-12824
▁Geschle	-12825
▁Gewande	-12826
▁Knappen	-12827
▁Kummers	-12828
▁Lakaien	-12829
▁Lichtes	-12830
▁Malerei	-12831
▁Mantels	-12832
▁Marokko	-12833
▁MÄRCHEN	-12834
▁Müllers	-12835
▁Nachher	-12836
▁Paläste	-12837
▁Pfannen	-12838
▁Pfennig	-12839
▁Plätzen	-12840
▁Reginer	-12841
▁Rehlein	-12842
▁Räubers	-12843
▁Schalen	-12844
▁Schauer	-12845
▁Scheide	-12846
▁Schilde	-12847
▁Schlamm	-12848
▁Schmutz	-12849
▁Seligen	-12850
▁Spatzen	-12851
▁Spieler	-12852
▁Spindel	-12853
▁Spitzen	-12854
▁Strumpf	-12855
▁Störung	-12856
▁Stösser	-12857
▁Szepter	-12858
▁Tausend	-12859
▁Trocken	-12860
▁Türchen	-12861
▁Umkreis	-12862
▁Vornehm	-12863
▁Vorteil	-12864
▁Waschen	-12865
▁Zeitung	-12866
▁Zimmers	-12867
▁ablegen	-12868
▁abscheu	-12869
▁aleikum	-12870
▁allzeit	-12871
▁ankamen	-12872
▁artigen	-12873
▁aufgefr	-12874
▁aufschw	-12875
▁auftrug	-12876
▁aussähe	-12877
▁bedenkt	-12878
▁belohnt	-12879
▁beteten	-12880
▁bewahrt	-12881
▁bewohnt	-12882
▁bezeich	-12883
▁bildete	-12884
▁brüllen	-12885
▁dieweil	-12886
▁doppelt	-12887
▁drücken	-12888
▁durchzu	-12889
▁dürften	-12890
▁eiferte	-12891
▁eiligst	-12892
▁elendes	-12893
▁erbeten	-12894
▁erwärmt	-12895
▁fischte	-12896
▁flinker	-12897
▁fremdem	-12898
▁gedankt	-12899
▁gefasst	-12900
▁gefehlt	-12901
▁geheuer	-12902
▁gehofft	-12903
▁gehörst	-12904
▁gehütet	-12905
▁gekonnt	-12906
▁gelogen	-12907
▁genesen	-12908
▁geredet	-12909
▁gestehe	-12910
▁gewählt	-12911
▁grösste	-12912
▁größere	-12913
▁grüßten	-12914
▁guckten	-12915
▁heirate	-12916
▁herauss	-12917
▁hinging	-12918
▁kauften	-12919
▁keuchen	-12920
▁kleiden	-12921
▁knarrte	-12922
▁knister	-12923
▁komisch	-12924
▁kümmern	-12925
▁landete	-12926
▁lautete	-12927
▁leichte	-12928
▁liebens	-12929
▁längere	-12930
▁mitnahm	-12931
▁neigten	-12932
▁neunzig	-12933
▁paarmal	-12934
▁platzte	-12935
▁preisen	-12936
▁regnete	-12937
▁reissen	-12938
▁sammeln	-12939
▁schaffe	-12940
▁schmunz	-12941
▁schmutz	-12942
▁schneid	-12943
▁schoben	-12944
▁schwand	-12945
▁schwoll	-12946
▁schwärm	-12947
▁sechzig	-12948
▁seliges	-12949
▁sitzest	-12950
▁sperren	-12951
▁spotten	-12952
▁sprachs	-12953
▁sprühte	-12954
▁stolzes	-12955
▁stunden	-12956
▁umarmen	-12957
▁umgehen	-12958
▁unnötig	-12959
▁vermein	-12960
▁vorging	-12961
▁vorlieb	-12962
▁wackere	-12963
▁wandeln	-12964
▁weiches	-12965
▁weniges	-12966
▁willens	-12967
▁wodurch	-12968
▁wolltet	-12969
▁wählten	-12970
▁zerrten	-12971
▁zersche	-12972
▁zugeben	-12973
▁zuhören	-12974
▁äIteste	-12975
▁übersch	-12976
glichkeit	-12977
hunderten	-12978
ippodeige	-12979
issenheit	-12980
klipperer	-12981
nädigster	-12982
schlüpfen	-12983
schmerzen	-12984
stehenden	-12985
stückchen	-12986
wechslung	-12987
▁Amtmanns	-12988
▁Aussicht	-12989
▁Bleibens	-12990
▁Brunnens	-12991
▁Eisdecke	-12992
▁Erfrisch	-12993
▁Freilich	-12994
▁Gebraten	-12995
▁Goldkind	-12996
▁Haushalt	-12997
▁Hauswirt	-12998
▁Hirsches	-12999
▁Hüttchen	-13000
▁Jungfern	-13001
▁Kettchen	-13002
▁Kindlein	-13003
▁Kirschen	-13004
▁Kornfeld	-13005
▁Käsebrot	-13006
▁Körnlein	-13007
▁Lebewohl	-13008
▁Lichtern	-13009
▁Lohhucke	-13010
▁Lämmlein	-13011
▁Mittwoch	-13012
▁Nationen	-13013
▁Nähnadel	-13014
▁Orbasans	-13015
▁Palästen	-13016
▁Pfennige	-13017
▁Pistolen	-13018
▁Reisende	-13019
▁Schlosst	-13020
▁Schlägen	-13021
▁Schnäbel	-13022
▁Schreien	-13023
▁Schwerte	-13024
▁Springer	-13025
▁Strahlen	-13026
▁Stübchen	-13027
▁Trachten	-13028
▁Trümmern	-13029
▁Verdacht	-13030
▁Verslein	-13031
▁Vorgeben	-13032
▁Wachsker	-13033
▁Wahnsinn	-13034
▁Wildbret	-13035
▁alleweil	-13036
▁andermal	-13037
▁anlangen	-13038
▁anrühren	-13039
▁anwenden	-13040
▁anzünden	-13041
▁armselig	-13042
▁aufhielt	-13043
▁aufwärts	-13044
▁bedenken	-13045
▁bedeutet	-13046
▁beendigt	-13047
▁befolgte	-13048
▁begrüßen	-13049
▁berauben	-13050
▁berühmte	-13051
▁bewiesen	-13052
▁bewirten	-13053
▁bändigen	-13054
▁daherkam	-13055
▁dereinst	-13056
▁dicksten	-13057
▁drittens	-13058
▁drängten	-13059
▁einsames	-13060
▁eisernes	-13061
▁erbitten	-13062
▁erfunden	-13063
▁erlangen	-13064
▁erstarrt	-13065
▁erteilen	-13066
▁erzählet	-13067
▁feinsten	-13068
▁feuriger	-13069
▁fiedelte	-13070
▁finstern	-13071
▁flüchtig	-13072
▁geendigt	-13073
▁gefroren	-13074
▁gemachte	-13075
▁gemeiner	-13076
▁gemeines	-13077
▁gepflegt	-13078
▁gerissen	-13079
▁gesittet	-13080
▁gestreut	-13081
▁gewannen	-13082
▁geändert	-13083
▁glücksel	-13084
▁glühende	-13085
▁grösster	-13086
▁größerer	-13087
▁handelte	-13088
▁hartherz	-13089
▁herabkam	-13090
▁jemandem	-13091
▁landeten	-13092
▁losgehen	-13093
▁lustigen	-13094
▁mehrmals	-13095
▁nachsann	-13096
▁reichste	-13097
▁ruderten	-13098
▁schaffte	-13099
▁schliess	-13100
▁schweben	-13101
▁schöpfen	-13102
▁seinigen	-13103
▁spottete	-13104
▁sterbens	-13105
▁streiten	-13106
▁strenger	-13107
▁tapferen	-13108
▁umkommen	-13109
▁umwandte	-13110
▁unabweis	-13111
▁unterste	-13112
▁urteilen	-13113
▁verdächt	-13114
▁verehrte	-13115
▁versorgt	-13116
▁versuche	-13117
▁wahnsinn	-13118
▁wandelte	-13119
▁wehmütig	-13120
▁zauderte	-13121
▁zerfetzt	-13122
▁zugehört	-13123
▁zunächst	-13124
▁zärtlich	-13125
▁äußerste	-13126
▁————————	-13127
Mitnichten	-13128
Willkommen	-13129
geschluckt	-13130
otztausend	-13131
▁Abteilung	-13132
▁Anstalten	-13133
▁Antworten	-13134
▁Baumstamm	-13135
▁Bekannten	-13136
▁Bräunchen	-13137
▁Christian	-13138
▁Edelmanns	-13139
▁Entzücken	-13140
▁Erziehung	-13141
▁Fingerhut	-13142
▁Franzosen	-13143
▁Fußsohlen	-13144
▁Füchslein	-13145
▁Gaudieben	-13146
▁Gelehrten	-13147
▁Gemächern	-13148
▁Geschenke	-13149
▁Geschöpfe	-13150
▁Gläubigen	-13151
▁Goldvogel	-13152
▁Großherrn	-13153
▁Gänsemagd	-13154
▁Hauswesen	-13155
▁Hollenthe	-13156
▁Jagdhunde	-13157
▁Kartoffel	-13158
▁Kastanien	-13159
▁Kellnerin	-13160
▁Kleidchen	-13161
▁Knopfloch	-13162
▁Nachteule	-13163
▁Nordlicht	-13164
▁Ohrfeigen	-13165
▁Oststraße	-13166
▁Peitschen	-13167
▁Phantasie	-13168
▁Rebhühner	-13169
▁Schlingel	-13170
▁Schlummer	-13171
▁Schwarzen	-13172
▁Schweinen	-13173
▁Sonnabend	-13174
▁Spielwerk	-13175
▁Teetassen	-13176
▁Uhrmacher	-13177
▁Undankbar	-13178
▁Widerrede	-13179
▁Wohlleben	-13180
▁Zufrieden	-13181
▁Zuschauer	-13182
▁abgekauft	-13183
▁abgezogen	-13184
▁angelehnt	-13185
▁angenehme	-13186
▁ansichtig	-13187
▁auffinden	-13188
▁aufräumte	-13189
▁aufwarten	-13190
▁auserwähl	-13191
▁ausfindig	-13192
▁auszahlen	-13193
▁außerhalb	-13194
▁bedeckten	-13195
▁behaupten	-13196
▁beklagten	-13197
▁bekleidet	-13198
▁bekümmert	-13199
▁beneidete	-13200
▁beruhigen	-13201
▁berühmter	-13202
▁beschenkt	-13203
▁bewaffnet	-13204
▁bezwingen	-13205
▁daraufhin	-13206
▁dreierlei	-13207
▁ehemalige	-13208
▁einfältig	-13209
▁eingeholt	-13210
▁einkehrte	-13211
▁einsetzen	-13212
▁entfernen	-13213
▁entronnen	-13214
▁ergreifen	-13215
▁erklärten	-13216
▁ertrunken	-13217
▁erzähltet	-13218
▁feindlich	-13219
▁folgender	-13220
▁fürchtest	-13221
▁gefordert	-13222
▁gefüttert	-13223
▁gehandelt	-13224
▁geniessen	-13225
▁gepflanzt	-13226
▁gestochen	-13227
▁gezwungen	-13228
▁glühenden	-13229
▁gottlosen	-13230
▁grausamen	-13231
▁grösserer	-13232
▁gutmachen	-13233
▁hereinkam	-13234
▁herlaufen	-13235
▁hinführen	-13236
▁hungrigen	-13237
▁häßliches	-13238
▁innersten	-13239
▁inständig	-13240
▁irgendein	-13241
▁klapperte	-13242
▁kostbaren	-13243
▁kräftigen	-13244
▁leuchtend	-13245
▁niemanden	-13246
▁rauschten	-13247
▁richtiger	-13248
▁sammelten	-13249
▁schimpfen	-13250
▁schimpfte	-13251
▁schlanker	-13252
▁schluckte	-13253
▁schmiegte	-13254
▁schmutzig	-13255
▁schritten	-13256
▁schwenkte	-13257
▁stolperte	-13258
▁stärksten	-13259
▁verachtet	-13260
▁verbinden	-13261
▁verbotene	-13262
▁vergoldet	-13263
▁verkünden	-13264
▁verlaufen	-13265
▁verleihen	-13266
▁verlorene	-13267
▁verspielt	-13268
▁verwundet	-13269
▁vorsingen	-13270
▁vortragen	-13271
▁wechselte	-13272
▁willigten	-13273
▁zugesehen	-13274
▁zurichten	-13275
▁zusammenn	-13276
▁überlegen	-13277
Meinetwegen	-13278
——————————–	-13279
▁Anstellung	-13280
▁Aufenthalt	-13281
▁Bauernhaus	-13282
▁Bauersfrau	-13283
▁Becherchen	-13284
▁Behandlung	-13285
▁Bettelstab	-13286
▁Christkind	-13287
▁Eingeweide	-13288
▁Einsamkeit	-13289
▁Felsenwand	-13290
▁Gesundheit	-13291
▁Goldgulden	-13292
▁Haspelholz	-13293
▁Irrlichter	-13294
▁Kammertüre	-13295
▁Lorbersack	-13296
▁Morgenland	-13297
▁Nachmittag	-13298
▁Nimmersatt	-13299
▁Pferdefuss	-13300
▁Räuberhaus	-13301
▁Schauspiel	-13302
▁Schifflein	-13303
▁Schlössern	-13304
▁Sicherheit	-13305
▁Sippschaft	-13306
▁Sommerzeit	-13307
▁Stecknadel	-13308
▁Vaterlande	-13309
▁Vaterunser	-13310
▁Verwundert	-13311
▁Vielleicht	-13312
▁Zauberwort	-13313
▁abgewiesen	-13314
▁angebunden	-13315
▁angemessen	-13316
▁angenehmer	-13317
▁angestellt	-13318
▁anstrengen	-13319
▁anzuzünden	-13320
▁aufgemacht	-13321
▁aufspielen	-13322
▁ausgegeben	-13323
▁ausgemacht	-13324
▁ausgesehen	-13325
▁bedenklich	-13326
▁bekümmerte	-13327
▁beschaffen	-13328
▁beschenkte	-13329
▁besprechen	-13330
▁bläulichen	-13331
▁brennenden	-13332
▁einherging	-13333
▁entbrannte	-13334
▁erkundigte	-13335
▁erleuchtet	-13336
▁flüsterten	-13337
▁fortfahren	-13338
▁fortkommen	-13339
▁fortkommst	-13340
▁forttragen	-13341
▁freiwillig	-13342
▁fränkische	-13343
▁fröhlicher	-13344
▁furchtbare	-13345
▁gebildeten	-13346
▁geflochten	-13347
▁geringsten	-13348
▁gestritten	-13349
▁gewaltigen	-13350
▁gleichwohl	-13351
▁heutzutage	-13352
▁hinterließ	-13353
▁irremachen	-13354
▁klingelten	-13355
▁künstliche	-13356
▁letztenmal	-13357
▁mitgegeben	-13358
▁mitleidige	-13359
▁nachdenken	-13360
▁nachlaufen	-13361
▁offenbaren	-13362
▁offenbarte	-13363
▁steinreich	-13364
▁stillstand	-13365
▁treffliche	-13366
▁verabschie	-13367
▁verblendet	-13368
▁verfluchte	-13369
▁verfolgten	-13370
▁verkündete	-13371
▁verschafft	-13372
▁versichern	-13373
▁verspottet	-13374
▁vornehmste	-13375
▁zerbrachen	-13376
▁zerlumpten	-13377
▁zerstreuen	-13378
▁zugefroren	-13379
▁zwanzigmal	-13380
▁überfahren	-13381
▁übernehmen	-13382
ankabudibaba	-13383
▁Begebenheit	-13384
▁Deutschland	-13385
▁Ehrlichkeit	-13386
▁Frankenland	-13387
▁Geschwister	-13388
▁Gesichtchen	-13389
▁Grossmutter	-13390
▁Handschrift	-13391
▁Hausmärchen	-13392
▁Krähenpelze	-13393
▁Kürbiskerne	-13394
▁Mittagszeit	-13395
▁Morgenlande	-13396
▁Nordlichter	-13397
▁Richtigkeit	-13398
▁Schweineher	-13399
▁Sterngucker	-13400
▁Unternehmen	-13401
▁Viehtreiber	-13402
▁Wechselbalg	-13403
▁Wunderdinge	-13404
▁Wälischland	-13405
▁abgedankter	-13406
▁angerichtet	-13407
▁angeschafft	-13408
▁anzuschauen	-13409
▁aufbewahren	-13410
▁aufzunehmen	-13411
▁ausschlagen	-13412
▁auszuziehen	-13413
▁beherbergen	-13414
▁breitschult	-13415
▁eingesperrt	-13416
▁elendiglich	-13417
▁entgegenges	-13418
▁feierlicher	-13419
▁fränkischer	-13420
▁furchtbarer	-13421
▁fünfhundert	-13422
▁geschickten	-13423
▁gesundessen	-13424
▁getreuester	-13425
▁hingekommen	-13426
▁hintendrein	-13427
▁irgendeinem	-13428
▁kohlschwarz	-13429
▁nachmittags	-13430
▁prächtigste	-13431
▁schlachtete	-13432
▁schließlich	-13433
▁schmerzlich	-13434
▁schneeweiss	-13435
▁schneidende	-13436
▁stattlicher	-13437
▁stockdunkel	-13438
▁unbekannten	-13439
▁unbeweglich	-13440
▁unscheinbar	-13441
▁unternommen	-13442
▁unterstützt	-13443
▁verkündigen	-13444
▁versprachen	-13445
▁verteidigen	-13446
▁vollständig	-13447
▁vorgegangen	-13448
▁wiederkommt	-13449
▁wohlbekannt	-13450
▁Ähnlichkeit	-13451
▁überbringen	-13452
meilenstiefel	-13453
▁Augenblicken	-13454
▁Donnerschlag	-13455
▁Dreschflegel	-13456
▁Fischerhütte	-13457
▁Goldschmieds	-13458
▁Göckerliberg	-13459
▁Meisterstück	-13460
▁Schloßkaplan	-13461
▁Schnupftabak	-13462
▁Spielmeister	-13463
▁Tagesanbruch	-13464
▁Unwissenheit	-13465
▁Verwünschung	-13466
▁Verzauberung	-13467
▁Ziegelsteine	-13468
▁Zwerchpfeife	-13469
▁ausgestreckt	-13470
▁erbärmlicher	-13471
▁fortgelaufen	-13472
▁fortschaffen	-13473
▁handelseinig	-13474
▁herbeigeholt	-13475
▁hereinkommen	-13476
▁hinterlassen	-13477
▁kaiserlicher	-13478
▁schneeweisse	-13479
▁streichelten	-13480
▁unschuldigen	-13481
▁unschuldiges	-13482
▁verheissenen	-13483
▁verschlucken	-13484
▁verschlungen	-13485
▁verschwinden	-13486
▁versicherten	-13487
▁zerschneiden	-13488
▁zurückhalten	-13489
▁überwältigen	-13490
▁Begebenheiten	-13491
▁Haselbäumchen	-13492
▁Jahrhunderten	-13493
▁Kostbarkeiten	-13494
▁Meilenstiefel	-13495
▁Menschenseele	-13496
▁Metzgerbursch	-13497
▁Stadtmusikant	-13498
▁Zufriedenheit	-13499
▁ausgeschmückt	-13500
▁eingeschlagen	-13501
▁einzuschiffen	-13502
▁hinuntergehen	-13503
▁unterrichtete	-13504
▁zugeschlossen	-13505
▁zugeschnitten	-13506
▁Entschuldigung	-13507
▁Freundlichkeit	-13508
▁Müllerstochter	-13509
▁Schweinehirten	-13510
▁Stillschweigen	-13511
▁eigentümlichen	-13512
▁eingeschlossen	-13513
▁herausgefallen	-13514
▁hinabzusteigen	-13515
▁unterirdischen	-13516
▁wiedergekommen	-13517
▁wiederzukommen	-13518
▁zusammenkommen	-13519
▁zweiundzwanzig	-13520
▁Kleidungsstücke	-13521
▁Schneeglöckchen	-13522
▁bescheidentlich	-13523
▁reichgekleidete	-13524
.-	-13525
.	-13526
.	-13527
?»	-13528
Ah	-13529
FE	-13530
Zw	-13531
aj	-13532
ax	-13533
ce	-13534
cr	-13535
hä	-13536
ks	-13537
mi	-13538
no	-13539
rw	-13540
wi	-13541
zä	-13542
üb	-13543
▁;	-13544
▁?	-13545
???	-13546
Arm	-13547
Bin	-13548
Daß	-13549
Ger	-13550
Gre	-13551
Kat	-13552
Sol	-13553
Trö	-13554
Zum	-13555
ale	-13556
bru	-13557
enz	-13558
erf	-13559
feg	-13560
flö	-13561
fün	-13562
gez	-13563
gie	-13564
has	-13565
hex	-13566
hni	-13567
iki	-13568
ilv	-13569
ins	-13570
int	-13571
iol	-13572
käl	-13573
käu	-13574
lam	-13575
lap	-13576
lin	-13577
lud	-13578
mel	-13579
meß	-13580
mmt	-13581
nor	-13582
obe	-13583
olf	-13584
onc	-13585
pol	-13586
ppr	-13587
reg	-13588
rek	-13589
riz	-13590
rob	-13591
rog	-13592
sog	-13593
twa	-13594
vel	-13595
xte	-13596
ßes	-13597
öße	-13598
ügt	-13599
ürn	-13600
▁At	-13601
▁Ex	-13602
▁Sk	-13603
▁ah	-13604
▁aw	-13605
▁pu	-13606
▁»’	-13607
▁är	-13608
▁üb	-13609
Beim	-13610
Blau	-13611
Dich	-13612
Duks	-13613
Euch	-13614
Euer	-13615
Ganz	-13616
Groß	-13617
Heda	-13618
Heil	-13619
Jung	-13620
Krie	-13621
Nehm	-13622
Piff	-13623
Schn	-13624
Wozu	-13625
Zinn	-13626
abra	-13627
adem	-13628
ahmt	-13629
ahne	-13630
aine	-13631
aise	-13632
aner	-13633
apee	-13634
apft	-13635
arie	-13636
aser	-13637
atik	-13638
auff	-13639
auso	-13640
bahn	-13641
bene	-13642
bist	-13643
brei	-13644
druß	-13645
eisa	-13646
elch	-13647
erad	-13648
erka	-13649
erze	-13650
ethe	-13651
eugt	-13652
fach	-13653
fahr	-13654
fart	-13655
fert	-13656
firm	-13657
folg	-13658
frie	-13659
fung	-13660
garn	-13661
gsam	-13662
haar	-13663
habe	-13664
hemd	-13665
hört	-13666
iein	-13667
iels	-13668
iese	-13669
iess	-13670
iest	-13671
ieze	-13672
ilfe	-13673
illt	-13674
imme	-13675
itum	-13676
izra	-13677
köpf	-13678
leib	-13679
leut	-13680
llan	-13681
läch	-13682
müde	-13683
nade	-13684
olut	-13685
orze	-13686
plan	-13687
preß	-13688
pser	-13689
rabe	-13690
rand	-13691
rian	-13692
riet	-13693
ross	-13694
rote	-13695
rute	-13696
rübe	-13697
sehr	-13698
sent	-13699
sind	-13700
spaz	-13701
steh	-13702
tanz	-13703
trab	-13704
ttem	-13705
uben	-13706
ufer	-13707
uzer	-13708
wahr	-13709
ynhe	-13710
äume	-13711
öhet	-13712
önne	-13713
ühls	-13714
ünkt	-13715
▁(18	-13716
▁Bor	-13717
▁Dur	-13718
▁End	-13719
▁Fur	-13720
▁Gib	-13721
▁Höf	-13722
▁Höh	-13723
▁Höl	-13724
▁Jer	-13725
▁Jud	-13726
▁Klü	-13727
▁Knü	-13728
▁Krö	-13729
▁Käf	-13730
▁Lab	-13731
▁Mas	-13732
▁Obr	-13733
▁Sag	-13734
▁Sah	-13735
▁The	-13736
▁Tun	-13737
▁Völ	-13738
▁Wur	-13739
▁Zun	-13740
▁abk	-13741
▁ahn	-13742
▁bal	-13743
▁bum	-13744
▁bür	-13745
▁dam	-13746
▁heb	-13747
▁jeg	-13748
▁kor	-13749
▁log	-13750
▁maß	-13751
▁naß	-13752
▁obs	-13753
▁opf	-13754
▁rum	-13755
▁tag	-13756
▁umz	-13757
▁unf	-13758
▁wal	-13759
▁wes	-13760
▁wog	-13761
?????	-13762
Alter	-13763
Davon	-13764
Denke	-13765
Einem	-13766
Folge	-13767
Gerne	-13768
Gewiß	-13769
Jeder	-13770
Knack	-13771
Welch	-13772
Wisst	-13773
Woher	-13774
agelt	-13775
akter	-13776
andel	-13777
antel	-13778
astor	-13779
aucht	-13780
aupts	-13781
begrä	-13782
behör	-13783
berüh	-13784
beste	-13785
bleib	-13786
brüch	-13787
ckern	-13788
dafür	-13789
darum	-13790
dinen	-13791
ecken	-13792
eiben	-13793
eimen	-13794
eites	-13795
elbst	-13796
elmaß	-13797
endem	-13798
ertag	-13799
euert	-13800
eufzt	-13801
feger	-13802
felle	-13803
feuer	-13804
frage	-13805
frist	-13806
ftern	-13807
führe	-13808
führt	-13809
gewiß	-13810
gfalt	-13811
glanz	-13812
glist	-13813
glitt	-13814
greif	-13815
griff	-13816
heira	-13817
herde	-13818
htier	-13819
häupt	-13820
idenz	-13821
ietzt	-13822
ikult	-13823
inkst	-13824
ional	-13825
ippte	-13826
kämen	-13827
lopft	-13828
lücke	-13829
merkt	-13830
mmten	-13831
nbaum	-13832
ohnte	-13833
opfte	-13834
orner	-13835
othen	-13836
rafen	-13837
ratul	-13838
reist	-13839
reude	-13840
rieen	-13841
rotem	-13842
schee	-13843
sehrt	-13844
shaut	-13845
steig	-13846
sterb	-13847
strer	-13848
tanen	-13849
teile	-13850
teils	-13851
trage	-13852
trakt	-13853
uldet	-13854
undso	-13855
ußter	-13856
wenig	-13857
wohnt	-13858
wolke	-13859
zange	-13860
zburg	-13861
ziehe	-13862
ziemt	-13863
zwerg	-13864
ßling	-13865
ädigt	-13866
ählen	-13867
ängel	-13868
änzen	-13869
ätzle	-13870
önend	-13871
önten	-13872
örkel	-13873
örten	-13874
öscht	-13875
ührst	-13876
ünder	-13877
üssig	-13878
ütter	-13879
▁Adam	-13880
▁Alis	-13881
▁Arab	-13882
▁Auff	-13883
▁Bere	-13884
▁Bete	-13885
▁Bind	-13886
▁Biss	-13887
▁Deck	-13888
▁Ehni	-13889
▁Eind	-13890
▁Fitt	-13891
▁Flur	-13892
▁Gatt	-13893
▁Geht	-13894
▁Grim	-13895
▁Halb	-13896
▁Haup	-13897
▁Hetz	-13898
▁Hirn	-13899
▁Hohl	-13900
▁Hyaz	-13901
▁Jene	-13902
▁Kahl	-13903
▁Katz	-13904
▁Kies	-13905
▁Kitt	-13906
▁Koff	-13907
▁Kron	-13908
▁Krön	-13909
▁Laib	-13910
▁Latz	-13911
▁Lenz	-13912
▁Lief	-13913
▁Läßt	-13914
▁Malz	-13915
▁Midi	-13916
▁Mill	-13917
▁Mont	-13918
▁Muff	-13919
▁Mäul	-13920
▁Nürn	-13921
▁Paff	-13922
▁Perr	-13923
▁Pfad	-13924
▁Phil	-13925
▁Rate	-13926
▁Ritt	-13927
▁Rost	-13928
▁Russ	-13929
▁Sach	-13930
▁Schä	-13931
▁Seel	-13932
▁Silv	-13933
▁Span	-13934
▁Tale	-13935
▁Thür	-13936
▁Unre	-13937
▁Verl	-13938
▁Viol	-13939
▁Weit	-13940
▁Weiß	-13941
▁Wäre	-13942
▁Zier	-13943
▁ausw	-13944
▁barf	-13945
▁bauf	-13946
▁beur	-13947
▁chin	-13948
▁edle	-13949
▁eisk	-13950
▁erkr	-13951
▁erle	-13952
▁farb	-13953
▁fehl	-13954
▁gack	-13955
▁gemä	-13956
▁gepl	-13957
▁gese	-13958
▁gien	-13959
▁glas	-13960
▁glei	-13961
▁grab	-13962
▁gram	-13963
▁hats	-13964
▁höll	-13965
▁jage	-13966
▁jetz	-13967
▁jähr	-13968
▁knor	-13969
▁lieh	-13970
▁lies	-13971
▁lobt	-13972
▁maus	-13973
▁mite	-13974
▁nass	-13975
▁natt	-13976
▁nich	-13977
▁pack	-13978
▁pfui	-13979
▁plöt	-13980
▁puck	-13981
▁rang	-13982
▁rohe	-13983
▁sall	-13984
▁span	-13985
▁stob	-13986
▁unge	-13987
▁wage	-13988
▁wirf	-13989
▁wärs	-13990
▁zerh	-13991
▁zufl	-13992
▁zuge	-13993
▁zugr	-13994
▁zöge	-13995
▁Ähre	-13996
▁älle	-13997
▁üben	-13998
Bleibt	-13999
Bringt	-14000
Darauf	-14001
Einmal	-14002
Gerade	-14003
Herein	-14004
Kennst	-14005
Lasset	-14006
Solche	-14007
Soviel	-14008
Stellt	-14009
ackend	-14010
affung	-14011
alienk	-14012
angest	-14013
attete	-14014
becken	-14015
behalt	-14016
belten	-14017
bieten	-14018
bilden	-14019
binden	-14020
bladen	-14021
bläser	-14022
brahim	-14023
brüder	-14024
bstock	-14025
burger	-14026
bäcker	-14027
ckerte	-14028
ckiger	-14029
derlei	-14030
ehrung	-14031
eidung	-14032
erzial	-14033
gangen	-14034
geahmt	-14035
gebung	-14036
gelenk	-14037
gerade	-14038
gewöhn	-14039
gleise	-14040
haftes	-14041
hallte	-14042
hauses	-14043
hingen	-14044
hirten	-14045
höhlen	-14046
hübsch	-14047
hüpfen	-14048
iebter	-14049
indeln	-14050
kehrst	-14051
kessel	-14052
klagte	-14053
kräfte	-14054
lagene	-14055
lauben	-14056
laucht	-14057
lebens	-14058
legten	-14059
lehrer	-14060
lobung	-14061
machte	-14062
meinst	-14063
mmatik	-14064
nallen	-14065
nester	-14066
ollern	-14067
oncell	-14068
orbene	-14069
orgens	-14070
ortrag	-14071
pfhaft	-14072
pulver	-14073
raucht	-14074
rechet	-14075
reißen	-14076
riemen	-14077
ränken	-14078
rückte	-14079
schien	-14080
schlaf	-14081
schule	-14082
seiden	-14083
senden	-14084
sohren	-14085
sprung	-14086
sterte	-14087
strahl	-14088
stücke	-14089
tauben	-14090
terich	-14091
trabaß	-14092
uchter	-14093
ummelt	-14094
umpelt	-14095
undete	-14096
urrten	-14097
utzeln	-14098
wandel	-14099
weiber	-14100
würmer	-14101
zeigen	-14102
ängten	-14103
äuscht	-14104
örnern	-14105
örtner	-14106
öteten	-14107
üllten	-14108
ünftig	-14109
üttelt	-14110
▁Außer	-14111
▁Bache	-14112
▁Baums	-14113
▁Betel	-14114
▁Bilde	-14115
▁Bügel	-14116
▁Bürde	-14117
▁China	-14118
▁Daran	-14119
▁Dauer	-14120
▁Demut	-14121
▁Dürrw	-14122
▁Eilig	-14123
▁Ernte	-14124
▁Feier	-14125
▁Flach	-14126
▁Frack	-14127
▁Freie	-14128
▁Frühm	-14129
▁Gehen	-14130
▁Gemäl	-14131
▁Gemüs	-14132
▁Genie	-14133
▁Genuß	-14134
▁Geret	-14135
▁Gläub	-14136
▁Gosse	-14137
▁Grase	-14138
▁Grete	-14139
▁Gruft	-14140
▁Hader	-14141
▁Hafen	-14142
▁Hagel	-14143
▁Haine	-14144
▁Hanne	-14145
▁Herum	-14146
▁Hobel	-14147
▁Hülfe	-14148
▁Ihrem	-14149
▁Kanal	-14150
▁Keile	-14151
▁Kelch	-14152
▁Krück	-14153
▁Lebet	-14154
▁Letzt	-14155
▁Loche	-14156
▁Midas	-14157
▁Mieze	-14158
▁Mizra	-14159
▁Monde	-14160
▁Muhme	-14161
▁Mynhe	-14162
▁Münze	-14163
▁Näpfe	-14164
▁Papag	-14165
▁Papst	-14166
▁Perle	-14167
▁Pfaff	-14168
▁Porze	-14169
▁Prahl	-14170
▁Puder	-14171
▁Rates	-14172
▁Ratte	-14173
▁Rinde	-14174
▁Rinne	-14175
▁Rippe	-14176
▁Rudel	-14177
▁Runde	-14178
▁Ränke	-14179
▁Schel	-14180
▁Sowie	-14181
▁Stünd	-14182
▁Täler	-14183
▁Volks	-14184
▁Weben	-14185
▁Weiss	-14186
▁Wolfs	-14187
▁Wollt	-14188
▁Wonne	-14189
▁Wärme	-14190
▁Zeche	-14191
▁Zuges	-14192
▁Zuver	-14193
▁ahnen	-14194
▁amahl	-14195
▁anges	-14196
▁anget	-14197
▁anhub	-14198
▁ansch	-14199
▁anzur	-14200
▁aufsp	-14201
▁bläst	-14202
▁demüt	-14203
▁dient	-14204
▁dulde	-14205
▁dünne	-14206
▁feuer	-14207
▁fiele	-14208
▁ganga	-14209
▁gebür	-14210
▁gelei	-14211
▁gemüt	-14212
▁geput	-14213
▁glitt	-14214
▁gönnt	-14215
▁harre	-14216
▁helfe	-14217
▁hänge	-14218
▁hätts	-14219
▁hütet	-14220
▁irrte	-14221
▁knöch	-14222
▁kunst	-14223
▁küsse	-14224
▁lebst	-14225
▁leset	-14226
▁lugte	-14227
▁missg	-14228
▁mitzu	-14229
▁nasse	-14230
▁neigt	-14231
▁nenne	-14232
▁nette	-14233
▁obere	-14234
▁reime	-14235
▁reite	-14236
▁reiße	-14237
▁reute	-14238
▁rosen	-14239
▁rufst	-14240
▁schnu	-14241
▁schnü	-14242
▁schät	-14243
▁segne	-14244
▁seins	-14245
▁sende	-14246
▁solls	-14247
▁sprud	-14248
▁starr	-14249
▁stern	-14250
▁stoch	-14251
▁tadle	-14252
▁teure	-14253
▁totzu	-14254
▁trost	-14255
▁tröst	-14256
▁täten	-14257
▁unbar	-14258
▁undeu	-14259
▁unerk	-14260
▁untrö	-14261
▁verdr	-14262
▁wache	-14263
▁wecke	-14264
▁werfe	-14265
▁wette	-14266
▁wisst	-14267
▁zahle	-14268
▁zahme	-14269
▁zehnt	-14270
▁ziemt	-14271
▁zuges	-14272
▁zähle	-14273
▁zählt	-14274
▁ängst	-14275
Dawärts	-14276
Draußen	-14277
Glaubst	-14278
Jungfer	-14279
Richtig	-14280
abracke	-14281
anderte	-14282
auchzen	-14283
aufgang	-14284
bezahlt	-14285
brennen	-14286
brocken	-14287
deckten	-14288
diglich	-14289
eidigen	-14290
eilchen	-14291
erfreut	-14292
estellt	-14293
ffelkuh	-14294
flammen	-14295
flicker	-14296
fressen	-14297
gehüpft	-14298
gelegen	-14299
gelernt	-14300
gerannt	-14301
gericht	-14302
hierend	-14303
häupter	-14304
itscher	-14305
klumpen	-14306
kreisch	-14307
kämpfen	-14308
melonen	-14309
mitteln	-14310
morgens	-14311
mächtig	-14312
mütigen	-14313
mütiger	-14314
olution	-14315
ordnete	-14316
ordnung	-14317
prügelt	-14318
rigiert	-14319
schenkt	-14320
schheit	-14321
schicke	-14322
schlich	-14323
schmeiß	-14324
schuhen	-14325
seliges	-14326
seriche	-14327
setzten	-14328
stangen	-14329
stiegen	-14330
stossen	-14331
streich	-14332
stunden	-14333
unschen	-14334
wandten	-14335
weichen	-14336
wendete	-14337
wissend	-14338
ßliches	-14339
▁(1851)	-14340
▁Abende	-14341
▁Altare	-14342
▁Antrag	-14343
▁Aufzug	-14344
▁Batzen	-14345
▁Beherr	-14346
▁Beschä	-14347
▁Binsen	-14348
▁Blitze	-14349
▁Bällen	-14350
▁Bürste	-14351
▁Damals	-14352
▁Denken	-14353
▁Dicken	-14354
▁Diebes	-14355
▁Dielen	-14356
▁Dritte	-14357
▁Einkäu	-14358
▁Erfolg	-14359
▁Ersten	-14360
▁Feigen	-14361
▁Fersen	-14362
▁Fiedel	-14363
▁Flehen	-14364
▁Frevel	-14365
▁Gastes	-14366
▁Gegner	-14367
▁Genick	-14368
▁Gerdas	-14369
▁Gerede	-14370
▁Geräte	-14371
▁Glanze	-14372
▁Gossen	-14373
▁Grabes	-14374
▁Haulem	-14375
▁Heeres	-14376
▁Hoheit	-14377
▁Holzfä	-14378
▁Hopser	-14379
▁Innere	-14380
▁Innern	-14381
▁Kamelt	-14382
▁Kanzel	-14383
▁Kirmes	-14384
▁Kirsch	-14385
▁Klappr	-14386
▁Klemme	-14387
▁Kochen	-14388
▁Kränze	-14389
▁Krücke	-14390
▁Köchen	-14391
▁Könnet	-14392
▁Ladung	-14393
▁Leides	-14394
▁Leinen	-14395
▁Locken	-14396
▁Lämmer	-14397
▁Machte	-14398
▁Magent	-14399
▁Matten	-14400
▁Meinet	-14401
▁Metzen	-14402
▁Mondes	-14403
▁Morast	-14404
▁Murren	-14405
▁Mähnen	-14406
▁Nackte	-14407
▁Namens	-14408
▁Neapel	-14409
▁Norden	-14410
▁Nüssen	-14411
▁Pastor	-14412
▁Pluder	-14413
▁Punkte	-14414
▁Rechts	-14415
▁Redens	-14416
▁Rehkäl	-14417
▁Reiser	-14418
▁Rippen	-14419
▁Rossen	-14420
▁Räumen	-14421
▁Sahnet	-14422
▁Schach	-14423
▁Schaff	-14424
▁Scherg	-14425
▁Schrau	-14426
▁Seiner	-14427
▁Siegel	-14428
▁Sieges	-14429
▁Sinnen	-14430
▁Sodann	-14431
▁Souzer	-14432
▁Soviel	-14433
▁Spiele	-14434
▁Später	-14435
▁Steckt	-14436
▁Sternd	-14437
▁Stiere	-14438
▁Strauß	-14439
▁Ströme	-14440
▁Stumpf	-14441
▁Sumpfe	-14442
▁Suppen	-14443
▁Talern	-14444
▁Tonnen	-14445
▁Touren	-14446
▁Truppe	-14447
▁Träger	-14448
▁Töpfen	-14449
▁Umfang	-14450
▁Undank	-14451
▁Unheil	-14452
▁Unlust	-14453
▁Verhör	-14454
▁Vieren	-14455
▁Webern	-14456
▁Wehmut	-14457
▁Wesirs	-14458
▁Windel	-14459
▁Wipfel	-14460
▁Wisset	-14461
▁Wämser	-14462
▁Wölfin	-14463
▁Zedern	-14464
▁Zierde	-14465
▁Zipfel	-14466
▁Zweite	-14467
▁Zwerge	-14468
▁Zögern	-14469
▁abgebr	-14470
▁allerg	-14471
▁ansehn	-14472
▁artige	-14473
▁aufzut	-14474
▁awerst	-14475
▁begabt	-14476
▁begrub	-14477
▁beides	-14478
▁beiein	-14479
▁beinah	-14480
▁berech	-14481
▁bester	-14482
▁bestes	-14483
▁betrat	-14484
▁bieder	-14485
▁bischt	-14486
▁bittet	-14487
▁blasen	-14488
▁blasse	-14489
▁blauem	-14490
▁blauer	-14491
▁bloßem	-14492
▁borgen	-14493
▁braune	-14494
▁breche	-14495
▁buntes	-14496
▁chines	-14497
▁dehnte	-14498
▁dringt	-14499
▁drücke	-14500
▁echten	-14501
▁eingek	-14502
▁eingew	-14503
▁elften	-14504
▁empört	-14505
▁ertrug	-14506
▁expreß	-14507
▁feinem	-14508
▁fetter	-14509
▁flocht	-14510
▁fluche	-14511
▁fortan	-14512
▁fraget	-14513
▁freite	-14514
▁freizu	-14515
▁funkel	-14516
▁fällte	-14517
▁geruht	-14518
▁gespen	-14519
▁glühte	-14520
▁gratul	-14521
▁grünes	-14522
▁haupts	-14523
▁hauste	-14524
▁heimzu	-14525
▁helles	-14526
▁hurtig	-14527
▁jemals	-14528
▁kehren	-14529
▁kennet	-14530
▁kennst	-14531
▁klebte	-14532
▁krähte	-14533
▁kümmer	-14534
▁küßten	-14535
▁lament	-14536
▁lautet	-14537
▁liebet	-14538
▁liebst	-14539
▁listig	-14540
▁lohnen	-14541
▁lärmte	-14542
▁läuten	-14543
▁magere	-14544
▁matten	-14545
▁mutter	-14546
▁müsset	-14547
▁nageln	-14548
▁nassen	-14549
▁nehmet	-14550
▁nützen	-14551
▁nützte	-14552
[...]
