<unk>	0
<endofline>	0
<endoftext>	0
er	-0
en	-1
ch	-2
▁d	-3
in	-4
▁s	-5
ie	-6
nd	-7
te	-8
▁w	-9
▁a	-10
ein	-11
▁u	-12
ich	-13
▁und	-14
es	-15
▁g	-16
▁h	-17
ei	-18
▁da	-19
▁n	-20
▁m	-21
▁i	-22
▁er	-23
▁S	-24
▁die	-25
▁ein	-26
▁der	-27
st	-28
an	-29
ll	-30
▁z	-31
ar	-32
au	-33
▁b	-34
▁v	-35
em	-36
▁k	-37
▁ih	-38
ten	-39
▁au	-40
▁zu	-41
▁D	-42
ach	-43
el	-44
▁sie	-45
ss	-46
gen	-47
▁K	-48
▁H	-49
▁f	-50
ber	-51
▁den	-52
or	-53
icht	-54
eh	-55
▁so	-56
ter	-57
it	-58
▁in	-59
▁M	-60
▁l	-61
▁war	-62
▁G	-63
▁ha	-64
ig	-65
▁A	-66
sch	-67
▁W	-68
▁das	-69
▁B	-70
re	-71
▁sch	-72
▁nicht	-73
ag	-74
ck	-75
on	-76
un	-77
▁es	-78
ir	-79
▁sein	-80
▁T	-81
▁F	-82
▁„	-83
▁E	-84
mm	-85
et	-86
ben	-87
al	-88
der	-89
▁auf	-90
och	-91
▁sich	-92
▁Sch	-93
▁an	-94
as	-95
▁dem	-96
ls	-97
▁wie	-98
ur	-99
ön	-100
ah	-101
ge	-102
▁ich	-103
den	-104
▁mit	-105
and	-106
lich	-107
▁aber	-108
de	-109
▁ge	-110
ann	-111
pr	-112
▁t	-113
▁hat	-114
▁wo	-115
▁ver	-116
▁L	-117
▁ihn	-118
am	-119
▁als	-120
▁ihm	-121
ing	-122
rau	-123
▁du	-124
chen	-125
▁j	-126
ro	-127
▁ihr	-128
▁P	-129
▁R	-130
▁spr	-131
ol	-132
at	-133
agte	-134
▁von	-135
eu	-136
nder	-137
▁hin	-138
▁all	-139
ür	-140
▁St	-141
▁un	-142
▁N	-143
hr	-144
▁ist	-145
be	-146
aus	-147
▁her	-148
▁»	-149
hl	-150
▁aus	-151
ne	-152
▁sprach	-153
▁Z	-154
▁eine	-155
▁st	-156
iel	-157
▁Da	-158
▁hatte	-159
önig	-160
fen	-161
ut	-162
▁r	-163
enn	-164
lein	-165
eit	-166
▁einen	-167
▁J	-168
▁V	-169
▁mein	-170
▁vor	-171
▁König	-172
.“	-173
▁lie	-174
▁Der	-175
etz	-176
ehr	-177
▁auch	-178
ssen	-179
anz	-180
▁sagte	-181
ück	-182
omm	-183
eg	-184
▁o	-185
ehen	-186
sen	-187
▁Er	-188
ier	-189
▁um	-190
▁ges	-191
llte	-192
ill	-193
über	-194
rei	-195
und	-196
▁wieder	-197
▁noch	-198
▁kam	-199
ra	-200
le	-201
▁nach	-202
▁mir	-203
▁Her	-204
▁U	-205
pf	-206
▁daß	-207
▁dass	-208
▁wei	-209
lo	-210
▁des	-211
cht	-212
▁wir	-213
ser	-214
ste	-215
mmer	-216
▁I	-217
▁‚	-218
▁bei	-219
nn	-220
um	-221
rin	-222
ang	-223
▁was	-224
ort	-225
wei	-226
▁be	-227
!“	-228
ief	-229
se	-230
nen	-231
mal	-232
ung	-233
▁wenn	-234
▁über	-235
▁denn	-236
▁ganz	-237
ab	-238
▁im	-239
ft	-240
▁ander	-241
nte	-242
chte	-243
▁ging	-244
▁seine	-245
acht	-246
▁Als	-247
▁gro	-248
ör	-249
schen	-250
lte	-251
▁fr	-252
▁kein	-253
▁will	-254
▁bi	-255
ng	-256
ind	-257
lei	-258
▁nur	-259
ick	-260
▁Die	-261
ald	-262
sten	-263
▁re	-264
▁wer	-265
ug	-266
la	-267
▁mu	-268
hn	-269
▁gew	-270
uch	-271
llen	-272
ommen	-273
▁doch	-274
achte	-275
▁einem	-276
▁Mann	-277
eben	-278
▁sah	-279
ass	-280
▁mich	-281
ät	-282
▁bes	-283
▁klein	-284
▁für	-285
her	-286
▁Mä	-287
ster	-288
ot	-289
▁schön	-290
ien	-291
ff	-292
▁en	-293
zen	-294
▁–	-295
▁waren	-296
▁Au	-297
▁nun	-298
▁Ges	-299
▁wä	-300
ahr	-301
▁Haus	-302
▁geh	-303
▁soll	-304
▁Frau	-305
▁habe	-306
▁dann	-307
gel	-308
▁kon	-309
▁Sie	-310
▁man	-311
etzt	-312
▁zur	-313
▁wollte	-314
▁ger	-315
▁Tag	-316
▁dir	-317
▁alle	-318
il	-319
▁tr	-320
tete	-321
▁zum	-322
▁Ge	-323
ken	-324
zu	-325
▁ste	-326
▁wur	-327
rü	-328
lie	-329
old	-330
rm	-331
▁kann	-332
angen	-333
isch	-334
auf	-335
▁dich	-336
▁Und	-337
ßen	-338
he	-339
.‘	-340
▁ab	-341
▁nie	-342
ater	-343
▁nichts	-344
ger	-345
ges	-346
▁vo	-347
▁sei	-348
agen	-349
urch	-350
hen	-351
reu	-352
▁Herr	-353
▁mehr	-354
rie	-355
ahm	-356
▁zwei	-357
▁konnte	-358
rä	-359
▁seinen	-360
leich	-361
▁einmal	-362
▁kön	-363
▁unter	-364
igen	-365
tw	-366
▁rief	-367
▁stand	-368
▁haben	-369
imm	-370
▁schon	-371
▁bis	-372
▁dein	-373
▁wohl	-374
,“	-375
achen	-376
ange	-377
▁viel	-378
ru	-379
▁am	-380
▁schw	-381
lle	-382
▁fort	-383
.«	-384
▁durch	-385
▁Pf	-386
▁So	-387
ern	-388
▁Schw	-389
▁alles	-390
ige	-391
▁einer	-392
?“	-393
▁schl	-394
▁drei	-395
▁Vater	-396
bt	-397
was	-398
▁nahm	-399
▁wurde	-400
▁hei	-401
twor	-402
ähl	-403
▁seiner	-404
eute	-405
▁gl	-406
▁immer	-407
▁Sp	-408
utter	-409
äu	-410
▁et	-411
▁je	-412
▁Das	-413
▁O	-414
▁sel	-415
▁Aber	-416
▁seinem	-417
aum	-418
▁hät	-419
▁Prin	-420
pp	-421
▁fü	-422
!«	-423
che	-424
▁Es	-425
▁antwor	-426
▁gef	-427
ochter	-428
▁dies	-429
▁dar	-430
kommen	-431
ze	-432
bei	-433
ul	-434
elt	-435
▁Ko	-436
▁Schlo	-437
▁ihnen	-438
▁gesch	-439
amm	-440
bst	-441
▁fragte	-442
under	-443
▁etwas	-444
dchen	-445
▁ent	-446
▁Ihr	-447
▁wäre	-448
▁Hand	-449
▁Ka	-450
▁p	-451
ingen	-452
▁antwortete	-453
ank	-454
br	-455
▁werden	-456
ße	-457
zähl	-458
▁uns	-459
▁Augen	-460
▁Bl	-461
▁sp	-462
▁ja	-463
▁Gl	-464
orgen	-465
▁setz	-466
eld	-467
cken	-468
«,	-469
är	-470
sste	-471
ungen	-472
sse	-473
ad	-474
lten	-475
▁hör	-476
▁Men	-477
▁ihre	-478
Ich	-479
▁alte	-480
▁le	-481
erk	-482
▁sollte	-483
aß	-484
▁Wald	-485
▁gel	-486
▁dr	-487
▁hier	-488
ans	-489
▁ob	-490
▁andern	-491
▁Ver	-492
asser	-493
▁hätte	-494
▁gu	-495
mit	-496
üt	-497
▁Prinz	-498
tel	-499
▁mü	-500
end	-501
▁wel	-502
bar	-503
▁hast	-504
▁wird	-505
▁hinein	-506
▁oder	-507
▁br	-508
mann	-509
ehm	-510
▁lange	-511
og	-512
▁Nacht	-513
▁sehen	-514
bl	-515
▁Wasser	-516
▁gut	-517
▁erzähl	-518
est	-519
▁bin	-520
▁Mutter	-521
ert	-522
esen	-523
▁zw	-524
▁jetzt	-525
▁Zeit	-526
▁get	-527
▁gab	-528
▁weiter	-529
▁Mädchen	-530
▁Ich	-531
ess	-532
tern	-533
dlich	-534
▁selbst	-535
▁muß	-536
▁dachte	-537
▁meine	-538
än	-539
▁vers	-540
nt	-541
ahl	-542
na	-543
ün	-544
▁gar	-545
▁sind	-546
▁Herz	-547
nde	-548
unge	-549
lichen	-550
,‘	-551
assen	-552
▁hatten	-553
▁arm	-554
▁komm	-555
▁recht	-556
ckte	-557
eln	-558
alt	-559
bend	-560
▁gleich	-561
all	-562
▁Ho	-563
▁Ein	-564
sche	-565
▁weil	-566
erd	-567
▁ei	-568
tet	-569
▁sehr	-570
hne	-571
▁ins	-572
▁Wie	-573
gt	-574
lö	-575
▁Kopf	-576
▁zurück	-577
ling	-578
inder	-579
▁Leben	-580
üng	-581
▁damit	-582
▁sag	-583
unde	-584
bte	-585
ust	-586
▁machte	-587
itt	-588
ammen	-589
▁erw	-590
unden	-591
▁ward	-592
uhr	-593
alten	-594
▁heraus	-595
▁wen	-596
tes	-597
fe	-598
▁hinaus	-599
liche	-600
▁eu	-601
▁kamen	-602
▁Wei	-603
▁keine	-604
▁kleine	-605
▁Schloss	-606
▁voll	-607
▁Hause	-608
▁ihren	-609
itten	-610
▁An	-611
▁vom	-612
▁Männ	-613
sammen	-614
▁diese	-615
ohn	-616
▁darau	-617
“,	-618
ahren	-619
orden	-620
▁Welt	-621
▁setzte	-622
▁To	-623
▁Nun	-624
▁Gold	-625
llt	-626
ffen	-627
▁Bru	-628
▁bist	-629
ott	-630
▁Re	-631
ragen	-632
▁ließ	-633
ade	-634
▁gen	-635
▁reich	-636
dem	-637
▁Bet	-638
▁sonder	-639
vor	-640
äng	-641
ielt	-642
▁zog	-643
▁Leute	-644
uß	-645
▁Geld	-646
▁bald	-647
gte	-648
irt	-649
▁Fr	-650
▁Morgen	-651
▁machen	-652
▁dieser	-653
▁Ste	-654
ander	-655
aar	-656
fel	-657
nst	-658
▁zusammen	-659
▁endlich	-660
▁Hans	-661
▁gehen	-662
▁Kinder	-663
blick	-664
eister	-665
Das	-666
▁Ar	-667
▁Schl	-668
▁Menschen	-669
ht	-670
adt	-671
▁Weg	-672
immer	-673
▁dort	-674
▁andere	-675
?«	-676
▁kommen	-677
ied	-678
▁Kind	-679
ri	-680
▁euch	-681
▁bl	-682
geben	-683
▁versch	-684
sel	-685
▁hörte	-686
auer	-687
essin	-688
kam	-689
sst	-690
äch	-691
lt	-692
aft	-693
▁lang	-694
▁Gesch	-695
ühr	-696
ache	-697
▁darauf	-698
iger	-699
agt	-700
▁Freu	-701
▁Sohn	-702
▁Tage	-703
▁Am	-704
eter	-705
▁Be	-706
▁Schn	-707
▁fiel	-708
▁gerade	-709
unk	-710
▁Klei	-711
▁Prinzessin	-712
▁kleinen	-713
egte	-714
▁Son	-715
▁blie	-716
▁alten	-717
aufen	-718
▁ihrem	-719
von	-720
aten	-721
ller	-722
▁Stadt	-723
▁Tochter	-724
rö	-725
ast	-726
itte	-727
inn	-728
▁Abend	-729
Es	-730
geg	-731
▁Land	-732
▁verl	-733
▁Sold	-734
▁erst	-735
mand	-736
▁Jüng	-737
▁ersch	-738
▁Ro	-739
allen	-740
ren	-741
▁sagen	-742
sam	-743
▁Baum	-744
ack	-745
▁Hä	-746
hin	-747
äum	-748
heit	-749
ehmen	-750
▁liess	-751
▁ho	-752
▁groß	-753
üre	-754
▁Königst	-755
eine	-756
▁hinter	-757
ehe	-758
kt	-759
os	-760
▁Euch	-761
ke	-762
▁beiden	-763
ogen	-764
▁fand	-765
▁glau	-766
▁unser	-767
dig	-768
▁tat	-769
▁ohne	-770
▁großen	-771
is	-772
▁mö	-773
▁geb	-774
▁lag	-775
▁tun	-776
▁gewesen	-777
me	-778
nten	-779
▁ganze	-780
▁kl	-781
äger	-782
▁wür	-783
▁heim	-784
▁beg	-785
elte	-786
Was	-787
▁weit	-788
▁führ	-789
▁davon	-790
unter	-791
att	-792
▁fuhr	-793
chten	-794
olden	-795
▁eines	-796
▁wenig	-797
▁Bruder	-798
▁lassen	-799
▁Königstochter	-800
▁Jäger	-801
euer	-802
▁Un	-803
▁Dien	-804
▁trat	-805
▁Hau	-806
ahre	-807
ächt	-808
immel	-809
gleich	-810
atz	-811
▁hol	-812
▁Nach	-813
▁nieder	-814
wand	-815
▁jen	-816
len	-817
▁Du	-818
llten	-819
▁golden	-820
itz	-821
▁Mü	-822
ischen	-823
▁wollen	-824
▁niemand	-825
▁Rei	-826
▁Wol	-827
issen	-828
Ja	-829
lagen	-830
▁stie	-831
▁darin	-832
cher	-833
ochen	-834
▁sondern	-835
öl	-836
reich	-837
▁schlug	-838
keit	-839
▁Spr	-840
▁gem	-841
▁Alte	-842
▁geben	-843
▁schne	-844
▁Kna	-845
▁weg	-846
▁Se	-847
rot	-848
uchs	-849
▁verg	-850
olz	-851
▁Fl	-852
▁Arm	-853
uchen	-854
▁Gott	-855
▁Freude	-856
▁bet	-857
▁hielt	-858
▁musste	-859
▁Sei	-860
▁Tisch	-861
arten	-862
▁Stück	-863
▁könnte	-864
cke	-865
orn	-866
ringen	-867
▁sprang	-868
uh	-869
▁pr	-870
nete	-871
▁legte	-872
▁bef	-873
achten	-874
ogel	-875
▁Erde	-876
des	-877
erg	-878
▁Wirt	-879
▁gest	-880
▁Peter	-881
▁lief	-882
▁Gra	-883
▁allein	-884
Du	-885
▁erh	-886
▁Glas	-887
▁Stu	-888
▁neu	-889
▁Königin	-890
gef	-891
iff	-892
▁blei	-893
eider	-894
oren	-895
▁Türe	-896
undert	-897
▁Jüngling	-898
fte	-899
licher	-900
kann	-901
▁junge	-902
art	-903
fer	-904
▁erzählte	-905
gesch	-906
itter	-907
▁aller	-908
▁herum	-909
ler	-910
ider	-911
▁Teu	-912
enster	-913
▁ihrer	-914
▁Hö	-915
▁Rie	-916
▁Tür	-917
▁muss	-918
▁Br	-919
▁eben	-920
▁flo	-921
ähr	-922
▁we	-923
▁Teufel	-924
▁gingen	-925
▁schönen	-926
ört	-927
▁Dann	-928
▁große	-929
▁gesehen	-930
▁weiß	-931
▁also	-932
▁ganzen	-933
ppe	-934
▁fin	-935
anken	-936
▁fing	-937
▁kommt	-938
kte	-939
zeit	-940
▁Lei	-941
▁Jahre	-942
▁Pferd	-943
▁sonst	-944
▁Schneider	-945
eim	-946
einen	-947
reund	-948
▁vier	-949
schaft	-950
ere	-951
iser	-952
▁Wagen	-953
▁Fenster	-954
raten	-955
▁sol	-956
gehen	-957
▁Himmel	-958
▁können	-959
▁Fü	-960
▁Tier	-961
rechen	-962
▁Herzen	-963
▁schöne	-964
Ach	-965
▁Bo	-966
hlen	-967
▁trug	-968
▁werde	-969
▁wurden	-970
raut	-971
▁tot	-972
▁meinen	-973
▁wunder	-974
▁erf	-975
▁lieb	-976
ner	-977
▁Vogel	-978
ieb	-979
▁zei	-980
▁zer	-981
▁Wolf	-982
▁Glück	-983
▁Kü	-984
age	-985
▁beh	-986
▁lau	-987
▁gegen	-988
▁herab	-989
▁ü	-990
▁ber	-991
auber	-992
▁kannst	-993
▁sollst	-994
▁Ä	-995
stand	-996
▁still	-997
uer	-998
▁Mit	-999
▁meinem	-1000
▁hö	-1001
▁Bauer	-1002
us	-1003
▁Vor	-1004
▁hal	-1005
▁saß	-1006
▁hinauf	-1007
▁keinen	-1008
▁All	-1009
▁fol	-1010
▁blieb	-1011
frau	-1012
▁Dar	-1013
geh	-1014
zte	-1015
▁Hof	-1016
▁warf	-1017
▁Stein	-1018
▁stehen	-1019
▁Kleider	-1020
▁wollten	-1021
▁Brü	-1022
▁jungen	-1023
▁sagten	-1024
▁mußte	-1025
▁würde	-1026
ckt	-1027
lück	-1028
▁Man	-1029
▁Blum	-1030
▁Auf	-1031
we	-1032
▁dazu	-1033
▁Fuchs	-1034
amen	-1035
▁Bett	-1036
▁viele	-1037
▁welche	-1038
▁nä	-1039
▁Gef	-1040
▁Feuer	-1041
▁Kaiser	-1042
▁grü	-1043
dien	-1044
▁Stra	-1045
▁brau	-1046
▁schle	-1047
▁ä	-1048
rig	-1049
▁Gesicht	-1050
▁allen	-1051
▁Zimmer	-1052
▁kr	-1053
▁ro	-1054
▁Gew	-1055
▁schnell	-1056
aben	-1057
schl	-1058
▁Gem	-1059
▁Soldat	-1060
▁bö	-1061
iehen	-1062
▁schn	-1063
▁besch	-1064
zt	-1065
▁He	-1066
▁Ta	-1067
lter	-1068
▁Brüder	-1069
▁diesen	-1070
▁herein	-1071
▁schwar	-1072
▁brachte	-1073
sp	-1074
▁hü	-1075
ünsch	-1076
▁In	-1077
lafen	-1078
auen	-1079
▁geht	-1080
▁daran	-1081
▁gross	-1082
zer	-1083
ickte	-1084
▁frei	-1085
meister	-1086
▁lieber	-1087
▁schrie	-1088
als	-1089
▁fl	-1090
pfen	-1091
▁Frem	-1092
▁anderen	-1093
ßt	-1094
uhe	-1095
ichte	-1096
▁schien	-1097
oll	-1098
mals	-1099
ücken	-1100
▁Kauf	-1101
▁fest	-1102
▁hervor	-1103
▁geworden	-1104
inge	-1105
▁dan	-1106
▁hinab	-1107
mä	-1108
▁Ei	-1109
▁Ende	-1110
▁oben	-1111
▁Herrn	-1112
ist	-1113
ütte	-1114
itzen	-1115
▁trau	-1116
▁Schiff	-1117
▁sieben	-1118
ndlich	-1119
▁willst	-1120
ts	-1121
ehn	-1122
öff	-1123
ech	-1124
▁bat	-1125
▁los	-1126
ssohn	-1127
▁herr	-1128
eil	-1129
ßer	-1130
▁Kr	-1131
beit	-1132
▁Trau	-1133
aden	-1134
▁Jahr	-1135
▁deine	-1136
bald	-1137
▁eigen	-1138
▁gesagt	-1139
▁schwer	-1140
▁wu	-1141
ichter	-1142
▁Hund	-1143
▁tief	-1144
▁glück	-1145
▁Schwes	-1146
▁diesem	-1147
?‘	-1148
ob	-1149
▁Kl	-1150
▁gute	-1151
▁jeder	-1152
▁gekommen	-1153
so	-1154
ührt	-1155
▁wahr	-1156
Nun	-1157
für	-1158
weg	-1159
▁Braut	-1160
▁Stimm	-1161
▁Diener	-1162
▁meiner	-1163
▁Or	-1164
▁Ent	-1165
▁Ged	-1166
▁Kammer	-1167
▁besser	-1168
▁standen	-1169
arr	-1170
gend	-1171
▁Hü	-1172
bsch	-1173
▁Ung	-1174
▁oft	-1175
▁Wenn	-1176
pt	-1177
▁lei	-1178
▁arme	-1179
▁Schei	-1180
▁Me	-1181
haus	-1182
▁Gei	-1183
▁Doch	-1184
▁Schm	-1185
▁führte	-1186
▁Fel	-1187
ichen	-1188
▁Haar	-1189
bracht	-1190
▁Bes	-1191
ertig	-1192
änder	-1193
▁dabei	-1194
▁genug	-1195
▁sahen	-1196
▁Endlich	-1197
öpf	-1198
üss	-1199
▁Has	-1200
▁zwar	-1201
▁stieg	-1202
▁Arbeit	-1203
roh	-1204
▁kü	-1205
nis	-1206
uss	-1207
▁em	-1208
▁grö	-1209
essen	-1210
▁könne	-1211
▁darüber	-1212
ild	-1213
reck	-1214
▁fün	-1215
kla	-1216
lau	-1217
sehen	-1218
▁Jung	-1219
▁freu	-1220
▁verw	-1221
▁gehört	-1222
ehrte	-1223
tlich	-1224
▁Holz	-1225
▁neben	-1226
▁anders	-1227
▁finden	-1228
üh	-1229
ell	-1230
eiten	-1231
▁drau	-1232
▁einz	-1233
▁Junge	-1234
▁gi	-1235
▁Geb	-1236
▁Ger	-1237
äuber	-1238
▁star	-1239
rieden	-1240
▁kleines	-1241
▁e	-1242
▁El	-1243
▁Pfer	-1244
▁Wein	-1245
▁zwöl	-1246
▁Schne	-1247
▁fertig	-1248
ap	-1249
pfte	-1250
▁gek	-1251
▁Hoch	-1252
▁Zwei	-1253
▁daher	-1254
▁schau	-1255
nden	-1256
uchte	-1257
▁Knabe	-1258
▁beide	-1259
▁erblick	-1260
ik	-1261
nü	-1262
hle	-1263
▁Tod	-1264
gegen	-1265
▁Feld	-1266
▁Schul	-1267
▁Tages	-1268
▁seines	-1269
▁erwider	-1270
ften	-1271
klav	-1272
▁Tor	-1273
lassen	-1274
▁Sklav	-1275
▁leben	-1276
▁Stimme	-1277
▁Königssohn	-1278
▁sprachen	-1279
ieren	-1280
▁beim	-1281
▁getan	-1282
▁solle	-1283
▁konnten	-1284
▁Männchen	-1285
wo	-1286
men	-1287
Wenn	-1288
▁Gro	-1289
▁Krä	-1290
elfen	-1291
iefen	-1292
▁wusste	-1293
▁erwiderte	-1294
ha	-1295
wie	-1296
▁geg	-1297
annen	-1298
erkte	-1299
▁aufs	-1300
▁wein	-1301
▁Fisch	-1302
▁welch	-1303
▁Gr	-1304
▁Kn	-1305
▁Brot	-1306
▁herbei	-1307
▁möchte	-1308
▁müssen	-1309
geb	-1310
▁Pl	-1311
▁Schr	-1312
▁Klein	-1313
▁dafür	-1314
▁bleiben	-1315
▁,	-1316
uft	-1317
▁hä	-1318
▁Schla	-1319
▁gemacht	-1320
▁grossen	-1321
▁erzählen	-1322
▁Bär	-1323
▁Bür	-1324
▁Sonne	-1325
ock	-1326
▁Al	-1327
komm	-1328
▁Wal	-1329
▁übr	-1330
▁Lust	-1331
▁letz	-1332
▁Darauf	-1333
▁Räuber	-1334
▁prächt	-1335
▁Hir	-1336
▁Kir	-1337
chter	-1338
gessen	-1339
▁We	-1340
ucht	-1341
▁heute	-1342
▁bringen	-1343
▁Kaufmann	-1344
▁goldenen	-1345
▁’	-1346
schw	-1347
▁Ang	-1348
▁verk	-1349
liches	-1350
▁erste	-1351
▁gerne	-1352
▁wolle	-1353
bel	-1354
det	-1355
▁Ne	-1356
inger	-1357
zogen	-1358
▁Hals	-1359
▁eins	-1360
▁Haupt	-1361
▁spiel	-1362
▁umher	-1363
▁Garten	-1364
▁Stunde	-1365
▁Hochzeit	-1366
So	-1367
Nein	-1368
unger	-1369
▁seid	-1370
▁Mensch	-1371
▁Zauber	-1372
▁Zw	-1373
▁zuf	-1374
▁Berg	-1375
▁flog	-1376
▁Spiel	-1377
▁Scheik	-1378
▁dritten	-1379
▁Jungfrau	-1380
net	-1381
▁Tro	-1382
▁wuß	-1383
▁hoch	-1384
▁sass	-1385
▁ersten	-1386
iß	-1387
die	-1388
ult	-1389
dern	-1390
teten	-1391
▁nehmen	-1392
▁schlief	-1393
get	-1394
öhn	-1395
▁Häu	-1396
▁anf	-1397
zlich	-1398
▁sech	-1399
▁essen	-1400
▁guten	-1401
▁Königs	-1402
▁einige	-1403
▁liegen	-1404
abt	-1405
urm	-1406
▁best	-1407
▁erlö	-1408
▁ged	-1409
▁fünf	-1410
▁weiss	-1411
▁pf	-1412
teil	-1413
▁Dor	-1414
▁läng	-1415
▁tanz	-1416
▁wissen	-1417
egt	-1418
▁Mo	-1419
rich	-1420
▁Spie	-1421
ziehen	-1422
▁Boden	-1423
▁Stief	-1424
▁helfen	-1425
▁zweite	-1426
▁	-1427
ahe	-1428
iss	-1429
ßte	-1430
werk	-1431
▁hundert	-1432
agd	-1433
▁Dr	-1434
▁Tre	-1435
▁rei	-1436
iges	-1437
▁bew	-1438
▁hie	-1439
▁Wort	-1440
▁jeden	-1441
▁Prinzen	-1442
▁sollten	-1443
das	-1444
loß	-1445
▁Vö	-1446
▁bekommen	-1447
alb	-1448
ffe	-1449
▁Ja	-1450
hnen	-1451
▁Mar	-1452
▁öff	-1453
▁langen	-1454
zw	-1455
gew	-1456
▁Le	-1457
gest	-1458
setz	-1459
halten	-1460
▁Jahren	-1461
▁Meister	-1462
▁glaubte	-1463
Wo	-1464
▁Kat	-1465
ennen	-1466
▁Gest	-1467
▁habt	-1468
▁vorn	-1469
▁Essen	-1470
▁Unter	-1471
▁zwölf	-1472
▁verspr	-1473
du	-1474
äug	-1475
▁Lö	-1476
▁Sa	-1477
▁ans	-1478
▁gern	-1479
▁Hände	-1480
▁wirst	-1481
▁freund	-1482
▁meinte	-1483
eug	-1484
uck	-1485
▁Te	-1486
ugen	-1487
▁Lie	-1488
▁Sult	-1489
▁auss	-1490
▁vorbei	-1491
▁worden	-1492
üssel	-1493
▁lass	-1494
▁indem	-1495
▁wären	-1496
▁Augenblick	-1497
Sie	-1498
ele	-1499
▁Dam	-1500
▁feh	-1501
▁Meer	-1502
▁dunk	-1503
▁Schloß	-1504
▁verste	-1505
einander	-1506
▁Fe	-1507
▁Kä	-1508
pfel	-1509
ehren	-1510
▁dick	-1511
▁Rücken	-1512
▁zeigte	-1513
err	-1514
urz	-1515
▁ar	-1516
ppen	-1517
▁hab	-1518
eiden	-1519
▁Luft	-1520
äuglein	-1521
▁gegeben	-1522
▁Hex	-1523
ochte	-1524
ückte	-1525
▁Wind	-1526
▁paar	-1527
▁Seite	-1528
▁armen	-1529
▁bekam	-1530
▁glücklich	-1531
Die	-1532
bten	-1533
▁begeg	-1534
▁keiner	-1535
▁sitzen	-1536
▁he	-1537
▁Kun	-1538
▁ster	-1539
▁Alles	-1540
▁dahin	-1541
▁holen	-1542
▁Ohr	-1543
▁Was	-1544
▁ung	-1545
innen	-1546
▁heil	-1547
▁tragen	-1548
usik	-1549
▁wil	-1550
ichel	-1551
lossen	-1552
▁Gemahl	-1553
▁Pferde	-1554
Wie	-1555
inde	-1556
uten	-1557
▁erg	-1558
mutter	-1559
▁Stube	-1560
▁Walde	-1561
▁wußte	-1562
▁schöner	-1563
▁stellte	-1564
▁zufrieden	-1565
Ein	-1566
ver	-1567
▁Wor	-1568
glich	-1569
kannte	-1570
▁Licht	-1571
▁schen	-1572
▁Männer	-1573
▁folgen	-1574
▁entgegen	-1575
▁gegangen	-1576
▁Schwester	-1577
fin	-1578
rat	-1579
zig	-1580
▁dür	-1581
ilber	-1582
▁musst	-1583
▁hätten	-1584
▁Geschichte	-1585
▁Bü	-1586
tein	-1587
▁Tal	-1588
▁frem	-1589
▁jener	-1590
▁Riesen	-1591
gegangen	-1592
etter	-1593
ssten	-1594
▁kaum	-1595
▁liegt	-1596
▁halten	-1597
▁Soldaten	-1598
kel	-1599
schm	-1600
▁Pet	-1601
▁ruh	-1602
▁Leib	-1603
▁Saal	-1604
▁grau	-1605
▁vern	-1606
▁hören	-1607
▁steht	-1608
▁Schlaf	-1609
▁dieses	-1610
▁grosse	-1611
▁Unglück	-1612
▁traurig	-1613
ker	-1614
▁Zu	-1615
agten	-1616
esser	-1617
▁acht	-1618
▁jüng	-1619
ausend	-1620
▁erblickte	-1621
dete	-1622
▁Not	-1623
▁Ring	-1624
eher	-1625
fall	-1626
▁Rat	-1627
▁Trä	-1628
affen	-1629
annte	-1630
▁währ	-1631
▁lebte	-1632
▁Tannen	-1633
▁dritte	-1634
▁Sklaven	-1635
del	-1636
tem	-1637
▁hing	-1638
schein	-1639
▁Sultan	-1640
▁weinte	-1641
▁herunter	-1642
▁sogleich	-1643
rus	-1644
▁ko	-1645
Aber	-1646
ernt	-1647
▁wor	-1648
▁darf	-1649
ehrt	-1650
uche	-1651
▁Gerd	-1652
▁verb	-1653
▁deinen	-1654
▁Gestalt	-1655
▁	-1656
ärm	-1657
▁Mal	-1658
▁bem	-1659
▁Mein	-1660
▁krie	-1661
▁ritt	-1662
▁seit	-1663
rinken	-1664
▁Riese	-1665
▁Treppe	-1666
▁sterben	-1667
▁geschehen	-1668
letzt	-1669
▁Also	-1670
selben	-1671
▁darum	-1672
▁unten	-1673
▁suchen	-1674
▁steckte	-1675
Der	-1676
hst	-1677
halb	-1678
ügel	-1679
orben	-1680
▁Höhe	-1681
▁Tanz	-1682
▁treu	-1683
▁Reich	-1684
▁Vögel	-1685
▁wollt	-1686
▁Blumen	-1687
▁gehabt	-1688
▁leicht	-1689
▁sollen	-1690
▁Männlein	-1691
löt	-1692
wen	-1693
▁Bei	-1694
▁klo	-1695
▁Hexe	-1696
▁Gerda	-1697
▁Petrus	-1698
Ei	-1699
▁ru	-1700
erte	-1701
uren	-1702
▁Fre	-1703
▁wirk	-1704
▁alter	-1705
▁Tasche	-1706
▁merkte	-1707
▁zuletzt	-1708
▁öffnete	-1709
▁sprechen	-1710
if	-1711
▁Tr	-1712
▁jem	-1713
ielle	-1714
▁Ruhe	-1715
▁Namen	-1716
▁Schön	-1717
▁holte	-1718
gekommen	-1719
▁welcher	-1720
ielleicht	-1721
▁Wo	-1722
aber	-1723
haft	-1724
▁Bur	-1725
▁Mär	-1726
▁rau	-1727
▁Bäum	-1728
▁sechs	-1729
▁zogen	-1730
▁Schnee	-1731
▁mitten	-1732
▁kleiner	-1733
▁verlang	-1734
eut	-1735
▁mi	-1736
erst	-1737
necht	-1738
▁Sack	-1739
▁böse	-1740
▁näch	-1741
igkeit	-1742
▁Musik	-1743
▁grünen	-1744
▁suchte	-1745
▁schreck	-1746
bur	-1747
ret	-1748
oten	-1749
▁Bau	-1750
▁hob	-1751
▁macht	-1752
bringen	-1753
▁großer	-1754
▁schaute	-1755
▁Gedanken	-1756
▁gefunden	-1757
öh	-1758
ant	-1759
ase	-1760
▁,,	-1761
hlte	-1762
nung	-1763
▁Eng	-1764
▁erk	-1765
eisen	-1766
▁Groß	-1767
▁Mund	-1768
▁Kleid	-1769
▁statt	-1770
▁Bürger	-1771
▁Finger	-1772
▁Lebens	-1773
▁Müller	-1774
▁herauf	-1775
▁jemand	-1776
lötzlich	-1777
Sch	-1778
eht	-1779
änd	-1780
▁Ju	-1781
▁kä	-1782
ickt	-1783
▁ums	-1784
atter	-1785
mlich	-1786
▁neue	-1787
nehmen	-1788
▁Blume	-1789
▁jedem	-1790
▁Straße	-1791
▁deinem	-1792
!‘	-1793
▁(	-1794
ennt	-1795
mmen	-1796
riff	-1797
▁bel	-1798
▁gehe	-1799
▁älte	-1800
▁Klaus	-1801
▁Tiere	-1802
▁Mantel	-1803
▁lachte	-1804
▁selber	-1805
▁verloren	-1806
!	-1807
Da	-1808
auft	-1809
ingt	-1810
ische	-1811
▁glän	-1812
▁lust	-1813
▁Hunde	-1814
▁Fremde	-1815
qu	-1816
▁C	-1817
ahn	-1818
inter	-1819
schte	-1820
▁betr	-1821
▁verf	-1822
▁könnt	-1823
▁erschra	-1824
▁sonderbar	-1825
oh	-1826
aul	-1827
ett	-1828
▁Um	-1829
elle	-1830
wenn	-1831
▁Den	-1832
▁Hut	-1833
▁Kam	-1834
anden	-1835
stein	-1836
unnen	-1837
▁Dorf	-1838
▁verh	-1839
▁verz	-1840
▁morgen	-1841
▁Märchen	-1842
▁während	-1843
▁schlafen	-1844
ak	-1845
ören	-1846
▁alt	-1847
ienen	-1848
▁empf	-1849
▁fein	-1850
▁laut	-1851
▁nimm	-1852
▁Absch	-1853
▁abend	-1854
▁Eltern	-1855
▁Ritter	-1856
▁Vaters	-1857
▁Stunden	-1858
▁zwischen	-1859
▁wü	-1860
berg	-1861
gten	-1862
ücke	-1863
acken	-1864
scher	-1865
recken	-1866
▁Jetzt	-1867
▁beste	-1868
▁näher	-1869
spr	-1870
cker	-1871
klei	-1872
lang	-1873
▁Fuß	-1874
▁Gän	-1875
▁Wun	-1876
könig	-1877
▁Bein	-1878
▁Koch	-1879
ichtig	-1880
liegen	-1881
▁Angst	-1882
▁Wirts	-1883
▁riefen	-1884
▁fürchte	-1885
ho	-1886
ump	-1887
ftig	-1888
ging	-1889
wind	-1890
▁mag	-1891
euten	-1892
urcht	-1893
▁Nase	-1894
▁Zinn	-1895
▁sagt	-1896
▁schm	-1897
rocken	-1898
▁müsse	-1899
▁Jungen	-1900
▁Stelle	-1901
▁länger	-1902
▁wünsch	-1903
▁verwand	-1904
▁gebracht	-1905
▁hinunter	-1906
dr	-1907
▁Nä	-1908
▁ra	-1909
annt	-1910
heim	-1911
utig	-1912
▁Ber	-1913
▁Grä	-1914
▁ehe	-1915
▁könig	-1916
▁Hirsch	-1917
▁Knaben	-1918
▁Schwar	-1919
▁goldene	-1920
hol	-1921
ehte	-1922
männ	-1923
durch	-1924
reten	-1925
ärger	-1926
▁Ofen	-1927
ielten	-1928
öchter	-1929
▁Beine	-1930
▁ruhig	-1931
▁Sprach	-1932
▁freundlich	-1933
Und	-1934
arf	-1935
▁De	-1936
▁Mu	-1937
aßen	-1938
sold	-1939
▁Ker	-1940
▁Wir	-1941
▁frü	-1942
▁gibt	-1943
▁müde	-1944
▁liebe	-1945
▁warum	-1946
▁Wunsch	-1947
▁gewalt	-1948
▁Abschied	-1949
Ihr	-1950
hre	-1951
unken	-1952
rieben	-1953
▁Sonnen	-1954
▁plötzlich	-1955
▁vergessen	-1956
im	-1957
öt	-1958
▁ir	-1959
ings	-1960
viel	-1961
▁Str	-1962
▁Uhr	-1963
ichten	-1964
▁Alten	-1965
▁großes	-1966
▁lieben	-1967
▁meines	-1968
▁Schwein	-1969
▁erkannte	-1970
ix	-1971
▁Ha	-1972
▁Wä	-1973
ande	-1974
itze	-1975
▁Pro	-1976
elten	-1977
▁Teil	-1978
▁Weib	-1979
▁fast	-1980
reiben	-1981
▁Brust	-1982
▁Traum	-1983
▁mitein	-1984
▁welches	-1985
▁Schlosse	-1986
▁miteinander	-1987
▁el	-1988
▁te	-1989
Mein	-1990
▁Aus	-1991
▁bez	-1992
ellen	-1993
onder	-1994
▁froh	-1995
▁stür	-1996
▁besten	-1997
▁verschw	-1998
▁herrlich	-1999
▁vielleicht	-2000
iet	-2001
▁Eu	-2002
anke	-2003
▁Grü	-2004
▁Holl	-2005
▁anzu	-2006
▁verm	-2007
▁guter	-2008
▁jedes	-2009
▁deiner	-2010
▁singen	-2011
▁Schwert	-2012
▁verdien	-2013
fl	-2014
wer	-2015
baum	-2016
ossen	-2017
▁Graf	-2018
▁Platz	-2019
▁Tagen	-2020
▁lagen	-2021
▁ärger	-2022
▁fühlte	-2023
▁gefiel	-2024
▁liefen	-2025
schlagen	-2026
▁Zinnsold	-2027
▁Bürgermeister	-2028
ers	-2029
▁Bar	-2030
▁Frü	-2031
Jetzt	-2032
▁halb	-2033
▁sang	-2034
leisch	-2035
▁betrü	-2036
▁roten	-2037
▁Kleine	-2038
▁vergnü	-2039
▁geschah	-2040
ahlen	-2041
▁Arme	-2042
▁Gast	-2043
achsen	-2044
▁allem	-2045
▁außer	-2046
▁gespr	-2047
▁heran	-2048
▁zuvor	-2049
▁Freund	-2050
▁Brunnen	-2051
▁Freunde	-2052
▁Nachbar	-2053
▁schönes	-2054
▁erschrak	-2055
wär	-2056
zug	-2057
öpfe	-2058
ückt	-2059
▁Blut	-2060
fallen	-2061
▁Kunst	-2062
▁Reise	-2063
▁armer	-2064
▁eilte	-2065
▁Abends	-2066
▁Hunger	-2067
▁Fremden	-2068
▁hinüber	-2069
▁setzten	-2070
▁Handwerk	-2071
▁wirklich	-2072
▁Wirtshaus	-2073
one	-2074
ager	-2075
alte	-2076
wohl	-2077
▁Kör	-2078
stlich	-2079
▁Küche	-2080
▁Rosen	-2081
▁wegen	-2082
schmied	-2083
▁fielen	-2084
▁letzten	-2085
▁machten	-2086
▁zweiten	-2087
▁Schneiderlein	-2088
zten	-2089
ällt	-2090
üllt	-2091
bchen	-2092
▁Däum	-2093
▁Esel	-2094
▁Kreu	-2095
reiber	-2096
setzen	-2097
▁Bären	-2098
▁komme	-2099
▁Herren	-2100
▁erlöst	-2101
▁setzen	-2102
uld	-2103
egel	-2104
icken	-2105
ummer	-2106
ängen	-2107
üster	-2108
▁Bart	-2109
▁höch	-2110
▁Seele	-2111
▁seien	-2112
▁Kirche	-2113
▁freute	-2114
▁gesund	-2115
▁rechte	-2116
▁Nachtig	-2117
▁reichen	-2118
▁schütte	-2119
▁gehalten	-2120
▁verlassen	-2121
bet	-2122
gem	-2123
▁Ab	-2124
Herr	-2125
weil	-2126
ücht	-2127
▁Tau	-2128
▁tra	-2129
▁zie	-2130
wärts	-2131
▁Somm	-2132
▁Wege	-2133
▁gebe	-2134
▁wand	-2135
▁ihres	-2136
▁Gesell	-2137
▁Schatz	-2138
▁gewöhn	-2139
▁zuerst	-2140
▁Entlein	-2141
▁klopfte	-2142
▁rechten	-2143
▁tausend	-2144
mt	-2145
gst	-2146
olk	-2147
▁Do	-2148
eren	-2149
scht	-2150
urst	-2151
▁Art	-2152
▁Gel	-2153
▁See	-2154
▁wär	-2155
ackte	-2156
▁Will	-2157
▁sehe	-2158
▁Sache	-2159
▁wohin	-2160
▁vornehm	-2161
▁nächsten	-2162
▁versprach	-2163
Wir	-2164
eid	-2165
▁Kö	-2166
arum	-2167
loss	-2168
onst	-2169
▁Gen	-2170
atten	-2171
▁Auge	-2172
▁Bald	-2173
▁Dort	-2174
▁Edel	-2175
▁fröh	-2176
lieben	-2177
▁Liebe	-2178
▁Zwerg	-2179
▁arbei	-2180
▁Silber	-2181
▁Tränen	-2182
▁betrachte	-2183
ags	-2184
aut	-2185
ink	-2186
oss	-2187
doch	-2188
hnte	-2189
▁Brä	-2190
▁las	-2191
kannt	-2192
ulden	-2193
▁gutes	-2194
▁offen	-2195
▁abends	-2196
▁kehrte	-2197
▁sicher	-2198
▁vielen	-2199
lichkeit	-2200
▁heilige	-2201
▁besonder	-2202
▁wunderbar	-2203
Er	-2204
▁Ü	-2205
mme	-2206
ses	-2207
üch	-2208
▁Wer	-2209
▁Euer	-2210
reckte	-2211
▁Hütte	-2212
▁Nicht	-2213
▁Toten	-2214
▁schlä	-2215
gezogen	-2216
▁Gräfin	-2217
▁dessen	-2218
▁fallen	-2219
▁überall	-2220
▁übrigen	-2221
▁schickte	-2222
amt	-2223
mte	-2224
▁lä	-2225
▁Flö	-2226
▁Gna	-2227
▁Pal	-2228
▁bed	-2229
legen	-2230
recht	-2231
▁Ecke	-2232
▁Heim	-2233
▁sage	-2234
▁verd	-2235
▁brach	-2236
▁Leuten	-2237
▁reichte	-2238
▁Nachtigall	-2239
flo	-2240
sal	-2241
raft	-2242
▁Anf	-2243
▁Dem	-2244
▁Fla	-2245
▁tut	-2246
▁win	-2247
leute	-2248
▁Scha	-2249
▁nahe	-2250
▁satt	-2251
euchte	-2252
▁Dinge	-2253
▁Sonnt	-2254
▁Taler	-2255
▁deshalb	-2256
▁Schlüssel	-2257
▁Gesellschaft	-2258
▁verschwunden	-2259
bo	-2260
ottes	-2261
raben	-2262
uldig	-2263
wegen	-2264
▁Dank	-2265
▁Denn	-2266
▁Lohn	-2267
▁Mitt	-2268
▁Pfei	-2269
▁bein	-2270
▁drin	-2271
▁gold	-2272
▁Eines	-2273
▁Engel	-2274
▁Haare	-2275
▁Hasen	-2276
▁Katze	-2277
▁mächt	-2278
▁Knecht	-2279
▁denken	-2280
▁früher	-2281
▁hübsch	-2282
▁laufen	-2283
▁lauter	-2284
▁Schmied	-2285
▁Spiegel	-2286
▁Stiefel	-2287
▁Töchter	-2288
▁jüngste	-2289
▁schlecht	-2290
▁vergnügt	-2291
äd	-2292
erz	-2293
enne	-2294
erne	-2295
iche	-2296
iert	-2297
will	-2298
▁Amt	-2299
▁Gal	-2300
▁Kal	-2301
▁Kar	-2302
▁ehr	-2303
▁fro	-2304
anzig	-2305
schön	-2306
▁Grab	-2307
▁Kerl	-2308
▁Schu	-2309
fahren	-2310
reiten	-2311
tragen	-2312
vatter	-2313
▁denen	-2314
▁trank	-2315
▁übrig	-2316
▁unsere	-2317
▁draußen	-2318
▁grosser	-2319
▁mussten	-2320
▁abermals	-2321
▁folgenden	-2322
▁Bu	-2323
▁Bö	-2324
▁Ke	-2325
▁ne	-2326
itzt	-2327
▁Mut	-2328
▁wün	-2329
▁aufh	-2330
▁Bäume	-2331
▁Worte	-2332
▁verst	-2333
▁Bauern	-2334
▁Keller	-2335
▁dankte	-2336
▁lustig	-2337
▁packte	-2338
▁vorher	-2339
genommen	-2340
▁gelernt	-2341
▁Königreich	-2342
abe	-2343
voll	-2344
▁Zug	-2345
inken	-2346
▁Zorn	-2347
▁Lande	-2348
▁hinzu	-2349
▁Händen	-2350
▁Messer	-2351
gebracht	-2352
▁anderes	-2353
▁drückte	-2354
▁hielten	-2355
▁nämlich	-2356
▁Häuschen	-2357
hof	-2358
ühl	-2359
▁Sä	-2360
▁sä	-2361
orch	-2362
sser	-2363
äter	-2364
▁Kay	-2365
stens	-2366
▁Fest	-2367
▁kurz	-2368
▁rein	-2369
▁Bette	-2370
▁Mitte	-2371
▁Ohren	-2372
▁Pfarr	-2373
▁erhob	-2374
▁ernst	-2375
▁stark	-2376
▁trieb	-2377
▁fragen	-2378
▁schwarz	-2379
▁trinken	-2380
▁einander	-2381
▁erwachte	-2382
▁gefallen	-2383
▁gestorben	-2384
▁schüttelte	-2385
ält	-2386
abak	-2387
räum	-2388
ängt	-2389
asste	-2390
ohlen	-2391
orfen	-2392
▁Arzt	-2393
▁Kaum	-2394
▁Weil	-2395
▁jung	-2396
▁Über	-2397
▁Stall	-2398
▁Kohlen	-2399
▁bleibt	-2400
▁kommst	-2401
▁schlie	-2402
▁solche	-2403
▁weinen	-2404
▁zeigen	-2405
▁unglück	-2406
▁Gesellen	-2407
▁allerlei	-2408
▁Holländer	-2409
▁Schrecken	-2410
da	-2411
fr	-2412
aub	-2413
euf	-2414
häu	-2415
igt	-2416
olt	-2417
arte	-2418
eise	-2419
ffer	-2420
reis	-2421
zwei	-2422
▁Ind	-2423
▁Grün	-2424
▁Loch	-2425
▁Stir	-2426
▁zehn	-2427
stehen	-2428
▁Armen	-2429
▁Damit	-2430
▁Felix	-2431
▁Neffe	-2432
▁erlau	-2433
hundert	-2434
▁Gottes	-2435
▁fanden	-2436
▁nahmen	-2437
▁Drachen	-2438
▁schwarzen	-2439
ka	-2440
Wer	-2441
ieg	-2442
str	-2443
iegen	-2444
tellt	-2445
▁Blät	-2446
▁Hase	-2447
▁Mond	-2448
▁Mühe	-2449
▁Tuch	-2450
▁Wahr	-2451
utigam	-2452
▁Berge	-2453
▁Hölle	-2454
▁gewiß	-2455
▁versp	-2456
gesehen	-2457
mädchen	-2458
▁hörten	-2459
▁jedoch	-2460
▁alsbald	-2461
▁beinahe	-2462
▁vorüber	-2463
▁Bräutigam	-2464
▁begegnete	-2465
——	-2466
▁Hu	-2467
▁Sö	-2468
eist	-2469
äfer	-2470
ände	-2471
▁Geh	-2472
▁häß	-2473
boden	-2474
deten	-2475
ustap	-2476
▁Volk	-2477
▁band	-2478
▁bede	-2479
▁früh	-2480
▁schr	-2481
▁Menge	-2482
▁schme	-2483
uhrmann	-2484
▁Gewalt	-2485
▁Sommer	-2486
▁Stücke	-2487
▁Wunder	-2488
▁befahl	-2489
▁lachen	-2490
▁anderer	-2491
▁Schlange	-2492
▁erschien	-2493
▁freilich	-2494
▁Schwestern	-2495
opf	-2496
▁Gu	-2497
erkt	-2498
nach	-2499
▁Beg	-2500
▁ass	-2501
twort	-2502
ühren	-2503
▁Gras	-2504
▁Hier	-2505
▁Hühn	-2506
▁Jagd	-2507
▁Krie	-2508
▁Munk	-2509
▁half	-2510
▁hung	-2511
▁hiess	-2512
▁sieht	-2513
▁drehte	-2514
▁ebenso	-2515
▁entgeg	-2516
▁führen	-2517
▁mochte	-2518
▁tanzen	-2519
▁Richter	-2520
▁älteste	-2521
▁niedlich	-2522
Oh	-2523
oß	-2524
üm	-2525
off	-2526
zehn	-2527
▁Pap	-2528
▁emp	-2529
Guten	-2530
▁Ober	-2531
▁Ster	-2532
▁Ufer	-2533
▁aufm	-2534
▁jene	-2535
▁läch	-2536
▁Apfel	-2537
▁Schal	-2538
▁Weile	-2539
▁weder	-2540
▁Dienst	-2541
▁Koffer	-2542
▁Seiten	-2543
▁daraus	-2544
▁flogen	-2545
▁frisch	-2546
▁gelegt	-2547
▁Freuden	-2548
▁welchem	-2549
▁gesprochen	-2550
gek	-2551
orb	-2552
äser	-2553
▁pfl	-2554
anzen	-2555
falls	-2556
holen	-2557
▁Hofd	-2558
▁Verw	-2559
▁Beute	-2560
▁Manne	-2561
▁Mühle	-2562
▁altes	-2563
▁wider	-2564
ustapha	-2565
▁Felsen	-2566
▁Schick	-2567
▁junger	-2568
männlein	-2569
▁schnitt	-2570
▁gewaltig	-2571
▁entgegnete	-2572
ph	-2573
xt	-2574
ord	-2575
▁Su	-2576
angs	-2577
schn	-2578
▁Gre	-2579
▁Kut	-2580
ister	-2581
▁Haut	-2582
▁Rose	-2583
▁wohn	-2584
ächter	-2585
▁Brief	-2586
▁worin	-2587
▁Michel	-2588
▁Storch	-2589
▁bekomm	-2590
▁ziehen	-2591
▁Antwort	-2592
▁Kleinen	-2593
▁geführt	-2594
▁glauben	-2595
▁schwarze	-2596
▁prächtigen	-2597
zei	-2598
▁hu	-2599
▁tu	-2600
aßte	-2601
iene	-2602
reif	-2603
ßten	-2604
äuer	-2605
▁dur	-2606
▁Lieb	-2607
▁Wand	-2608
▁gesp	-2609
Michel	-2610
▁neuen	-2611
▁saßen	-2612
▁Mannes	-2613
▁Studen	-2614
▁gelang	-2615
▁wilden	-2616
▁langsam	-2617
▁spielen	-2618
▁Fuhrmann	-2619
▁Gemahlin	-2620
▁Schritte	-2621
▁erhalten	-2622
▁gegessen	-2623
▁verstand	-2624
▁Schicksal	-2625
pe	-2626
los	-2627
wür	-2628
▁Sü	-2629
▁kn	-2630
▁pl	-2631
ieht	-2632
llig	-2633
onnen	-2634
▁Korn	-2635
eichen	-2636
kehren	-2637
▁Löwen	-2638
▁Lustig	-2639
▁Schuhe	-2640
▁daheim	-2641
▁wohnte	-2642
▁glänzen	-2643
▁Mustapha	-2644
▁anfangen	-2645
▁streckte	-2646
tr	-2647
gar	-2648
▁Ur	-2649
onen	-2650
äste	-2651
▁Ach	-2652
▁leg	-2653
aufte	-2654
ckten	-2655
ohann	-2656
zchen	-2657
▁Auch	-2658
▁Eure	-2659
▁mußt	-2660
▁Eisen	-2661
▁Füßen	-2662
▁dauer	-2663
▁gaben	-2664
▁Flügel	-2665
▁fahren	-2666
▁fuhren	-2667
▁nimmer	-2668
▁verlie	-2669
▁Fleisch	-2670
▁Grünwie	-2671
▁einzige	-2672
▁Schwarzw	-2673
▁Zauberer	-2674
▁fröhlich	-2675
▁genommen	-2676
▁wünschte	-2677
▁Schönheit	-2678
▁schönsten	-2679
kä	-2680
app	-2681
elm	-2682
ieh	-2683
aren	-2684
eint	-2685
ktor	-2686
oben	-2687
▁bot	-2688
räumt	-2689
▁Löwe	-2690
▁Rock	-2691
▁Blick	-2692
▁Geist	-2693
▁Krieg	-2694
▁Stock	-2695
▁Teich	-2696
▁angel	-2697
▁hohen	-2698
▁höher	-2699
▁Bedien	-2700
▁Erzähl	-2701
▁Gretel	-2702
▁begann	-2703
▁damals	-2704
▁einsam	-2705
▁entsch	-2706
▁fasste	-2707
▁müsste	-2708
▁vollen	-2709
▁blieben	-2710
▁geträumt	-2711
▁fürchtete	-2712
ud	-2713
put	-2714
rän	-2715
öst	-2716
▁de	-2717
Will	-2718
anne	-2719
igem	-2720
isse	-2721
▁Alm	-2722
▁Eur	-2723
▁Ente	-2724
▁Füße	-2725
▁Magd	-2726
▁Paar	-2727
▁Topf	-2728
▁eher	-2729
▁entf	-2730
▁leer	-2731
▁Gnade	-2732
▁Lager	-2733
▁einzu	-2734
▁genau	-2735
▁Aschen	-2736
▁Doktor	-2737
▁Frauen	-2738
▁größer	-2739
▁fragten	-2740
▁welchen	-2741
▁Gevatter	-2742
▁eingesch	-2743
▁verwünsch	-2744
Qu	-2745
mö	-2746
irr	-2747
pft	-2748
ärt	-2749
abel	-2750
elin	-2751
hand	-2752
herr	-2753
igte	-2754
stet	-2755
zech	-2756
▁Kuh	-2757
▁Alle	-2758
▁Dumm	-2759
▁blau	-2760
▁jede	-2761
▁neun	-2762
▁zorn	-2763
▁aufzu	-2764
▁empor	-2765
▁Dieser	-2766
▁erstau	-2767
▁fremde	-2768
▁glaube	-2769
▁hängen	-2770
▁kannte	-2771
▁würden	-2772
▁blickte	-2773
▁gesetzt	-2774
▁heimlich	-2775
▁geschwind	-2776
▁betrachtete	-2777
az	-2778
örn	-2779
▁Je	-2780
▁tö	-2781
▁fal	-2782
▁for	-2783
spiel	-2784
▁Zeug	-2785
▁gele	-2786
▁hieß	-2787
▁seuf	-2788
▁vert	-2789
schlag	-2790
schwab	-2791
▁Ezech	-2792
▁Gegen	-2793
▁Kater	-2794
▁Reihe	-2795
▁Tische	-2796
▁Worten	-2797
elinchen	-2798
▁dennoch	-2799
▁dreimal	-2800
▁Ezechiel	-2801
▁sprangen	-2802
▁besonders	-2803
▁geblieben	-2804
▁versuchen	-2805
▁Grünwiesel	-2806
▁Zinnsoldat	-2807
▁verschwand	-2808
▁Däumelinchen	-2809
▁Glasmännlein	-2810
vo	-2811
Lie	-2812
▁Bä	-2813
▁ew	-2814
▁sü	-2815
ehre	-2816
▁Tän	-2817
▁Von	-2818
▁tre	-2819
brach	-2820
essel	-2821
▁Fuss	-2822
▁käme	-2823
▁mach	-2824
▁schä	-2825
▁traf	-2826
erling	-2827
ichtet	-2828
▁Kraft	-2829
▁Krone	-2830
▁eiser	-2831
▁orden	-2832
▁sollt	-2833
▁träum	-2834
reichen	-2835
▁Furcht	-2836
▁Neffen	-2837
▁Trauer	-2838
▁Winter	-2839
▁lebten	-2840
▁tiefen	-2841
▁zitter	-2842
▁nachdem	-2843
▁reicher	-2844
▁richtig	-2845
▁schlich	-2846
▁spielte	-2847
▁stürzte	-2848
▁Schüssel	-2849
▁erfahren	-2850
▁Stückchen	-2851
▁wunderschön	-2852
wa	-2853
pel	-2854
asen	-2855
ches	-2856
rumm	-2857
▁Axt	-2858
▁Sor	-2859
▁ben	-2860
▁tör	-2861
aunen	-2862
glein	-2863
▁Daum	-2864
▁kalt	-2865
▁nein	-2866
mmerte	-2867
▁Recht	-2868
▁Söhne	-2869
▁Wiese	-2870
▁einst	-2871
▁kroch	-2872
▁danach	-2873
▁dunkel	-2874
▁letzte	-2875
▁erlösen	-2876
▁hättest	-2877
▁könnten	-2878
▁behalten	-2879
▁bemerkte	-2880
▁draussen	-2881
▁gefangen	-2882
▁lebendig	-2883
▁verlangte	-2884
▁Großmutter	-2885
▁wenigstens	-2886
▁Pr	-2887
▁Qu	-2888
land	-2889
reut	-2890
ühen	-2891
▁Hil	-2892
▁rie	-2893
ansor	-2894
erdin	-2895
stete	-2896
▁Frei	-2897
▁Lied	-2898
▁gefr	-2899
▁klug	-2900
▁sank	-2901
▁Gutes	-2902
▁Sturm	-2903
▁Tafel	-2904
▁Tromm	-2905
▁dicke	-2906
▁rings	-2907
▁siehe	-2908
▁sitzt	-2909
▁fingen	-2910
▁getreu	-2911
▁gewiss	-2912
▁weißen	-2913
▁zornig	-2914
erdinand	-2915
gleichen	-2916
▁Amtmann	-2917
▁dauerte	-2918
▁eigenen	-2919
▁umsonst	-2920
▁Hauptmann	-2921
ate	-2922
kun	-2923
win	-2924
zog	-2925
▁Im	-2926
▁to	-2927
atür	-2928
bein	-2929
bnis	-2930
hren	-2931
ilie	-2932
▁Bal	-2933
▁Sal	-2934
▁gib	-2935
derte	-2936
ändig	-2937
▁Dieb	-2938
▁Frie	-2939
▁Städ	-2940
▁Tode	-2941
▁stär	-2942
▁Blitz	-2943
▁Stroh	-2944
▁erinn	-2945
▁legen	-2946
▁starb	-2947
▁Federn	-2948
▁sassen	-2949
▁warten	-2950
▁betrübt	-2951
▁lachten	-2952
▁liessen	-2953
▁solchen	-2954
pl	-2955
aßt	-2956
chs	-2957
ßig	-2958
▁lo	-2959
▁qu	-2960
angt	-2961
elbe	-2962
ette	-2963
fiel	-2964
fort	-2965
gang	-2966
kind	-2967
▁Für	-2968
▁Heu	-2969
▁Müt	-2970
▁bun	-2971
▁eil	-2972
enden	-2973
ernen	-2974
indet	-2975
▁Dame	-2976
▁Fein	-2977
▁Hein	-2978
▁Lärm	-2979
▁dumm	-2980
▁eint	-2981
▁möge	-2982
▁Alter	-2983
▁Eigen	-2984
▁Markt	-2985
▁Schät	-2986
▁griff	-2987
▁stein	-2988
▁stolz	-2989
üchlein	-2990
▁Reicht	-2991
▁hinten	-2992
▁irgend	-2993
gefallen	-2994
▁Pfarrer	-2995
▁Zeichen	-2996
▁grosses	-2997
▁Hofdamen	-2998
▁zugleich	-2999
▁.	-3000
aff	-3001
öre	-3002
üge	-3003
achs	-3004
chst	-3005
leid	-3006
▁tau	-3007
▁weh	-3008
ieten	-3009
▁Hoff	-3010
▁Maul	-3011
▁Noch	-3012
▁Sein	-3013
▁wert	-3014
ehrten	-3015
▁Gäste	-3016
▁Kalif	-3017
▁angef	-3018
▁auszu	-3019
▁breit	-3020
▁leise	-3021
▁Kummer	-3022
▁Mittag	-3023
▁Mittel	-3024
▁Gericht	-3025
▁Speisen	-3026
▁Student	-3027
▁geboren	-3028
▁mehrere	-3029
▁möglich	-3030
▁schwieg	-3031
▁heiraten	-3032
▁obgleich	-3033
▁Schreiber	-3034
▁demselben	-3035
▁schlechte	-3036
In	-3037
▁ö	-3038
umm	-3039
▁Tat	-3040
▁kur	-3041
attel	-3042
ensch	-3043
▁Hahn	-3044
▁Verg	-3045
herlie	-3046
ischer	-3047
reifen	-3048
▁Gener	-3049
▁davor	-3050
▁drauf	-3051
▁halte	-3052
▁lesen	-3053
▁rasch	-3054
▁rufen	-3055
▁weite	-3056
brochen	-3057
▁Beutel	-3058
▁Johann	-3059
▁Wetter	-3060
▁legten	-3061
▁soviel	-3062
▁Franken	-3063
▁Sonntag	-3064
▁Tannenb	-3065
▁diesmal	-3066
▁fressen	-3067
▁hindurch	-3068
▁springen	-3069
▁wünschen	-3070
▁Handwerks	-3071
herlieschen	-3072
iz	-3073
kl	-3074
to	-3075
äge	-3076
adel	-3077
nahm	-3078
umpf	-3079
ütig	-3080
▁Bed	-3081
▁Fro	-3082
▁Gut	-3083
▁Mon	-3084
▁Nie	-3085
▁Sel	-3086
▁trö	-3087
chsen	-3088
ührte	-3089
▁Korb	-3090
▁Leid	-3091
▁Sinn	-3092
▁aufw	-3093
▁etwa	-3094
uchten	-3095
weilen	-3096
▁Gänse	-3097
▁Hilfe	-3098
▁Raben	-3099
▁blies	-3100
▁faßte	-3101
▁tücht	-3102
▁unver	-3103
▁Gulden	-3104
▁Papier	-3105
▁Ranzen	-3106
▁Speise	-3107
▁mensch	-3108
▁General	-3109
▁Nachdem	-3110
▁Schäfer	-3111
▁bestimm	-3112
▁finster	-3113
▁hierher	-3114
▁schlugen	-3115
▁schönste	-3116
per	-3117
sie	-3118
ute	-3119
wir	-3120
ünd	-3121
Gott	-3122
mten	-3123
▁dro	-3124
▁krä	-3125
▁ret	-3126
andri	-3127
eiert	-3128
richt	-3129
▁Erst	-3130
▁Gang	-3131
▁hart	-3132
▁höre	-3133
▁zähl	-3134
Willst	-3135
▁Greif	-3136
▁Kamer	-3137
▁bevor	-3138
▁dicht	-3139
▁heißt	-3140
▁krank	-3141
richten	-3142
▁Galgen	-3143
▁Gefahr	-3144
▁Reisen	-3145
▁bereit	-3146
▁durfte	-3147
▁küsste	-3148
▁reiche	-3149
▁schrei	-3150
▁silber	-3151
▁trugen	-3152
▁wohnen	-3153
essandri	-3154
▁Gedanke	-3155
▁Kindern	-3156
▁erzählt	-3157
▁führten	-3158
▁Almansor	-3159
▁brauchen	-3160
▁Schweineh	-3161
▁Geschichten	-3162
▁königlichen	-3163
ib	-3164
Geh	-3165
Ist	-3166
kos	-3167
utz	-3168
▁Ma	-3169
aufe	-3170
mehr	-3171
rock	-3172
ötet	-3173
▁Erb	-3174
▁Erd	-3175
▁Fam	-3176
▁Hal	-3177
▁Min	-3178
▁Nur	-3179
▁Reh	-3180
▁hil	-3181
eilen	-3182
ester	-3183
getan	-3184
rüben	-3185
sucht	-3186
vater	-3187
▁Eich	-3188
▁Eins	-3189
machen	-3190
teilen	-3191
▁Labak	-3192
▁Mauer	-3193
▁bösen	-3194
▁denke	-3195
▁geste	-3196
▁schie	-3197
▁sogar	-3198
▁wagte	-3199
geführt	-3200
▁Goldst	-3201
▁Grafen	-3202
▁Küchen	-3203
▁Schalk	-3204
▁Schlag	-3205
▁folgte	-3206
sprechen	-3207
▁Schwanz	-3208
▁fliegen	-3209
▁nachher	-3210
▁weniger	-3211
essandria	-3212
▁vergeben	-3213
▁angesehen	-3214
▁Zweiäuglein	-3215
aup	-3216
mar	-3217
üte	-3218
ocht	-3219
ppte	-3220
ufen	-3221
ötig	-3222
▁Eis	-3223
▁Get	-3224
▁Roß	-3225
▁erb	-3226
Warum	-3227
esten	-3228
tchen	-3229
▁Bild	-3230
▁Eine	-3231
▁Fass	-3232
▁Nähe	-3233
▁warm	-3234
▁übel	-3235
uchsen	-3236
▁Betrü	-3237
▁Diese	-3238
▁Feder	-3239
▁Grund	-3240
▁stets	-3241
▁unsch	-3242
▁womit	-3243
▁Beding	-3244
▁Fische	-3245
▁Geschä	-3246
▁Reiter	-3247
▁Sachen	-3248
▁aufges	-3249
▁beschä	-3250
▁voller	-3251
▁wandte	-3252
▁weitem	-3253
▁fremden	-3254
▁seufzte	-3255
▁unserer	-3256
▁vernahm	-3257
▁Johannes	-3258
▁aushalten	-3259
▁Alessandria	-3260
▁schrecklich	-3261
▁Katherlieschen	-3262
▁́	-3263
mpf	-3264
ose	-3265
Hier	-3266
beth	-3267
dies	-3268
örte	-3269
ügen	-3270
▁Lis	-3271
▁Ort	-3272
▁Per	-3273
▁heu	-3274
▁mel	-3275
▁tei	-3276
ierig	-3277
ierte	-3278
isten	-3279
kunft	-3280
▁Gans	-3281
▁hält	-3282
▁Bürle	-3283
▁Herde	-3284
▁Indem	-3285
▁deren	-3286
▁müßte	-3287
▁natür	-3288
▁Besuch	-3289
▁Pfeife	-3290
▁Stirne	-3291
▁bitten	-3292
▁gläser	-3293
▁kaufen	-3294
▁wander	-3295
gelassen	-3296
▁Anblick	-3297
▁Jüngste	-3298
▁Lisbeth	-3299
▁Sprache	-3300
▁drinnen	-3301
▁gestern	-3302
▁hernach	-3303
▁schlimm	-3304
▁zwanzig	-3305
▁Dummling	-3306
▁Schulter	-3307
▁Schuster	-3308
▁prächtig	-3309
▁Ferdinand	-3310
▁schliefen	-3311
▁verwandelt	-3312
▁dergleichen	-3313
urt	-3314
aleu	-3315
kten	-3316
lief	-3317
stra	-3318
ünde	-3319
▁Wür	-3320
▁Zie	-3321
▁Zir	-3322
Nicht	-3323
haben	-3324
kamen	-3325
rauen	-3326
weise	-3327
ämmer	-3328
▁Bier	-3329
▁Erlö	-3330
▁Sage	-3331
▁Wild	-3332
▁Zoll	-3333
▁abzu	-3334
▁häss	-3335
aschen	-3336
denken	-3337
langen	-3338
laufen	-3339
rissen	-3340
ährend	-3341
▁Kirch	-3342
▁Kopfe	-3343
▁Köpfe	-3344
▁gehei	-3345
▁taten	-3346
▁woher	-3347
▁wuchs	-3348
aleukos	-3349
▁Hinter	-3350
▁Kasten	-3351
▁Wander	-3352
▁fehlen	-3353
▁leiden	-3354
▁schloß	-3355
▁sobald	-3356
▁Labakan	-3357
▁Niemand	-3358
▁stecken	-3359
▁schenkte	-3360
▁verraten	-3361
▁Spielmann	-3362
▁Verwunder	-3363
▁verdienen	-3364
▁königliche	-3365
▁Handwerksbur	-3366
eck	-3367
rab	-3368
wan	-3369
▁Th	-3370
wegs	-3371
▁Bef	-3372
▁Des	-3373
▁Hüt	-3374
▁äng	-3375
Peter	-3376
artet	-3377
seher	-3378
▁Eier	-3379
▁Knie	-3380
▁Kuno	-3381
▁Mahl	-3382
▁abge	-3383
▁flie	-3384
▁hohe	-3385
▁link	-3386
▁merk	-3387
▁wann	-3388
riffen	-3389
runken	-3390
▁Anges	-3391
▁Schuh	-3392
▁Seine	-3393
steigen	-3394
▁Drache	-3395
▁Heimat	-3396
▁Häuser	-3397
▁Pracht	-3398
▁Sattel	-3399
▁Schwei	-3400
▁Zirkel	-3401
▁dienen	-3402
▁hingen	-3403
▁hinweg	-3404
▁Frieder	-3405
▁Morgens	-3406
▁gedacht	-3407
▁getötet	-3408
▁niemals	-3409
▁wartete	-3410
▁Tannenbühl	-3411
▁Goldschmied	-3412
▁versprochen	-3413
▁Schweinehirt	-3414
▁Zirkelschmied	-3415
kü	-3416
äl	-3417
ehl	-3418
zur	-3419
▁tä	-3420
Komm	-3421
atze	-3422
esir	-3423
este	-3424
fter	-3425
ährt	-3426
▁Häl	-3427
▁Mör	-3428
▁Thr	-3429
▁san	-3430
Vater	-3431
ettet	-3432
etzen	-3433
nügen	-3434
▁Buch	-3435
▁Gärt	-3436
▁Vers	-3437
▁erre	-3438
▁klar	-3439
▁nehm	-3440
▁unbe	-3441
annten	-3442
roffen	-3443
▁Regen	-3444
▁Segen	-3445
▁Wache	-3446
▁Wacht	-3447
▁gehor	-3448
▁kenne	-3449
▁Äpfel	-3450
▁Floren	-3451
▁Tieren	-3452
▁Waldes	-3453
▁durchs	-3454
▁geklei	-3455
▁mußten	-3456
▁rechts	-3457
▁werdet	-3458
▁winkte	-3459
getragen	-3460
▁Straßen	-3461
▁Schatten	-3462
▁erkennen	-3463
▁jedermann	-3464
▁eigentlich	-3465
▁schlechten	-3466
▁Stiefmutter	-3467
gl	-3468
▁	-3469
ame	-3470
fft	-3471
mer	-3472
atte	-3473
gott	-3474
lung	-3475
ndel	-3476
stür	-3477
▁Hem	-3478
▁Lau	-3479
▁Rau	-3480
anach	-3481
erken	-3482
ähren	-3483
▁Komm	-3484
▁Lebt	-3485
▁Samt	-3486
▁rote	-3487
▁selt	-3488
▁trin	-3489
antoff	-3490
chenkt	-3491
dessen	-3492
▁Darum	-3493
▁Enten	-3494
▁Schwe	-3495
▁Weges	-3496
▁brumm	-3497
▁entde	-3498
▁lasse	-3499
▁links	-3500
▁pfiff	-3501
▁stieß	-3502
▁töten	-3503
▁weiße	-3504
brechen	-3505
▁Beinen	-3506
▁Braten	-3507
▁Gefäng	-3508
▁Gegend	-3509
▁Hauses	-3510
▁Wirtin	-3511
▁bringt	-3512
▁fehlte	-3513
▁ganzes	-3514
▁heftig	-3515
▁retten	-3516
gelaufen	-3517
▁Kaisers	-3518
▁erfüllt	-3519
▁grösser	-3520
▁schwang	-3521
▁solcher	-3522
▁trocken	-3523
▁wuchsen	-3524
▁Reichtum	-3525
▁geworfen	-3526
▁schweren	-3527
▁verkauft	-3528
▁wiederum	-3529
▁Kaufleute	-3530
▁Sonnenstr	-3531
▁gestohlen	-3532
▁Schwarzwald	-3533
▁Verwunderung	-3534
fü	-3535
nä	-3536
lse	-3537
org	-3538
uge	-3539
uhl	-3540
▁Rü	-3541
▁lö	-3542
awan	-3543
fuhr	-3544
lust	-3545
scha	-3546
ätte	-3547
▁Ord	-3548
arbei	-3549
eitet	-3550
endet	-3551
ieben	-3552
peter	-3553
ringe	-3554
umpen	-3555
vogel	-3556
änger	-3557
▁Atem	-3558
▁Swin	-3559
▁hell	-3560
▁wärm	-3561
Lieber	-3562
ischte	-3563
kinder	-3564
ohnung	-3565
ünsche	-3566
▁Asche	-3567
▁Baume	-3568
▁Buche	-3569
▁Ferne	-3570
▁Flöte	-3571
▁Leibe	-3572
▁Reden	-3573
▁Todes	-3574
▁Wesen	-3575
▁besah	-3576
▁garst	-3577
▁jenen	-3578
▁nötig	-3579
▁wilde	-3580
gegeben	-3581
zugehen	-3582
▁Becher	-3583
▁Lebtag	-3584
▁Länder	-3585
▁Reiche	-3586
▁Schafe	-3587
▁Tänzer	-3588
▁behaup	-3589
▁bitter	-3590
▁darfst	-3591
▁fangen	-3592
▁guckte	-3593
▁ungehe	-3594
▁vergeb	-3595
▁verhei	-3596
▁wüsste	-3597
▁Alsbald	-3598
▁Blätter	-3599
▁Fischer	-3600
▁Gärtner	-3601
▁Karawan	-3602
▁Kreuzer	-3603
▁Ordnung	-3604
▁Schiffe	-3605
▁entsetz	-3606
▁erhielt	-3607
▁seltsam	-3608
▁verging	-3609
▁zweimal	-3610
▁Geschrei	-3611
▁Schwefel	-3612
▁Sperling	-3613
▁Swinegel	-3614
▁Verstand	-3615
▁arbeiten	-3616
▁begraben	-3617
▁höchsten	-3618
▁jedesmal	-3619
▁geschrieben	-3620
pen	-3621
räu	-3622
inne	-3623
ohnt	-3624
zeug	-3625
▁Chr	-3626
▁Sar	-3627
▁Ding	-3628
▁Glie	-3629
▁Wohl	-3630
▁halt	-3631
keiten	-3632
nechte	-3633
weisen	-3634
▁angen	-3635
▁bring	-3636
▁desto	-3637
▁graue	-3638
▁kluge	-3639
▁neues	-3640
▁nimmt	-3641
▁reden	-3642
▁treff	-3643
fresser	-3644
königin	-3645
▁Antwor	-3646
▁Füssen	-3647
▁Gesang	-3648
▁Glaser	-3649
▁Schuld	-3650
▁gering	-3651
▁keinem	-3652
▁nannte	-3653
▁nickte	-3654
▁tanzte	-3655
▁tiefer	-3656
ternacht	-3657
▁Frieden	-3658
▁Trinken	-3659
▁einiger	-3660
▁entzwei	-3661
▁fünfzig	-3662
▁Burschen	-3663
▁Edelmann	-3664
▁Kleidern	-3665
▁Schimmel	-3666
▁brachten	-3667
▁schaffen	-3668
▁ältesten	-3669
▁Angesicht	-3670
▁geschlagen	-3671
id	-3672
ams	-3673
arn	-3674
nun	-3675
rav	-3676
asse	-3677
asst	-3678
eide	-3679
eile	-3680
ille	-3681
käme	-3682
pfer	-3683
seit	-3684
sinn	-3685
ssig	-3686
▁Ban	-3687
▁Ler	-3688
▁Nat	-3689
▁ern	-3690
▁rot	-3691
▁tue	-3692
anten	-3693
arren	-3694
einer	-3695
inden	-3696
kommt	-3697
stbar	-3698
▁Dach	-3699
▁Deut	-3700
▁Drei	-3701
▁Nein	-3702
▁Turm	-3703
▁samm	-3704
werfen	-3705
▁Erden	-3706
▁Macht	-3707
▁Schen	-3708
▁Weise	-3709
▁berüh	-3710
▁ungeh	-3711
▁wohnt	-3712
kannten	-3713
örnchen	-3714
▁Gewand	-3715
▁Hälfte	-3716
▁Steine	-3717
▁Wolken	-3718
▁furcht	-3719
▁halben	-3720
▁kaufte	-3721
▁längst	-3722
▁munter	-3723
▁siehst	-3724
schaffen	-3725
▁Familie	-3726
▁Geschen	-3727
▁Herzens	-3728
▁Pantoff	-3729
▁Schritt	-3730
▁Streich	-3731
▁Taschen	-3732
▁dachten	-3733
▁hungrig	-3734
▁träumte	-3735
▁verschl	-3736
▁Gefangen	-3737
▁Hoffnung	-3738
▁Trommler	-3739
▁begegnet	-3740
▁gefeiert	-3741
▁schlagen	-3742
scheinlich	-3743
▁Kameraden	-3744
▁geschlafen	-3745
kr	-3746
bas	-3747
fig	-3748
fst	-3749
ged	-3750
zut	-3751
▁La	-3752
dler	-3753
halt	-3754
hans	-3755
mach	-3756
oßen	-3757
uner	-3758
wirt	-3759
üsse	-3760
▁ach	-3761
▁riß	-3762
▁seg	-3763
ilder	-3764
llung	-3765
logen	-3766
mmern	-3767
neten	-3768
onner	-3769
▁Brau	-3770
▁Glau	-3771
▁Hofe	-3772
▁spaz	-3773
▁vors	-3774
achtet	-3775
schten	-3776
▁Besch	-3777
▁Ernst	-3778
▁Gespr	-3779
▁Krähe	-3780
▁Meine	-3781
▁Orbas	-3782
▁Schür	-3783
▁Suppe	-3784
▁hüten	-3785
▁jenes	-3786
▁schna	-3787
▁treue	-3788
▁verbr	-3789
▁weißt	-3790
ichtete	-3791
igeuner	-3792
▁Einmal	-3793
▁Geburt	-3794
▁Herzog	-3795
▁Strafe	-3796
▁Willen	-3797
▁Zeiten	-3798
▁anfing	-3799
▁aussah	-3800
▁beglei	-3801
▁blauen	-3802
▁ließen	-3803
▁traten	-3804
▁warfen	-3805
▁Bursche	-3806
▁Schmuck	-3807
▁häßlich	-3808
▁Betrüger	-3809
▁Zaleukos	-3810
▁gerettet	-3811
▁getragen	-3812
▁glaubten	-3813
geschlagen	-3814
▁Bedingung	-3815
▁Schultern	-3816
▁Vergnügen	-3817
▁ebenfalls	-3818
▁geschickt	-3819
▁getrunken	-3820
▁schneller	-3821
▁ordentlich	-3822
▁Wachtmeister	-3823
▁untereinander	-3824
▁Menschenfresser	-3825
li	-3826
▁-	-3827
aat	-3828
▁Ra	-3829
hund	-3830
iste	-3831
ünft	-3832
▁Gru	-3833
▁Pol	-3834
▁Wut	-3835
▁erm	-3836
▁Hast	-3837
▁Vier	-3838
▁erfü	-3839
▁heut	-3840
▁hört	-3841
▁riss	-3842
▁sieh	-3843
finden	-3844
ickten	-3845
knecht	-3846
▁Elfen	-3847
▁Grabe	-3848
▁Höhle	-3849
▁Kraut	-3850
▁Nadel	-3851
▁Sorge	-3852
▁Stamm	-3853
▁Winde	-3854
▁Zweig	-3855
▁fällt	-3856
▁jagte	-3857
▁Frosch	-3858
▁Hühner	-3859
▁Mörder	-3860
▁Sklave	-3861
▁dicken	-3862
▁geriet	-3863
▁gewahr	-3864
▁klagte	-3865
▁schwei	-3866
▁werfen	-3867
▁Brüdern	-3868
▁Himmels	-3869
▁Pferden	-3870
▁Schätze	-3871
▁Wächter	-3872
▁Während	-3873
▁geraten	-3874
▁schrieb	-3875
▁schwamm	-3876
▁schwere	-3877
▁Schnabel	-3878
▁Wahrheit	-3879
▁Zigeuner	-3880
▁Erzählung	-3881
▁Gefängnis	-3882
▁Schwefelh	-3883
▁angelangt	-3884
▁anzusehen	-3885
▁prächtige	-3886
▁Mitternacht	-3887
▁Zinnsoldaten	-3888
uf	-3889
Wei	-3890
▁Ob	-3891
Hast	-3892
alle	-3893
aust	-3894
blei	-3895
ckel	-3896
fern	-3897
geht	-3898
quem	-3899
ssch	-3900
ützt	-3901
▁Ali	-3902
▁Bir	-3903
▁Far	-3904
▁Zau	-3905
▁ers	-3906
hütte	-3907
laden	-3908
öpfen	-3909
▁Ehre	-3910
▁Sand	-3911
▁Tore	-3912
▁Werk	-3913
▁spät	-3914
▁uner	-3915
achtel	-3916
führen	-3917
hauser	-3918
kammer	-3919
wenden	-3920
ächtig	-3921
▁Acker	-3922
▁Decke	-3923
▁Frage	-3924
▁Hünen	-3925
▁Kreuz	-3926
▁Zunge	-3927
▁angst	-3928
▁fehlt	-3929
▁setze	-3930
▁Haufen	-3931
▁Jugend	-3932
▁Kuchen	-3933
▁drüben	-3934
▁dürfte	-3935
▁krange	-3936
▁liebes	-3937
▁selten	-3938
▁später	-3939
▁Flasche	-3940
▁Wünsche	-3941
▁Zollern	-3942
▁dadurch	-3943
▁gekauft	-3944
▁Gespräch	-3945
▁Kutscher	-3946
▁Zeitlang	-3947
▁angenehm	-3948
▁gedachte	-3949
▁jüngsten	-3950
▁leichter	-3951
▁verlangt	-3952
▁zuweilen	-3953
▁Schlosses	-3954
▁angekommen	-3955
▁drittenmal	-3956
▁herrlichen	-3957
▁vergeblich	-3958
▁erschrocken	-3959
▁eingeschlafen	-3960
▁wahrscheinlich	-3961
?,	-3962
Sei	-3963
ies	-3964
iul	-3965
mut	-3966
▁Zä	-3967
agel	-3968
bäum	-3969
elnd	-3970
fält	-3971
jung	-3972
oche	-3973
teln	-3974
wend	-3975
änge	-3976
▁Ist	-3977
▁Kan	-3978
▁Kap	-3979
▁Mil	-3980
▁Pfl	-3981
▁deu	-3982
▁mei	-3983
gäuer	-3984
immen	-3985
inkel	-3986
sicht	-3987
stück	-3988
▁Blau	-3989
▁Eben	-3990
▁Kräu	-3991
▁Rede	-3992
▁Söhn	-3993
▁Vieh	-3994
▁Wurz	-3995
▁ange	-3996
▁anst	-3997
▁eure	-3998
▁flei	-3999
▁hand	-4000
▁stol	-4001
ettung	-4002
▁Glanz	-4003
▁Heino	-4004
▁Magen	-4005
▁Miene	-4006
▁Spieß	-4007
▁Thiul	-4008
▁Türen	-4009
ichtbar	-4010
ierlich	-4011
zeichen	-4012
▁Balken	-4013
▁Sobald	-4014
▁Sprung	-4015
▁Wochen	-4016
▁ausgel	-4017
▁kochen	-4018
▁nachts	-4019
▁pracht	-4020
▁verlor	-4021
ehnsucht	-4022
▁Handsch	-4023
▁Rosenst	-4024
▁folgten	-4025
▁leuchte	-4026
▁meinten	-4027
▁schlägt	-4028
▁solange	-4029
▁bezahlen	-4030
▁durchaus	-4031
▁einziges	-4032
▁spielten	-4033
▁erzählten	-4034
▁mitnehmen	-4035
▁verborgen	-4036
▁verkaufen	-4037
▁zerrissen	-4038
▁ängstlich	-4039
▁menschliche	-4040
‘,	-4041
elo	-4042
kob	-4043
nes	-4044
tei	-4045
tig	-4046
öch	-4047
ader	-4048
ahrt	-4049
chse	-4050
ffte	-4051
umen	-4052
wald	-4053
ühle	-4054
————	-4055
▁Kug	-4056
▁Kün	-4057
▁Urs	-4058
▁Wäl	-4059
▁gei	-4060
▁unb	-4061
atzen	-4062
etzte	-4063
stadt	-4064
stüre	-4065
teilt	-4066
teuer	-4067
undzw	-4068
unkel	-4069
wisch	-4070
ällig	-4071
ützen	-4072
▁Banu	-4073
▁Böse	-4074
▁Geiß	-4075
▁Pate	-4076
▁Seil	-4077
▁fern	-4078
▁wach	-4079
▁wack	-4080
erksam	-4081
gefähr	-4082
heiten	-4083
püster	-4084
schlug	-4085
▁Eichh	-4086
▁Felde	-4087
▁Jakob	-4088
▁Kinde	-4089
▁Ungeh	-4090
▁allzu	-4091
▁bauen	-4092
▁hinan	-4093
▁manch	-4094
▁Bienen	-4095
▁Bündel	-4096
▁Christ	-4097
▁Futter	-4098
▁Gemach	-4099
▁Küster	-4100
▁Lachen	-4101
▁dürfen	-4102
▁gelebt	-4103
▁reisen	-4104
▁Rettung	-4105
▁brauche	-4106
▁dagegen	-4107
▁gefällt	-4108
▁tanzten	-4109
▁versich	-4110
▁Allgäuer	-4111
▁Geschäft	-4112
▁könntest	-4113
▁schenken	-4114
▁verdient	-4115
▁wahrlich	-4116
undzwanzig	-4117
▁aufwachte	-4118
▁beisammen	-4119
▁gekleidet	-4120
▁spazieren	-4121
▁verstehen	-4122
▁gewöhnlich	-4123
▁Blauäuglein	-4124
▁verwandelte	-4125
▁Aschenpüster	-4126
▁verschlossen	-4127
ds	-4128
Gut	-4129
gab	-4130
ißt	-4131
les	-4132
ägt	-4133
▁Gi	-4134
▁Wü	-4135
▁ta	-4136
Noch	-4137
aute	-4138
dick	-4139
elen	-4140
esch	-4141
herz	-4142
lieb	-4143
ring	-4144
röte	-4145
stes	-4146
tags	-4147
▁Pil	-4148
▁anh	-4149
▁bös	-4150
▁fra	-4151
▁hor	-4152
▁hub	-4153
ankte	-4154
indel	-4155
ischt	-4156
olfen	-4157
pften	-4158
recke	-4159
selbe	-4160
zeich	-4161
ührer	-4162
▁Aben	-4163
▁Harf	-4164
▁Wegs	-4165
▁Zaun	-4166
▁biss	-4167
▁lebe	-4168
▁sann	-4169
▁wies	-4170
▁woll	-4171
ochten	-4172
▁Gross	-4173
▁Schar	-4174
▁Schle	-4175
▁begab	-4176
▁lässt	-4177
▁stren	-4178
▁Brücke	-4179
▁Bäumen	-4180
▁Jammer	-4181
▁Lerche	-4182
▁Quelle	-4183
▁Schwal	-4184
▁findet	-4185
▁gebrau	-4186
▁gefähr	-4187
▁grauen	-4188
▁kochte	-4189
▁sangen	-4190
▁schuld	-4191
▁weiten	-4192
▁worauf	-4193
▁Mitleid	-4194
▁Orbasan	-4195
▁Schläge	-4196
▁ergriff	-4197
▁gezogen	-4198
▁kostbar	-4199
▁schritt	-4200
▁stiegen	-4201
▁suchten	-4202
▁tranken	-4203
▁Minister	-4204
▁Sultanin	-4205
▁brauchte	-4206
▁derselbe	-4207
▁gelaufen	-4208
▁wanderte	-4209
▁Bedienten	-4210
▁Erstaunen	-4211
▁Schachtel	-4212
▁Sehnsucht	-4213
▁Städtchen	-4214
▁gegenüber	-4215
▁Antwortete	-4216
▁nimmermehr	-4217
▁ungeheuren	-4218
▁Schwefelhöl	-4219
▁Versprechen	-4220
▁antworteten	-4221
▁Eichhörnchen	-4222
▁Sonnenschein	-4223
▁Schwesterchen	-4224
hü	-4225
rr	-4226
Mit	-4227
hte	-4228
ipp	-4229
ley	-4230
phe	-4231
tag	-4232
▁Ch	-4233
▁eh	-4234
▁vö	-4235
acke	-4236
ahen	-4237
deck	-4238
inke	-4239
isst	-4240
onne	-4241
räng	-4242
üler	-4243
▁Kon	-4244
▁War	-4245
▁brä	-4246
▁lud	-4247
erzen	-4248
etten	-4249
reise	-4250
rückt	-4251
▁Bret	-4252
▁Male	-4253
▁Strü	-4254
▁Zelt	-4255
▁befr	-4256
▁bloß	-4257
▁brei	-4258
▁faul	-4259
▁gebt	-4260
andeln	-4261
garten	-4262
llchen	-4263
straße	-4264
zimmer	-4265
▁Allah	-4266
▁Bitte	-4267
▁Boten	-4268
▁Erlau	-4269
▁Eurem	-4270
▁Küsse	-4271
▁Lange	-4272
▁Muley	-4273
▁Orgel	-4274
▁Trunk	-4275
▁elend	-4276
▁halbe	-4277
▁hilft	-4278
▁lasst	-4279
▁mache	-4280
▁regte	-4281
▁schla	-4282
▁wisse	-4283
▁übers	-4284
▁Bücher	-4285
▁Daumes	-4286
▁Gleich	-4287
▁Karten	-4288
▁Ochsen	-4289
▁Palast	-4290
▁Teller	-4291
▁Zweige	-4292
▁ausges	-4293
▁schoss	-4294
▁stiess	-4295
▁verirr	-4296
▁Harfner	-4297
▁Schaden	-4298
▁Schüler	-4299
▁Schürze	-4300
▁Verwand	-4301
▁Vöglein	-4302
▁bemerkt	-4303
▁eigenes	-4304
▁freudig	-4305
▁freuten	-4306
▁umgeben	-4307
▁weissen	-4308
▁ärgerte	-4309
gerichtet	-4310
▁Däumling	-4311
▁erstaunt	-4312
▁lieblich	-4313
▁ziemlich	-4314
▁Edelstein	-4315
▁Ungeheuer	-4316
▁furchtbar	-4317
▁gestanden	-4318
▁schneiden	-4319
▁verlieren	-4320
▁versuchte	-4321
▁unglücklich	-4322
bu	-4323
hnm	-4324
▁is	-4325
▁Är	-4326
Wohl	-4327
ackt	-4328
ahlt	-4329
burg	-4330
digt	-4331
eres	-4332
gabe	-4333
icki	-4334
rotz	-4335
urer	-4336
önnt	-4337
üche	-4338
▁Dah	-4339
▁Fal	-4340
▁Fat	-4341
▁Mau	-4342
▁Ton	-4343
▁ert	-4344
▁mal	-4345
▁str	-4346
▁wem	-4347
dient	-4348
platz	-4349
reibt	-4350
rogen	-4351
▁Auss	-4352
▁Boot	-4353
▁Tepp	-4354
▁brav	-4355
▁haus	-4356
länder	-4357
nitten	-4358
uletzt	-4359
▁Durst	-4360
▁Ehren	-4361
▁Milch	-4362
▁Preis	-4363
▁Spinn	-4364
▁Stern	-4365
▁Tanne	-4366
▁Thron	-4367
▁ankam	-4368
▁armes	-4369
▁fromm	-4370
▁grüne	-4371
▁heiße	-4372
▁nennt	-4373
fleisch	-4374
kleider	-4375
stellen	-4376
▁Gefähr	-4377
▁Tauben	-4378
▁aussch	-4379
▁besann	-4380
▁bückte	-4381
▁geschm	-4382
▁langes	-4383
▁reiten	-4384
geworfen	-4385
▁Entschl	-4386
▁Schrank	-4387
▁Schreck	-4388
▁Ursache	-4389
▁bekannt	-4390
▁brannte	-4391
▁dorthin	-4392
▁einigen	-4393
▁flüster	-4394
▁gehören	-4395
▁glänzte	-4396
▁goldnen	-4397
▁kriegen	-4398
▁mancher	-4399
▁schloss	-4400
▁stärker	-4401
▁Aufseher	-4402
▁Kirchhof	-4403
▁ergangen	-4404
▁geholfen	-4405
▁vernünft	-4406
▁vorwärts	-4407
▁empfangen	-4408
▁erreichen	-4409
▁geschenkt	-4410
▁gläsernen	-4411
▁vergebens	-4412
▁Ö	-4413
daß	-4414
inz	-4415
zel	-4416
öck	-4417
▁Ap	-4418
▁Lä	-4419
brot	-4420
iere	-4421
jagt	-4422
orgt	-4423
reue	-4424
rost	-4425
▁Gür	-4426
▁Kre	-4427
▁Mäg	-4428
▁Reg	-4429
▁and	-4430
▁hüb	-4431
buche	-4432
ehnte	-4433
eugte	-4434
kleid	-4435
nädig	-4436
selig	-4437
slein	-4438
utzen	-4439
öffel	-4440
▁Dein	-4441
▁Dies	-4442
▁Fall	-4443
▁Gele	-4444
▁Kair	-4445
▁Köhl	-4446
▁Lamm	-4447
▁Laub	-4448
▁Nest	-4449
▁Stab	-4450
▁dirs	-4451
▁läßt	-4452
▁Älte	-4453
geholt	-4454
herzig	-4455
kehrte	-4456
locken	-4457
macher	-4458
ünscht	-4459
▁Biene	-4460
▁Kiste	-4461
▁Munde	-4462
▁Trost	-4463
▁Wachs	-4464
▁Wüste	-4465
▁eilig	-4466
▁feine	-4467
▁kalte	-4468
▁keins	-4469
▁liege	-4470
▁stehe	-4471
▁tiefe	-4472
▁voran	-4473
▁älter	-4474
genheit	-4475
möglich	-4476
äubchen	-4477
▁Butter	-4478
▁Danach	-4479
▁Deckel	-4480
▁Graben	-4481
▁Gürtel	-4482
▁Haaren	-4483
▁Kronen	-4484
▁Löffel	-4485
▁Mütter	-4486
▁Strick	-4487
▁eigene	-4488
▁feinen	-4489
▁kennen	-4490
▁langer	-4491
▁langte	-4492
▁machst	-4493
▁merken	-4494
▁pochte	-4495
▁reiste	-4496
▁treuen	-4497
▁willen	-4498
▁zerspr	-4499
gehalten	-4500
gerissen	-4501
schaften	-4502
▁Einsied	-4503
▁Ländern	-4504
▁Meinung	-4505
▁Viertel	-4506
▁ausgest	-4507
▁brummte	-4508
▁erfreut	-4509
▁nächste	-4510
▁spricht	-4511
▁vermähl	-4512
▁Blättern	-4513
▁Glasberg	-4514
▁einzigen	-4515
▁gesessen	-4516
▁gesungen	-4517
▁heiligen	-4518
▁lächelte	-4519
▁stellten	-4520
▁Erlaubnis	-4521
▁Tanzboden	-4522
▁Daumesdick	-4523
),	-4524
sh	-4525
All	-4526
beh	-4527
eue	-4528
hau	-4529
ilf	-4530
äub	-4531
▁Go	-4532
▁fe	-4533
▁gr	-4534
Sieh	-4535
bock	-4536
iele	-4537
inen	-4538
ließ	-4539
ofen	-4540
orte	-4541
pter	-4542
rift	-4543
rist	-4544
wart	-4545
▁Beh	-4546
▁Bel	-4547
▁Ehe	-4548
▁Frö	-4549
▁elf	-4550
▁fei	-4551
▁nei	-4552
ippen	-4553
leben	-4554
legte	-4555
mpfen	-4556
mögen	-4557
neben	-4558
ßchen	-4559
▁Dorn	-4560
▁Fell	-4561
▁Grie	-4562
▁Jude	-4563
▁List	-4564
▁Marm	-4565
▁Peit	-4566
▁ewig	-4567
▁gere	-4568
▁grün	-4569
▁köst	-4570
▁stau	-4571
fältig	-4572
gulden	-4573
haftig	-4574
willig	-4575
▁Aller	-4576
▁Armut	-4577
▁Beide	-4578
▁Blatt	-4579
▁Hügel	-4580
▁Sumpf	-4581
▁Säbel	-4582
▁baten	-4583
▁jenem	-4584
▁sagst	-4585
▁schwe	-4586
▁solch	-4587
▁teuer	-4588
▁toten	-4589
▁warst	-4590
digkeit	-4591
gehauen	-4592
▁Besser	-4593
▁Dingen	-4594
▁Donner	-4595
▁Hirten	-4596
▁Perlen	-4597
▁Pilger	-4598
▁Sorgen	-4599
▁Spitze	-4600
▁Thiuli	-4601
▁Wellen	-4602
▁fassen	-4603
▁heißen	-4604
▁teilte	-4605
▁völlig	-4606
▁wußten	-4607
▁Anfangs	-4608
▁Erlöser	-4609
▁Fliegen	-4610
▁Kräften	-4611
▁Zuletzt	-4612
▁breiten	-4613
▁solches	-4614
▁wachsen	-4615
▁Haustüre	-4616
▁Vermögen	-4617
▁dasselbe	-4618
▁richtete	-4619
▁Entsetzen	-4620
▁Vaterland	-4621
▁mächtigen	-4622
▁schmecken	-4623
▁sonderbare	-4624
▁verwundert	-4625
▁Prinzessinnen	-4626
▁Schneekönigin	-4627
!	-4628
Ha	-4629
gro	-4630
grä	-4631
kna	-4632
man	-4633
opp	-4634
ote	-4635
pte	-4636
rom	-4637
▁äu	-4638
Lass	-4639
arrt	-4640
beln	-4641
erei	-4642
ewei	-4643
gern	-4644
munk	-4645
rech	-4646
türe	-4647
▁Alt	-4648
▁Nuß	-4649
▁kna	-4650
▁läu	-4651
▁wus	-4652
berge	-4653
digen	-4654
ichst	-4655
ierde	-4656
ilien	-4657
ndern	-4658
reche	-4659
ucken	-4660
▁Affe	-4661
▁Bank	-4662
▁Burg	-4663
▁Eile	-4664
▁Else	-4665
▁Fing	-4666
▁Huhn	-4667
▁Last	-4668
▁Rabe	-4669
▁Reis	-4670
▁Wams	-4671
▁dien	-4672
▁erkl	-4673
▁euer	-4674
▁hieb	-4675
▁neug	-4676
▁sehn	-4677
▁umar	-4678
▁wehe	-4679
isches	-4680
leiden	-4681
puttel	-4682
ündete	-4683
▁Böses	-4684
▁Feind	-4685
▁Kröte	-4686
▁Kugel	-4687
▁Käfig	-4688
▁Nagel	-4689
▁Natur	-4690
▁Rache	-4691
▁Rennt	-4692
▁Schwä	-4693
▁Selim	-4694
▁Stuhl	-4695
▁Trank	-4696
▁Wurst	-4697
▁Ziege	-4698
▁ausge	-4699
▁bitte	-4700
▁danke	-4701
▁denkt	-4702
▁hängt	-4703
▁schüt	-4704
▁ungew	-4705
▁weich	-4706
▁übern	-4707
bleiben	-4708
brachte	-4709
gemacht	-4710
gesetzt	-4711
schauen	-4712
zusehen	-4713
ätzchen	-4714
▁Flucht	-4715
▁Kessel	-4716
▁Meilen	-4717
▁Nacken	-4718
▁Schein	-4719
▁Schulz	-4720
▁bleich	-4721
▁bringe	-4722
▁keines	-4723
▁lernen	-4724
▁meinst	-4725
▁rührte	-4726
▁sofort	-4727
▁treten	-4728
▁weisen	-4729
▁weisse	-4730
▁wollet	-4731
▁Dienste	-4732
▁Florenz	-4733
▁Knechte	-4734
▁Schenke	-4735
▁Teufels	-4736
▁Treppen	-4737
▁angetan	-4738
▁derweil	-4739
▁dunklen	-4740
▁eintrat	-4741
▁erlaubt	-4742
▁gelesen	-4743
▁größten	-4744
▁meisten	-4745
▁morgens	-4746
▁pflegte	-4747
▁stellen	-4748
▁töricht	-4749
▁wohnten	-4750
▁wussten	-4751
▁wünsche	-4752
▁Geschenk	-4753
▁befohlen	-4754
▁bekommst	-4755
▁betrogen	-4756
▁brauchst	-4757
▁eisernen	-4758
▁erreicht	-4759
▁erwarten	-4760
▁gelangte	-4761
▁glänzend	-4762
▁sammelte	-4763
▁schauten	-4764
▁schienen	-4765
▁zitterte	-4766
▁Abenteuer	-4767
▁Nachricht	-4768
▁arbeitete	-4769
▁denselben	-4770
▁erinnerte	-4771
▁herrliche	-4772
▁verwunder	-4773
▁vornehmen	-4774
▁wiederkam	-4775
▁Jungfrauen	-4776
▁Kohlenmunk	-4777
▁verwünscht	-4778
▁Gelegenheit	-4779
▁mitgebracht	-4780
▁Schatzhauser	-4781
▁Sonnenstrahl	-4782
▁Kaufmannssohn	-4783
Ge	-4784
gr	-4785
iv	-4786
Mir	-4787
hei	-4788
krä	-4789
tin	-4790
tun	-4791
ube	-4792
ume	-4793
▁Di	-4794
▁Fä	-4795
▁Rä	-4796
Dann	-4797
anze	-4798
bier	-4799
dann	-4800
denk	-4801
lass	-4802
phet	-4803
ritt	-4804
stag	-4805
tend	-4806
wohn	-4807
▁Duk	-4808
▁Hat	-4809
▁Kür	-4810
▁Mäu	-4811
▁Rot	-4812
▁Säu	-4813
▁brü	-4814
▁füt	-4815
▁trü	-4816
▁ärm	-4817
ahlte	-4818
arrte	-4819
atsch	-4820
deckt	-4821
herrn	-4822
junge	-4823
komme	-4824
linge	-4825
mütig	-4826
olgte	-4827
raute	-4828
reden	-4829
rigen	-4830
seits	-4831
smann	-4832
▁Bass	-4833
▁Drau	-4834
▁Prie	-4835
▁Spaß	-4836
▁Stel	-4837
Nichts	-4838
ackten	-4839
derben	-4840
eimnis	-4841
freund	-4842
hnchen	-4843
leiter	-4844
▁Bäuer	-4845
▁Frank	-4846
▁Gewöl	-4847
▁Kampf	-4848
▁Probe	-4849
▁Richt	-4850
▁Stand	-4851
▁Stirn	-4852
▁Wiege	-4853
▁Zelte	-4854
▁ansah	-4855
▁beweg	-4856
▁finde	-4857
▁ginge	-4858
▁küßte	-4859
▁müsst	-4860
▁sanft	-4861
▁schlü	-4862
▁stach	-4863
▁stumm	-4864
▁äußer	-4865
öpfchen	-4866
▁Bettel	-4867
▁Landes	-4868
▁Narren	-4869
▁Schild	-4870
▁Schrei	-4871
▁Sitten	-4872
▁Streit	-4873
▁befand	-4874
▁geholt	-4875
▁gemein	-4876
▁rollte	-4877
▁scharf	-4878
▁sorgen	-4879
▁voraus	-4880
▁Dukaten	-4881
▁Fingern	-4882
▁Früchte	-4883
▁Kräuter	-4884
▁Kutsche	-4885
▁	-4886
e	-4887
n	-4888
i	-4889
r	-4890
s	-4891
a	-4892
t	-4893
d	-4894
h	-4895
u	-4896
l	-4897
c	-4898
g	-4899
m	-4900
,	-4901
o	-4902
w	-4903
b	-4904
f	-4905
z	-4906
k	-4907
.	-4908
S	-4909
ü	-4910
ä	-4911
v	-4912
p	-4913
D	-4914
ö	-4915
K	-4916
H	-4917
W	-4918
ß	-4919
M	-4920
G	-4921
A	-4922
B	-4923
E	-4924
“	-4925
F	-4926
T	-4927
„	-4928
;	-4929
!	-4930
L	-4931
:	-4932
j	-4933
N	-4934
P	-4935
R	-4936
J	-4937
»	-4938
«	-4939
Z	-4940
I	-4941
V	-4942
?	-4943
‘	-4944
U	-4945
‚	-4946
–	-4947
O	-4948
’	-4949
x	-4950
-	-4951
Ä	-4952
	-4953
y	-4954
—	-4955
	-4956
C	-4957
q	-4958
	-4959
)	-4960
(	-4961
Ü	-4962
Q	-4963
́	-4964
	-4965
Ö	-4966
1	-4967
`	-4968
	-4969
8	-4970
	-4971
0	-4972
2	-4973
7	-4974
]	-4975
[	-4976
	-4977
5	-4978
*	-4979
9	-4980
'	-4981
3	-4982
=	-4983
ï	-4984
å	-4985
ç	-4986
β	-4987
‹	-4988
›	-4989
/	-4990
6	-4991
>	-4992
Y	-4993
^	-4994
|	-4995
·	-4996
