<unk>	0
<endofline>	0
<endoftext>	0
en	-0
er	-1
ch	-2
▁d	-3
ei	-4
ie	-5
un	-6
st	-7
in	-8
an	-9
▁s	-10
ein	-11
ich	-12
ge	-13
▁a	-14
on	-15
▁w	-16
sch	-17
▁die	-18
te	-19
▁S	-20
es	-21
▁der	-22
ll	-23
it	-24
▁D	-25
und	-26
▁v	-27
as	-28
ung	-29
or	-30
ar	-31
▁ein	-32
at	-33
▁A	-34
▁m	-35
▁b	-36
▁n	-37
▁z	-38
▁M	-39
▁i	-40
ten	-41
▁B	-42
▁und	-43
gen	-44
▁au	-45
em	-46
hr	-47
ur	-48
▁E	-49
▁h	-50
▁in	-51
al	-52
ter	-53
▁P	-54
der	-55
den	-56
▁f	-57
▁F	-58
et	-59
au	-60
▁ge	-61
▁K	-62
▁zu	-63
el	-64
▁G	-65
▁k	-66
▁W	-67
ür	-68
▁das	-69
icht	-70
ber	-71
eit	-72
lich	-73
ach	-74
ier	-75
▁V	-76
▁den	-77
de	-78
ro	-79
ig	-80
▁T	-81
am	-82
▁R	-83
is	-84
ion	-85
▁I	-86
ir	-87
isch	-88
▁er	-89
ben	-90
ut	-91
▁H	-92
om	-93
re	-94
us	-95
▁an	-96
▁"	-97
▁von	-98
ag	-99
ol	-100
▁U	-101
▁L	-102
▁auf	-103
▁ver	-104
and	-105
eh	-106
um	-107
ent	-108
▁g	-109
ft	-110
▁mit	-111
▁N	-112
ck	-113
▁für	-114
sen	-115
▁nicht	-116
▁ist	-117
▁im	-118
▁Z	-119
▁l	-120
kt	-121
men	-122
▁sich	-123
ra	-124
▁Die	-125
se	-126
▁so	-127
il	-128
rei	-129
▁be	-130
▁J	-131
▁Ver	-132
och	-133
▁des	-134
ann	-135
▁St	-136
ff	-137
▁un	-138
▁dem	-139
ls	-140
▁eine	-141
le	-142
ah	-143
▁hat	-144
ste	-145
▁In	-146
▁An	-147
▁es	-148
▁wir	-149
ab	-150
ahr	-151
▁aus	-152
än	-153
▁sch	-154
sp	-155
über	-156
ik	-157
▁o	-158
ehr	-159
etz	-160
sten	-161
ischen	-162
ungen	-163
▁auch	-164
▁Sch	-165
▁2	-166
▁C	-167
ern	-168
▁als	-169
▁sein	-170
cht	-171
▁wer	-172
▁dass	-173
▁bei	-174
ind	-175
▁1	-176
nen	-177
▁vor	-178
eu	-179
▁Re	-180
▁über	-181
▁wie	-182
ien	-183
▁Un	-184
llen	-185
▁sie	-186
wei	-187
▁p	-188
▁st	-189
▁t	-190
chen	-191
im	-192
▁O	-193
ver	-194
aben	-195
▁j	-196
lle	-197
op	-198
▁(	-199
▁um	-200
ser	-201
▁werden	-202
eil	-203
ation	-204
▁Er	-205
ing	-206
iel	-207
rä	-208
schl	-209
▁Pro	-210
▁Au	-211
▁Ein	-212
ün	-213
ist	-214
ungs	-215
▁nach	-216
ger	-217
ort	-218
igen	-219
ät	-220
scha	-221
ne	-222
▁ihr	-223
ill	-224
be	-225
os	-226
▁Be	-227
uss	-228
▁Ge	-229
är	-230
iv	-231
▁Das	-232
▁da	-233
▁war	-234
ön	-235
eut	-236
lei	-237
ische	-238
ot	-239
enn	-240
ige	-241
zu	-242
gr	-243
▁sind	-244
▁Der	-245
tern	-246
▁20	-247
mer	-248
▁einer	-249
art	-250
aten	-251
▁Jahr	-252
hal	-253
ang	-254
▁wird	-255
▁einen	-256
ul	-257
▁haben	-258
anz	-259
iert	-260
rau	-261
▁am	-262
▁zur	-263
fen	-264
ru	-265
ör	-266
schaft	-267
▁Sie	-268
▁noch	-269
schen	-270
▁En	-271
▁Eur	-272
he	-273
rit	-274
▁einem	-275
▁Sp	-276
rie	-277
tet	-278
iz	-279
▁Mit	-280
aus	-281
",	-282
all	-283
▁kön	-284
ahl	-285
oh	-286
▁unter	-287
▁ab	-288
end	-289
▁mehr	-290
eits	-291
▁zum	-292
pp	-293
eiter	-294
▁ent	-295
omm	-296
gt	-297
ffen	-298
wer	-299
ieren	-300
ommen	-301
▁-	-302
utz	-303
▁aber	-304
ad	-305
urch	-306
bt	-307
ück	-308
▁ich	-309
▁Vor	-310
▁sei	-311
elt	-312
est	-313
▁Ber	-314
▁all	-315
ed	-316
▁oder	-317
▁nur	-318
eine	-319
lin	-320
▁sag	-321
ner	-322
▁Ar	-323
stell	-324
▁man	-325
lichen	-326
ass	-327
▁soll	-328
ick	-329
la	-330
abe	-331
▁wur	-332
▁Aus	-333
ran	-334
▁ber	-335
▁gegen	-336
▁ander	-337
00	-338
pf	-339
üs	-340
acht	-341
dern	-342
for	-343
▁bis	-344
ler	-345
lie	-346
ht	-347
▁r	-348
sam	-349
zen	-350
etzt	-351
che	-352
▁e	-353
si	-354
ühr	-355
oll	-356
▁dar	-357
ken	-358
▁Gr	-359
olit	-360
▁Ab	-361
ionen	-362
▁durch	-363
ehen	-364
ähr	-365
▁dies	-366
ierung	-367
liche	-368
lt	-369
▁neu	-370
ok	-371
▁sp	-372
▁_	-373
▁re	-374
eg	-375
ßen	-376
hen	-377
her	-378
og	-379
tw	-380
geb	-381
kl	-382
ob	-383
▁Deut	-384
▁kann	-385
▁Bund	-386
bar	-387
▁Kon	-388
heit	-389
gel	-390
▁Zu	-391
bl	-392
war	-393
▁hatte	-394
."	-395
ehmen	-396
ert	-397
▁habe	-398
▁weiter	-399
zent	-400
iss	-401
ers	-402
tel	-403
ges	-404
▁201	-405
auf	-406
me	-407
eiten	-408
ess	-409
pt	-410
räsi	-411
dem	-412
▁Es	-413
▁Europ	-414
err	-415
▁US	-416
keit	-417
rag	-418
alt	-419
räsiden	-420
äh	-421
▁Auf	-422
▁Ma	-423
id	-424
assen	-425
ord	-426
▁Nach	-427
▁Men	-428
atz	-429
▁3	-430
▁gew	-431
▁sagte	-432
▁Reg	-433
ze	-434
gan	-435
agen	-436
eigen	-437
uch	-438
nis	-439
ög	-440
▁Wir	-441
dig	-442
imm	-443
▁wurde	-444
eben	-445
ic	-446
rü	-447
inist	-448
▁müs	-449
eich	-450
▁zwei	-451
▁Mill	-452
mal	-453
▁So	-454
▁können	-455
▁et	-456
bst	-457
ktion	-458
äu	-459
▁Fl	-460
▁wenn	-461
▁Bundes	-462
üt	-463
▁Um	-464
eb	-465
▁Ges	-466
ech	-467
zeit	-468
äch	-469
fahr	-470
arb	-471
inister	-472
▁Im	-473
▁ih	-474
▁Menschen	-475
▁Prozent	-476
ial	-477
▁muss	-478
roß	-479
▁wieder	-480
iger	-481
▁hin	-482
schland	-483
fol	-484
▁diese	-485
▁etw	-486
nah	-487
vor	-488
mit	-489
pl	-490
▁deut	-491
räsident	-492
▁Ich	-493
ats	-494
teil	-495
ster	-496
▁wo	-497
".	-498
ri	-499
▁Land	-500
ibt	-501
ekt	-502
fer	-503
halten	-504
▁Bei	-505
▁Deutschland	-506
fl	-507
iele	-508
land	-509
▁bes	-510
kommen	-511
leich	-512
unden	-513
orden	-514
▁schon	-515
ast	-516
▁Zeit	-517
▁dann	-518
▁gen	-519
olitik	-520
▁kl	-521
chte	-522
wischen	-523
fe	-524
ke	-525
ant	-526
▁bet	-527
▁Komm	-528
eld	-529
elbst	-530
▁ihre	-531
att	-532
▁Euro	-533
sche	-534
ding	-535
wie	-536
führ	-537
▁keine	-538
amit	-539
▁will	-540
icher	-541
▁gibt	-542
▁kon	-543
age	-544
ue	-545
▁lie	-546
▁Arb	-547
▁immer	-548
ap	-549
lam	-550
form	-551
öglich	-552
▁Sta	-553
aut	-554
▁Mar	-555
▁was	-556
▁ange	-557
▁Ü	-558
▁vom	-559
ow	-560
achen	-561
nte	-562
▁viel	-563
ßer	-564
▁EU	-565
▁4	-566
ma	-567
klär	-568
per	-569
tes	-570
hin	-571
ität	-572
▁unser	-573
▁Unter	-574
▁Par	-575
▁Ko	-576
ild	-577
▁ger	-578
▁seine	-579
▁Über	-580
▁dieser	-581
cher	-582
▁uns	-583
▁best	-584
schä	-585
▁kein	-586
egen	-587
▁Und	-588
▁Frau	-589
du	-590
schie	-591
ragen	-592
▁wür	-593
▁Part	-594
▁5	-595
▁eigen	-596
▁Pol	-597
▁nun	-598
▁bereits	-599
tag	-600
ak	-601
▁je	-602
lau	-603
enz	-604
ek	-605
br	-606
▁Ste	-607
ug	-608
isten	-609
▁müssen	-610
ive	-611
rum	-612
▁gem	-613
▁Mon	-614
gangen	-615
erk	-616
inde	-617
tschaft	-618
▁Jahren	-619
▁Daten	-620
▁wen	-621
▁200	-622
▁seit	-623
minister	-624
ohl	-625
ale	-626
onder	-627
▁Th	-628
öff	-629
▁eines	-630
alen	-631
ternehmen	-632
▁alle	-633
▁19	-634
fall	-635
eute	-636
für	-637
ha	-638
ierte	-639
sel	-640
stän	-641
▁Kl	-642
▁Auch	-643
000	-644
▁diesem	-645
rage	-646
▁Am	-647
▁Ent	-648
weise	-649
ition	-650
ission	-651
schei	-652
▁ins	-653
▁son	-654
ationen	-655
dr	-656
stellt	-657
▁damit	-658
▁selbst	-659
▁Ger	-660
sicht	-661
yst	-662
nung	-663
änder	-664
▁her	-665
amm	-666
▁gr	-667
ett	-668
iff	-669
zial	-670
gend	-671
▁sehr	-672
▁Poliz	-673
hne	-674
▁worden	-675
geben	-676
▁mein	-677
satz	-678
zie	-679
▁ganz	-680
▁Millionen	-681
ay	-682
▁bek	-683
▁seiner	-684
od	-685
▁Pl	-686
stand	-687
spiel	-688
andel	-689
▁Wie	-690
▁verl	-691
itz	-692
sta	-693
rat	-694
▁Herr	-695
▁zwischen	-696
fü	-697
ystem	-698
walt	-699
stag	-700
halb	-701
▁weil	-702
stellen	-703
▁Welt	-704
ud	-705
glie	-706
▁For	-707
▁geht	-708
lo	-709
▁anderen	-710
eiß	-711
▁sagt	-712
▁Europä	-713
inder	-714
äre	-715
eht	-716
ischer	-717
ts	-718
ank	-719
▁neue	-720
blem	-721
▁Se	-722
▁Al	-723
ia	-724
abei	-725
inn	-726
fte	-727
lung	-728
▁Präsident	-729
rin	-730
▁ob	-731
schäft	-732
pro	-733
▁hier	-734
▁jed	-735
so	-736
▁wurden	-737
▁ausge	-738
ard	-739
▁6	-740
▁ges	-741
▁aller	-742
▁Unternehmen	-743
▁Was	-744
bur	-745
▁Stra	-746
ften	-747
rechen	-748
ell	-749
ack	-750
▁Woch	-751
▁Da	-752
äm	-753
▁Ch	-754
ust	-755
issen	-756
lament	-757
rem	-758
adt	-759
esen	-760
esse	-761
ichten	-762
▁zurück	-763
▁jetzt	-764
▁groß	-765
reich	-766
▁etwa	-767
▁pro	-768
ält	-769
▁hät	-770
▁Verb	-771
▁beim	-772
rach	-773
hör	-774
▁Grund	-775
stens	-776
▁Bet	-777
igkeit	-778
▁8	-779
▁Intern	-780
ange	-781
igt	-782
ate	-783
ütz	-784
▁waren	-785
kon	-786
inanz	-787
▁Berlin	-788
▁sollen	-789
äng	-790
▁Vert	-791
▁erst	-792
net	-793
▁Aut	-794
ho	-795
oren	-796
qu	-797
▁sondern	-798
▁drei	-799
▁Polizei	-800
innen	-801
uß	-802
öffent	-803
PD	-804
ium	-805
ritt	-806
ip	-807
ss	-808
annt	-809
fahren	-810
rank	-811
eim	-812
▁Sicher	-813
zeu	-814
ürger	-815
our	-816
▁Recht	-817
gaben	-818
▁viele	-819
amen	-820
▁seien	-821
▁Ex	-822
ierten	-823
schutz	-824
▁Partei	-825
reit	-826
▁gef	-827
io	-828
▁Wer	-829
▁wollen	-830
▁neuen	-831
urop	-832
▁kommen	-833
▁Q	-834
▁Dem	-835
ichte	-836
▁Ä	-837
▁verb	-838
▁einge	-839
▁Or	-840
ade	-841
ce	-842
▁Her	-843
▁daß	-844
len	-845
ine	-846
unk	-847
▁Uhr	-848
dings	-849
▁Regierung	-850
▁gest	-851
heits	-852
▁wicht	-853
▁Union	-854
▁Man	-855
▁Leben	-856
▁allem	-857
wir	-858
richt	-859
▁ohne	-860
▁nie	-861
itte	-862
setz	-863
▁ihrer	-864
ohn	-865
▁Jahre	-866
aupt	-867
az	-868
▁Entw	-869
ahn	-870
▁komm	-871
▁Teil	-872
▁Parlament	-873
gang	-874
ander	-875
▁gel	-876
if	-877
▁sowie	-878
we	-879
inden	-880
▁vers	-881
▁Kommission	-882
▁Wahl	-883
ammen	-884
essen	-885
▁Arbeit	-886
▁Problem	-887
rump	-888
▁offen	-889
▁7	-890
ücht	-891
▁Ende	-892
nahme	-893
wend	-894
igung	-895
fach	-896
sk	-897
dien	-898
▁Ihr	-899
ide	-900
eite	-901
▁Mitglie	-902
▁machen	-903
öl	-904
▁Ro	-905
▁doch	-906
ossen	-907
ker	-908
▁erklär	-909
ehn	-910
ös	-911
▁Nutz	-912
▁Für	-913
▁for	-914
▁Eine	-915
unkt	-916
▁All	-917
▁Zus	-918
tro	-919
halt	-920
▁mich	-921
kehr	-922
▁ar	-923
eist	-924
urz	-925
▁dazu	-926
▁werde	-927
▁Internet	-928
▁andere	-929
▁Europa	-930
dung	-931
▁gut	-932
▁sol	-933
itzen	-934
▁Aber	-935
lage	-936
omp	-937
▁Trump	-938
akt	-939
▁Pass	-940
▁vergangen	-941
ikan	-942
▁ihren	-943
▁Them	-944
▁Hin	-945
▁Bl	-946
▁könnte	-947
▁Mehr	-948
gar	-949
ks	-950
▁dafür	-951
licher	-952
▁eben	-953
ruck	-954
▁heute	-955
ald	-956
ieß	-957
▁mö	-958
▁Med	-959
aum	-960
uer	-961
recht	-962
tur	-963
uropä	-964
▁Son	-965
ürk	-966
▁fest	-967
stimm	-968
▁USA	-969
▁polit	-970
lungen	-971
▁Doch	-972
▁Ö	-973
oten	-974
▁Politik	-975
▁seinen	-976
äter	-977
eln	-978
mus	-979
▁Br	-980
▁ersten	-981
ac	-982
▁würde	-983
reis	-984
.000	-985
▁Inter	-986
zahl	-987
mar	-988
ehör	-989
auer	-990
▁Flücht	-991
eichen	-992
anden	-993
▁beg	-994
rot	-995
ute	-996
alten	-997
▁Entwick	-998
ron	-999
▁jedoch	-1000
▁dür	-1001
off	-1002
▁etwas	-1003
isk	-1004
ätz	-1005
ov	-1006
▁hatten	-1007
▁SPD	-1008
▁De	-1009
ian	-1010
St	-1011
ub	-1012
ändern	-1013
ren	-1014
▁dieses	-1015
nten	-1016
▁blei	-1017
▁lassen	-1018
iar	-1019
▁App	-1020
ex	-1021
nahmen	-1022
one	-1023
reichen	-1024
▁Mann	-1025
▁gesch	-1026
spro	-1027
▁Dien	-1028
▁rund	-1029
▁ihn	-1030
▁Vers	-1031
▁Groß	-1032
twort	-1033
▁Haus	-1034
▁Zahl	-1035
▁einmal	-1036
hef	-1037
▁Lin	-1038
dert	-1039
mann	-1040
ucht	-1041
▁vergangenen	-1042
▁star	-1043
▁lei	-1044
falls	-1045
vers	-1046
legen	-1047
▁sollte	-1048
▁Kinder	-1049
gleich	-1050
▁Als	-1051
▁Tel	-1052
▁europä	-1053
Die	-1054
schlag	-1055
▁möglich	-1056
▁Pr	-1057
▁darauf	-1058
▁also	-1059
indestens	-1060
obil	-1061
▁Fall	-1062
▁abge	-1063
änger	-1064
▁Bericht	-1065
▁letz	-1066
▁Frage	-1067
ater	-1068
burg	-1069
gegen	-1070
▁bin	-1071
öß	-1072
▁Bürger	-1073
ständ	-1074
erson	-1075
▁wegen	-1076
rieb	-1077
▁führ	-1078
▁einz	-1079
line	-1080
zeich	-1081
▁steht	-1082
ere	-1083
▁Y	-1084
▁dabei	-1085
reten	-1086
von	-1087
folg	-1088
▁Zusammen	-1089
hand	-1090
▁Inform	-1091
▁akt	-1092
uten	-1093
▁Spiel	-1094
unft	-1095
ost	-1096
▁denn	-1097
eter	-1098
Wir	-1099
reg	-1100
▁Diese	-1101
▁Wirtschaft	-1102
ph	-1103
▁Gen	-1104
▁Geld	-1105
weg	-1106
▁9	-1107
▁Milliar	-1108
sst	-1109
▁zusam	-1110
▁diesen	-1111
▁lang	-1112
eigt	-1113
▁möchte	-1114
▁mindestens	-1115
los	-1116
orgen	-1117
).	-1118
griff	-1119
arbeit	-1120
ail	-1121
▁Schul	-1122
immen	-1123
einen	-1124
ährend	-1125
▁wäre	-1126
▁zusammen	-1127
bau	-1128
▁seinem	-1129
uchen	-1130
affen	-1131
▁Bitte	-1132
▁denen	-1133
gramm	-1134
▁recht	-1135
▁Bild	-1136
ris	-1137
äl	-1138
ode	-1139
▁Wenn	-1140
ende	-1141
▁gemein	-1142
ismus	-1143
hn	-1144
als	-1145
gie	-1146
recher	-1147
ogen	-1148
ingen	-1149
chten	-1150
ampf	-1151
▁allerdings	-1152
▁Staats	-1153
amil	-1154
▁Europäischen	-1155
aufen	-1156
prä	-1157
ook	-1158
▁Af	-1159
ingt	-1160
▁kommt	-1161
äd	-1162
DU	-1163
rad	-1164
stütz	-1165
tem	-1166
▁Frauen	-1167
bie	-1168
öt	-1169
hol	-1170
▁Neu	-1171
▁ihm	-1172
ware	-1173
unde	-1174
ativ	-1175
keiten	-1176
▁al	-1177
▁teil	-1178
▁Qu	-1179
▁Schl	-1180
ppe	-1181
schlossen	-1182
▁Lu	-1183
agt	-1184
▁geben	-1185
▁dort	-1186
▁Ur	-1187
▁Hand	-1188
▁Frank	-1189
▁Milliarden	-1190
▁Merk	-1191
ens	-1192
iell	-1193
det	-1194
iere	-1195
▁Bes	-1196
ganis	-1197
ans	-1198
▁Netz	-1199
pr	-1200
▁Passw	-1201
▁Rück	-1202
In	-1203
▁nichts	-1204
cken	-1205
▁kün	-1206
▁Art	-1207
ichts	-1208
▁Mitglied	-1209
uf	-1210
▁mir	-1211
tlich	-1212
ächst	-1213
kün	-1214
▁10	-1215
▁eh	-1216
▁Ne	-1217
▁Stadt	-1218
deut	-1219
schieden	-1220
unter	-1221
ollar	-1222
▁sicher	-1223
▁frei	-1224
▁heiß	-1225
▁Thema	-1226
olog	-1227
▁hätten	-1228
▁15	-1229
▁vorge	-1230
▁würden	-1231
ichtet	-1232
üh	-1233
▁Ha	-1234
▁El	-1235
▁aufge	-1236
▁Don	-1237
folge	-1238
licht	-1239
▁Ob	-1240
gung	-1241
okrat	-1242
▁Merkel	-1243
▁einfach	-1244
ational	-1245
chn	-1246
▁Wochen	-1247
yr	-1248
▁ex	-1249
▁davon	-1250
▁schne	-1251
angen	-1252
wach	-1253
kunft	-1254
ünf	-1255
stellung	-1256
▁Angaben	-1257
zern	-1258
▁Finanz	-1259
▁At	-1260
▁frü	-1261
sprechen	-1262
An	-1263
▁bef	-1264
▁Frei	-1265
verb	-1266
▁klar	-1267
mittel	-1268
▁arb	-1269
▁Gegen	-1270
ider	-1271
▁Gesch	-1272
ennt	-1273
▁wel	-1274
sy	-1275
▁alles	-1276
▁gleich	-1277
▁ja	-1278
▁Kar	-1279
fang	-1280
▁wirk	-1281
▁Ant	-1282
▁Fahr	-1283
gebnis	-1284
▁Arbeits	-1285
▁zwar	-1286
▁/	-1287
▁bisher	-1288
▁gar	-1289
zept	-1290
▁verst	-1291
▁Em	-1292
▁deutschen	-1293
zug	-1294
▁bel	-1295
▁besser	-1296
hält	-1297
▁beh	-1298
enden	-1299
genommen	-1300
eig	-1301
bes	-1302
wohl	-1303
▁gerade	-1304
▁gehör	-1305
▁mal	-1306
roßen	-1307
pa	-1308
immt	-1309
▁Ange	-1310
ote	-1311
▁vier	-1312
ichter	-1313
▁heißt	-1314
▁schwer	-1315
▁Verein	-1316
atur	-1317
▁Go	-1318
▁Vide	-1319
ations	-1320
str	-1321
ße	-1322
osten	-1323
▁stehen	-1324
wahl	-1325
gem	-1326
▁Mus	-1327
▁gemeinsam	-1328
wick	-1329
▁zun	-1330
▁te	-1331
▁Gem	-1332
rän	-1333
20	-1334
▁Person	-1335
▁War	-1336
▁Entschei	-1337
zess	-1338
ore	-1339
ppen	-1340
▁Russ	-1341
▁sollten	-1342
staaten	-1343
▁laut	-1344
echn	-1345
▁beiden	-1346
ib	-1347
gehen	-1348
antwort	-1349
▁Wei	-1350
fft	-1351
unktion	-1352
eint	-1353
weit	-1354
itter	-1355
▁Passwort	-1356
▁woll	-1357
),	-1358
lichkeit	-1359
rotz	-1360
kra	-1361
▁gab	-1362
▁eigenen	-1363
nach	-1364
▁Ser	-1365
▁Fir	-1366
▁besonder	-1367
Pro	-1368
▁weitere	-1369
ache	-1370
▁Denn	-1371
▁Von	-1372
gabe	-1373
mei	-1374
▁bekannt	-1375
äß	-1376
ubl	-1377
grund	-1378
▁sogar	-1379
Ich	-1380
ierungs	-1381
lang	-1382
reffen	-1383
▁Möglich	-1384
▁sehen	-1385
ital	-1386
aden	-1387
ym	-1388
▁Is	-1389
▁Dar	-1390
▁statt	-1391
werk	-1392
▁Rei	-1393
▁vert	-1394
▁gewesen	-1395
▁Vol	-1396
nal	-1397
hil	-1398
▁schw	-1399
▁Bo	-1400
co	-1401
▁Mittel	-1402
▁Medien	-1403
▁deutlich	-1404
vert	-1405
▁Famil	-1406
fern	-1407
▁derzeit	-1408
fr	-1409
anzler	-1410
ative	-1411
änd	-1412
▁Akt	-1413
▁nutz	-1414
mitt	-1415
▁öffent	-1416
▁Fre	-1417
▁Dies	-1418
▁Mün	-1419
jahr	-1420
amer	-1421
jähr	-1422
ordne	-1423
▁Flug	-1424
▁Markt	-1425
▁Minister	-1426
▁0	-1427
▁get	-1428
▁Russland	-1429
▁Min	-1430
fass	-1431
▁Le	-1432
amp	-1433
rieben	-1434
raf	-1435
▁Krit	-1436
▁tun	-1437
▁wichtig	-1438
▁Gesetz	-1439
▁Schw	-1440
▁schnell	-1441
▁18	-1442
hö	-1443
raktion	-1444
error	-1445
ember	-1446
▁großen	-1447
atür	-1448
▁Verl	-1449
scher	-1450
üd	-1451
▁macht	-1452
welt	-1453
ritten	-1454
ef	-1455
ckt	-1456
▁einige	-1457
▁weniger	-1458
vest	-1459
▁geb	-1460
ruch	-1461
Sp	-1462
▁große	-1463
▁gehen	-1464
▁.	-1465
▁Landes	-1466
▁Produ	-1467
▁Kolle	-1468
▁Sicherheits	-1469
▁sagen	-1470
▁sozial	-1471
wert	-1472
di	-1473
▁CDU	-1474
rim	-1475
▁könnten	-1476
▁fünf	-1477
digt	-1478
soft	-1479
ehörden	-1480
amt	-1481
ond	-1482
app	-1483
eicht	-1484
allen	-1485
igten	-1486
raum	-1487
legt	-1488
schw	-1489
ließ	-1490
▁Mal	-1491
▁ihrem	-1492
▁ihnen	-1493
1.	-1494
enzen	-1495
icro	-1496
lagen	-1497
▁sieht	-1498
▁Zwei	-1499
schließ	-1500
ßnahmen	-1501
▁intern	-1502
▁Gl	-1503
▁On	-1504
▁näch	-1505
ktur	-1506
▁ersch	-1507
▁Tag	-1508
grün	-1509
ling	-1510
▁Ta	-1511
▁voll	-1512
steller	-1513
▁Sol	-1514
frage	-1515
ässt	-1516
▁Geschäft	-1517
▁weit	-1518
annte	-1519
▁Mein	-1520
▁Flüchtlin	-1521
alität	-1522
geordne	-1523
▁Haupt	-1524
▁liegt	-1525
stit	-1526
derung	-1527
▁wohl	-1528
▁allen	-1529
anken	-1530
▁wenig	-1531
man	-1532
berg	-1533
▁letzten	-1534
▁ir	-1535
▁en	-1536
haus	-1537
▁hö	-1538
dro	-1539
▁Des	-1540
schuss	-1541
ßerdem	-1542
indet	-1543
▁Rat	-1544
▁meine	-1545
▁bew	-1546
osition	-1547
▁Woche	-1548
estag	-1549
zt	-1550
▁gegenüber	-1551
scht	-1552
▁Sam	-1553
ftig	-1554
▁Gew	-1555
rieg	-1556
▁Micro	-1557
▁lange	-1558
reiben	-1559
kte	-1560
ys	-1561
▁unsere	-1562
▁Beispiel	-1563
▁Stand	-1564
▁fast	-1565
gew	-1566
▁kurz	-1567
richten	-1568
atürlich	-1569
stra	-1570
etzen	-1571
zieh	-1572
▁brau	-1573
▁Weg	-1574
▁Grün	-1575
▁Den	-1576
ielt	-1577
häng	-1578
atte	-1579
▁Ergebnis	-1580
▁Ziel	-1581
▁Türk	-1582
▁gemacht	-1583
▁anderem	-1584
▁erste	-1585
führt	-1586
neh	-1587
▁Bay	-1588
▁Goog	-1589
▁krit	-1590
ager	-1591
räsidenten	-1592
schn	-1593
SU	-1594
ain	-1595
sitzen	-1596
nehmen	-1597
▁Gemein	-1598
▁Stud	-1599
▁Fol	-1600
▁Jahres	-1601
ilit	-1602
ont	-1603
ball	-1604
ilt	-1605
aff	-1606
▁hätte	-1607
arbeiter	-1608
▁zahl	-1609
fel	-1610
▁leben	-1611
bewer	-1612
fs	-1613
▁enthalten	-1614
▁System	-1615
▁aktue	-1616
▁jeder	-1617
eitet	-1618
▁während	-1619
▁wissen	-1620
samt	-1621
aher	-1622
▁Richt	-1623
▁Su	-1624
▁c	-1625
▁199	-1626
einander	-1627
ente	-1628
schlä	-1629
▁später	-1630
ützen	-1631
▁Informationen	-1632
opp	-1633
iew	-1634
▁besch	-1635
▁Jun	-1636
uter	-1637
punkt	-1638
wür	-1639
jekt	-1640
▁Hil	-1641
schluss	-1642
yp	-1643
auft	-1644
mut	-1645
▁glau	-1646
ationalen	-1647
▁AfD	-1648
▁mus	-1649
isierung	-1650
▁zufolge	-1651
ock	-1652
▁Microsoft	-1653
▁30	-1654
indest	-1655
reu	-1656
▁Techn	-1657
▁darüber	-1658
▁Regel	-1659
andid	-1660
gesetzt	-1661
▁Zukunft	-1662
▁Terror	-1663
▁finden	-1664
▁hinter	-1665
▁Män	-1666
▁Weiter	-1667
fä	-1668
bet	-1669
▁Wind	-1670
klärung	-1671
▁Fern	-1672
üssel	-1673
bild	-1674
▁Kritik	-1675
Das	-1676
irekt	-1677
▁keinen	-1678
▁Fac	-1679
▁gilt	-1680
DF	-1681
ebook	-1682
▁Fuß	-1683
▁Ju	-1684
urs	-1685
regierung	-1686
▁Entwicklung	-1687
ftware	-1688
ringen	-1689
scheiden	-1690
Chef	-1691
▁zehn	-1692
echs	-1693
ersön	-1694
isiert	-1695
▁Gesprä	-1696
▁fol	-1697
bung	-1698
▁Türkei	-1699
▁Fil	-1700
▁wirklich	-1701
▁zie	-1702
ieg	-1703
▁reg	-1704
▁unserer	-1705
▁ern	-1706
▁europäischen	-1707
gst	-1708
äten	-1709
ntag	-1710
av	-1711
▁größ	-1712
▁12	-1713
markt	-1714
▁genau	-1715
▁13	-1716
lex	-1717
▁Rechts	-1718
räge	-1719
▁14	-1720
ment	-1721
▁deutsche	-1722
▁Facebook	-1723
▁Google	-1724
▁gez	-1725
sätz	-1726
echt	-1727
▁Nie	-1728
ären	-1729
eige	-1730
▁pl	-1731
ika	-1732
▁Ham	-1733
pfer	-1734
roffen	-1735
▁Lebens	-1736
stadt	-1737
▁Web	-1738
ffiz	-1739
ret	-1740
▁Bis	-1741
▁könne	-1742
daten	-1743
▁Chr	-1744
▁konnte	-1745
gesamt	-1746
▁Datenschutz	-1747
▁lässt	-1748
▁erwar	-1749
▁Sozial	-1750
▁Handel	-1751
schaften	-1752
▁We	-1753
▁Durch	-1754
org	-1755
eile	-1756
▁16	-1757
▁Jan	-1758
▁Länder	-1759
min	-1760
rise	-1761
▁Sicherheit	-1762
▁früher	-1763
ultur	-1764
sf	-1765
▁Bar	-1766
▁ak	-1767
alition	-1768
▁erz	-1769
annten	-1770
▁X	-1771
▁Online	-1772
ournal	-1773
▁kn	-1774
ruktur	-1775
achten	-1776
itt	-1777
▁Dabei	-1778
lungs	-1779
▁Nord	-1780
reifen	-1781
heiten	-1782
merikan	-1783
▁deren	-1784
erst	-1785
ächlich	-1786
▁nah	-1787
ünen	-1788
▁Bundestag	-1789
ätze	-1790
▁per	-1791
mals	-1792
Mail	-1793
spie	-1794
▁Selbst	-1795
reitag	-1796
weis	-1797
▁Montag	-1798
▁Gru	-1799
dienst	-1800
spl	-1801
▁Sonntag	-1802
ministerium	-1803
stitut	-1804
▁25	-1805
▁vielen	-1806
▁inter	-1807
▁richt	-1808
▁Seit	-1809
▁Deutschen	-1810
▁Än	-1811
▁Namen	-1812
gesch	-1813
schein	-1814
ranz	-1815
itu	-1816
▁Ener	-1817
▁Mitgliedstaaten	-1818
.0	-1819
▁Einsatz	-1820
schied	-1821
▁Geh	-1822
stimmung	-1823
▁zeigt	-1824
ommer	-1825
ande	-1826
▁Kunden	-1827
▁Entscheidung	-1828
llt	-1829
▁zunächst	-1830
▁ebenfalls	-1831
ite	-1832
ählt	-1833
▁Anfang	-1834
▁Staat	-1835
▁Luft	-1836
▁Mär	-1837
▁hoch	-1838
▁Video	-1839
reibt	-1840
▁besonders	-1841
ober	-1842
glich	-1843
▁Hö	-1844
inger	-1845
Ver	-1846
ott	-1847
ielleicht	-1848
ows	-1849
iges	-1850
▁Freitag	-1851
▁dam	-1852
,5	-1853
haft	-1854
schul	-1855
sprochen	-1856
▁mei	-1857
▁oft	-1858
▁de	-1859
nisse	-1860
▁Apple	-1861
anten	-1862
sell	-1863
▁Europäische	-1864
orten	-1865
ikt	-1866
▁kaum	-1867
rieden	-1868
eidig	-1869
▁gegeben	-1870
ct	-1871
▁deshalb	-1872
alb	-1873
▁ü	-1874
aar	-1875
▁17	-1876
hl	-1877
ielen	-1878
Jähr	-1879
▁Pat	-1880
▁Grünen	-1881
politik	-1882
äuf	-1883
▁Nutzer	-1884
▁erklärte	-1885
▁Unterstütz	-1886
▁Ihre	-1887
beding	-1888
▁wollte	-1889
▁veröffent	-1890
▁em	-1891
euer	-1892
▁Flüchtlinge	-1893
▁verk	-1894
asst	-1895
▁Bau	-1896
▁bleiben	-1897
ult	-1898
▁Fot	-1899
▁Ermitt	-1900
artei	-1901
zwischen	-1902
▁darf	-1903
setzung	-1904
such	-1905
derungen	-1906
▁Staaten	-1907
Es	-1908
rakt	-1909
utt	-1910
▁Mobil	-1911
sol	-1912
organis	-1913
▁Ben	-1914
▁kam	-1915
ator	-1916
hnen	-1917
▁ZDF	-1918
andelt	-1919
rom	-1920
▁Damit	-1921
witter	-1922
▁Koalition	-1923
▁Bel	-1924
ölker	-1925
nt	-1926
▁irgend	-1927
ilitär	-1928
frei	-1929
ausen	-1930
reicht	-1931
up	-1932
▁heraus	-1933
ösung	-1934
otwend	-1935
▁Ho	-1936
▁Großb	-1937
setzen	-1938
▁Sep	-1939
▁br	-1940
prü	-1941
twoch	-1942
▁gepl	-1943
ächt	-1944
reise	-1945
▁Erd	-1946
▁Disk	-1947
vent	-1948
enten	-1949
▁russ	-1950
trem	-1951
▁Sen	-1952
▁Anz	-1953
▁bleibt	-1954
▁Lie	-1955
gru	-1956
▁Li	-1957
Un	-1958
▁Bayern	-1959
▁Chin	-1960
▁persön	-1961
▁jeden	-1962
lä	-1963
▁Steuer	-1964
▁meiner	-1965
▁100	-1966
ahmen	-1967
▁bie	-1968
▁entsprechen	-1969
raft	-1970
▁müsse	-1971
▁entwick	-1972
ix	-1973
teilt	-1974
asse	-1975
publ	-1976
führung	-1977
ller	-1978
achsen	-1979
▁schle	-1980
▁offenbar	-1981
▁eigentlich	-1982
▁Mittwoch	-1983
▁Umwelt	-1984
eder	-1985
leist	-1986
▁nehmen	-1987
nerstag	-1988
▁Feh	-1989
▁Syr	-1990
sehen	-1991
▁Zum	-1992
▁ben	-1993
▁Auft	-1994
▁stär	-1995
▁Schutz	-1996
esser	-1997
atsächlich	-1998
▁Fragen	-1999
dent	-2000
▁Ländern	-2001
gesetz	-2002
▁Dienstag	-2003
isches	-2004
▁Lage	-2005
llig	-2006
sent	-2007
druck	-2008
▁daran	-2009
äte	-2010
istr	-2011
cke	-2012
entr	-2013
ennen	-2014
▁Deb	-2015
zeug	-2016
▁2015	-2017
▁natürlich	-2018
▁Sprecher	-2019
gl	-2020
▁Seite	-2021
▁trotz	-2022
kung	-2023
▁Donnerstag	-2024
▁Außen	-2025
▁bekommen	-2026
▁Te	-2027
▁Bil	-2028
▁New	-2029
▁akzept	-2030
▁Probleme	-2031
▁bringen	-2032
.1	-2033
▁Jul	-2034
▁bislang	-2035
ikel	-2036
▁bede	-2037
▁weiß	-2038
▁Gesell	-2039
▁Rahmen	-2040
wor	-2041
örper	-2042
▁Tran	-2043
urf	-2044
▁Software	-2045
▁Maßnahmen	-2046
▁Comp	-2047
▁ste	-2048
▁verschieden	-2049
rain	-2050
▁Gener	-2051
schri	-2052
▁solche	-2053
▁Innen	-2054
▁erhalten	-2055
wehr	-2056
ame	-2057
wirtschaft	-2058
anwalt	-2059
▁Journal	-2060
▁Behörden	-2061
altung	-2062
haupt	-2063
▁Mo	-2064
▁Telek	-2065
▁bereit	-2066
▁erklärt	-2067
ließlich	-2068
▁Dollar	-2069
mart	-2070
▁dessen	-2071
▁stellen	-2072
▁Energie	-2073
kur	-2074
▁Mark	-2075
tete	-2076
rael	-2077
ettbewer	-2078
mäß	-2079
▁50	-2080
aß	-2081
▁Geschäfts	-2082
▁Windows	-2083
anst	-2084
▁angeb	-2085
ity	-2086
view	-2087
ordnung	-2088
▁Fest	-2089
iti	-2090
▁Form	-2091
neut	-2092
▁Nicht	-2093
▁berichtet	-2094
▁halten	-2095
▁welt	-2096
▁nächsten	-2097
▁München	-2098
ets	-2099
▁inner	-2100
▁meisten	-2101
▁dagegen	-2102
▁end	-2103
ativen	-2104
onnen	-2105
ice	-2106
ferenz	-2107
▁Verhand	-2108
▁Kat	-2109
ko	-2110
▁verm	-2111
▁Kont	-2112
▁dürfen	-2113
stehen	-2114
wiesen	-2115
iven	-2116
▁Ober	-2117
▁Kosten	-2118
▁entscheiden	-2119
Sch	-2120
▁2016	-2121
▁zudem	-2122
eitung	-2123
ument	-2124
eren	-2125
▁le	-2126
schlagen	-2127
zeitig	-2128
präsident	-2129
▁ch	-2130
reiber	-2131
▁Bundesregierung	-2132
▁sechs	-2133
▁äu	-2134
rache	-2135
cker	-2136
fert	-2137
ituation	-2138
ama	-2139
▁Abgeordne	-2140
ates	-2141
▁welche	-2142
▁Mitarbeiter	-2143
test	-2144
dresse	-2145
▁Rolle	-2146
▁türk	-2147
▁zw	-2148
alien	-2149
heim	-2150
ox	-2151
▁mehrere	-2152
▁gehört	-2153
ompl	-2154
stat	-2155
schef	-2156
▁politischen	-2157
▁weiterhin	-2158
▁Kop	-2159
▁Konzern	-2160
▁bestät	-2161
ondere	-2162
▁Unterstützung	-2163
ders	-2164
▁Fußball	-2165
▁Dort	-2166
▁Lei	-2167
des	-2168
ößer	-2169
▁Dass	-2170
▁Platz	-2171
▁gesagt	-2172
voll	-2173
▁Asy	-2174
▁1.	-2175
feld	-2176
▁funktion	-2177
issar	-2178
ure	-2179
ritte	-2180
▁Beit	-2181
red	-2182
▁Programm	-2183
aktion	-2184
▁Kanzler	-2185
▁the	-2186
kampf	-2187
▁geworden	-2188
▁wahr	-2189
▁gebe	-2190
spolitik	-2191
orn	-2192
▁Juni	-2193
▁feh	-2194
▁Monaten	-2195
ose	-2196
▁Twitter	-2197
▁Uni	-2198
yn	-2199
▁2017	-2200
▁Kontro	-2201
▁Flüchtling	-2202
▁Preis	-2203
▁Auto	-2204
▁zuvor	-2205
weisen	-2206
▁Nachrichten	-2207
ählen	-2208
▁Nov	-2209
spiels	-2210
ima	-2211
raten	-2212
▁*	-2213
elten	-2214
fäh	-2215
▁Zeitung	-2216
igte	-2217
▁Männer	-2218
▁Kampf	-2219
tember	-2220
▁eher	-2221
▁daher	-2222
teilung	-2223
▁Frankreich	-2224
seh	-2225
bert	-2226
▁stellt	-2227
▁CSU	-2228
▁Hier	-2229
ranken	-2230
▁gesam	-2231
osit	-2232
▁Verfahren	-2233
▁Zeichen	-2234
spr	-2235
▁Pf	-2236
ark	-2237
30	-2238
sichtlich	-2239
▁Dienst	-2240
ions	-2241
cen	-2242
▁versch	-2243
under	-2244
▁zul	-2245
fassungs	-2246
schau	-2247
besondere	-2248
▁Invest	-2249
▁unterst	-2250
achte	-2251
▁Gesellschaft	-2252
▁Auss	-2253
▁Bereich	-2254
▁Kollegen	-2255
▁is	-2256
▁Druck	-2257
▁März	-2258
▁Gewalt	-2259
zus	-2260
▁Laut	-2261
handel	-2262
tert	-2263
▁Kind	-2264
▁laufen	-2265
echsel	-2266
li	-2267
uar	-2268
tegr	-2269
▁Verkehr	-2270
zogen	-2271
krä	-2272
▁September	-2273
IN	-2274
▁Mai	-2275
kar	-2276
▁scheint	-2277
ziehen	-2278
ekte	-2279
▁Wissen	-2280
▁ho	-2281
rechte	-2282
ießen	-2283
ünd	-2284
▁Wirtschafts	-2285
kauf	-2286
port	-2287
▁Tagen	-2288
ase	-2289
▁brit	-2290
abend	-2291
▁Gel	-2292
▁Chef	-2293
ettbewerb	-2294
▁Me	-2295
rimin	-2296
▁größer	-2297
▁Stunden	-2298
ragt	-2299
funk	-2300
kten	-2301
▁Erst	-2302
wär	-2303
▁1,	-2304
▁schaffen	-2305
▁Tex	-2306
▁Verbrau	-2307
fil	-2308
▁Tod	-2309
▁einigen	-2310
hof	-2311
▁Möglichkeit	-2312
▁Christ	-2313
▁wirtschaft	-2314
▁of	-2315
▁Co	-2316
▁Jugend	-2317
▁abzu	-2318
▁Einw	-2319
spielsweise	-2320
▁findet	-2321
▁führen	-2322
"-	-2323
▁Außerdem	-2324
▁Dro	-2325
..	-2326
abhäng	-2327
▁Mut	-2328
nehmer	-2329
▁finanz	-2330
▁Sonder	-2331
ome	-2332
undert	-2333
spar	-2334
schung	-2335
bel	-2336
dacht	-2337
liegen	-2338
pen	-2339
ule	-2340
inter	-2341
▁Ad	-2342
▁Chan	-2343
tler	-2344
pfen	-2345
system	-2346
▁Kommun	-2347
ähn	-2348
▁el	-2349
ständig	-2350
▁Anzeige	-2351
iker	-2352
▁Geb	-2353
▁sogen	-2354
▁anders	-2355
fur	-2356
▁Ide	-2357
▁Gericht	-2358
ünst	-2359
iffen	-2360
bend	-2361
af	-2362
meister	-2363
unkte	-2364
▁ging	-2365
▁Nacht	-2366
▁allein	-2367
▁Tage	-2368
▁Sk	-2369
▁Süd	-2370
fordert	-2371
▁knapp	-2372
Dollar	-2373
atten	-2374
▁aut	-2375
▁hält	-2376
▁Hoch	-2377
die	-2378
▁zeigen	-2379
▁stark	-2380
arm	-2381
▁verw	-2382
▁Empf	-2383
gesehen	-2384
inen	-2385
ücken	-2386
ime	-2387
▁Asyl	-2388
▁Januar	-2389
▁zumindest	-2390
▁damals	-2391
ustiz	-2392
▁erm	-2393
▁erneut	-2394
inner	-2395
istischen	-2396
▁pr	-2397
zlich	-2398
▁Nun	-2399
sellschaft	-2400
▁Deutsche	-2401
bei	-2402
blick	-2403
▁Bahn	-2404
▁neben	-2405
▁Hinter	-2406
▁Blick	-2407
ief	-2408
▁klein	-2409
▁Gesund	-2410
verkehr	-2411
▁Nur	-2412
gestellt	-2413
erdings	-2414
▁Verantwort	-2415
▁außer	-2416
▁politische	-2417
ons	-2418
iet	-2419
DP	-2420
reter	-2421
▁Ph	-2422
▁San	-2423
▁Führ	-2424
▁stimmen	-2425
▁Tat	-2426
▁Berliner	-2427
▁2014	-2428
▁Wohn	-2429
▁Angeb	-2430
ufen	-2431
▁Vorschlag	-2432
▁begr	-2433
▁Sport	-2434
▁Wasser	-2435
▁'	-2436
▁Smart	-2437
ax	-2438
völker	-2439
▁22	-2440
iken	-2441
verständ	-2442
ause	-2443
▁insgesamt	-2444
itel	-2445
▁Syrien	-2446
dete	-2447
▁Okt	-2448
▁Artikel	-2449
▁beispielsweise	-2450
zer	-2451
▁gl	-2452
▁Erfolg	-2453
omat	-2454
reiche	-2455
▁Tr	-2456
▁Region	-2457
▁amerikan	-2458
ene	-2459
pd	-2460
▁China	-2461
▁erfolg	-2462
▁Tages	-2463
▁zweiten	-2464
▁Samstag	-2465
▁Situation	-2466
▁Oktober	-2467
▁Zudem	-2468
Mit	-2469
▁Version	-2470
▁dro	-2471
▁Presse	-2472
führer	-2473
staat	-2474
▁Fä	-2475
▁Eigen	-2476
ände	-2477
schläge	-2478
▁Pfl	-2479
ifiz	-2480
▁Macht	-2481
fort	-2482
▁schl	-2483
▁40	-2484
zeichnet	-2485
▁gern	-2486
emal	-2487
gericht	-2488
▁Gleich	-2489
▁gute	-2490
▁versuchen	-2491
gef	-2492
▁Beruf	-2493
utet	-2494
▁betroffen	-2495
lay	-2496
▁Parlaments	-2497
zü	-2498
▁Kir	-2499
▁inzwischen	-2500
▁vielleicht	-2501
geber	-2502
verfahren	-2503
dust	-2504
igkeiten	-2505
▁verhin	-2506
▁Geschichte	-2507
ationale	-2508
lass	-2509
▁Dann	-2510
▁Zusammenarbeit	-2511
▁,	-2512
▁gek	-2513
▁weiteren	-2514
anach	-2515
IT	-2516
▁jün	-2517
sterreich	-2518
▁prä	-2519
ehe	-2520
▁24	-2521
orte	-2522
▁gefähr	-2523
gn	-2524
rauen	-2525
▁Demokrat	-2526
olf	-2527
▁tatsächlich	-2528
ift	-2529
▁liegen	-2530
räum	-2531
usst	-2532
DR	-2533
undes	-2534
verl	-2535
laub	-2536
▁hervor	-2537
▁Juli	-2538
▁Eltern	-2539
perten	-2540
leben	-2541
▁Ele	-2542
zip	-2543
▁Waffen	-2544
hung	-2545
▁Familien	-2546
mand	-2547
eicher	-2548
▁Allerdings	-2549
itäten	-2550
Kon	-2551
liches	-2552
▁Kraft	-2553
▁arbeiten	-2554
abil	-2555
dustrie	-2556
▁Angriff	-2557
▁Präsidenten	-2558
sb	-2559
▁eigene	-2560
▁Kap	-2561
▁It	-2562
reisen	-2563
ry	-2564
▁La	-2565
▁Hilfe	-2566
▁Priv	-2567
50	-2568
▁Streit	-2569
▁Gef	-2570
▁Red	-2571
itze	-2572
alter	-2573
▁zuletzt	-2574
ehörde	-2575
▁dürfte	-2576
▁Betrieb	-2577
hang	-2578
▁Wort	-2579
▁National	-2580
▁2018	-2581
▁kosten	-2582
rifft	-2583
länder	-2584
▁Opfer	-2585
▁ähn	-2586
äum	-2587
▁Prozess	-2588
▁künftig	-2589
▁Mich	-2590
▁qu	-2591
▁Organis	-2592
▁stell	-2593
Vor	-2594
▁Volks	-2595
▁Pap	-2596
son	-2597
uelle	-2598
▁Krieg	-2599
bracht	-2600
▁kommenden	-2601
▁Di	-2602
rech	-2603
▁teilte	-2604
▁überhaupt	-2605
hein	-2606
▁11	-2607
▁unseren	-2608
▁Familie	-2609
han	-2610
▁ehemal	-2611
▁Fraktion	-2612
▁November	-2613
▁einzel	-2614
halte	-2615
▁Schwei	-2616
ual	-2617
dre	-2618
▁Dr	-2619
unt	-2620
▁iP	-2621
lassen	-2622
▁verfü	-2623
▁bestimm	-2624
enze	-2625
▁Seiten	-2626
führen	-2627
abr	-2628
▁Dez	-2629
▁Apr	-2630
▁insbesondere	-2631
▁Kom	-2632
▁Personen	-2633
▁IS	-2634
ou	-2635
esp	-2636
▁einzu	-2637
▁hoh	-2638
▁hinaus	-2639
schrän	-2640
▁wider	-2641
▁höher	-2642
▁Regierungs	-2643
öglichen	-2644
▁Aug	-2645
▁Put	-2646
äus	-2647
▁Bank	-2648
▁reag	-2649
▁April	-2650
▁Vertrag	-2651
▁Grie	-2652
erv	-2653
▁Diskuss	-2654
▁Sommer	-2655
▁Bran	-2656
▁Musik	-2657
ipf	-2658
linie	-2659
▁nutzen	-2660
▁Einz	-2661
▁Leute	-2662
▁Kil	-2663
ierungen	-2664
▁empf	-2665
ux	-2666
kungen	-2667
▁Ihnen	-2668
▁hal	-2669
spruch	-2670
▁Dezember	-2671
halts	-2672
inge	-2673
▁Univers	-2674
▁Kn	-2675
▁Debatte	-2676
Jährige	-2677
lern	-2678
▁pass	-2679
▁techn	-2680
are	-2681
stelle	-2682
ommission	-2683
ies	-2684
kret	-2685
SA	-2686
▁hieß	-2687
Der	-2688
odell	-2689
▁Heim	-2690
▁Telef	-2691
maß	-2692
rechts	-2693
▁Beg	-2694
▁angekün	-2695
treten	-2696
▁dpa	-2697
▁gekommen	-2698
fragen	-2699
duz	-2700
▁Sh	-2701
▁Öff	-2702
▁Rad	-2703
ull	-2704
gesichts	-2705
▁Film	-2706
▁zusätz	-2707
▁seines	-2708
ette	-2709
sitzende	-2710
ranzös	-2711
▁Bür	-2712
racht	-2713
▁The	-2714
digen	-2715
▁fal	-2716
zentr	-2717
▁Gespräch	-2718
baren	-2719
▁rel	-2720
bedingungen	-2721
▁Buch	-2722
▁Telekom	-2723
▁kompl	-2724
▁Computer	-2725
öst	-2726
▁Straf	-2727
äuft	-2728
durch	-2729
▁Mehrheit	-2730
▁innerhalb	-2731
ämlich	-2732
▁Rede	-2733
▁Mig	-2734
▁Kommissar	-2735
sto	-2736
▁Untersuch	-2737
▁Met	-2738
▁länger	-2739
▁Inf	-2740
ösen	-2741
geln	-2742
rief	-2743
stieg	-2744
▁Verbraucher	-2745
▁Fehler	-2746
hilfe	-2747
▁sprechen	-2748
tens	-2749
▁2013	-2750
ante	-2751
▁offiz	-2752
▁bevor	-2753
ork	-2754
üss	-2755
▁Mitte	-2756
▁Verfü	-2757
▁on	-2758
▁gelten	-2759
▁Meinung	-2760
griffen	-2761
tt	-2762
▁disk	-2763
orf	-2764
ire	-2765
ausch	-2766
orgt	-2767
▁ne	-2768
istische	-2769
els	-2770
ters	-2771
arbeitung	-2772
▁Partner	-2773
▁Fort	-2774
ormal	-2775
▁hei	-2776
▁unterstütz	-2777
▁Viele	-2778
nete	-2779
etten	-2780
▁Nieder	-2781
▁notwend	-2782
▁Politiker	-2783
▁unbe	-2784
aly	-2785
▁Not	-2786
leg	-2787
arf	-2788
▁Mac	-2789
ämpf	-2790
hei	-2791
ikation	-2792
▁Herrn	-2793
▁Augen	-2794
ommt	-2795
th	-2796
serv	-2797
▁Mot	-2798
▁Sa	-2799
bare	-2800
Er	-2801
leiten	-2802
möglich	-2803
kraine	-2804
ath	-2805
pft	-2806
sex	-2807
frist	-2808
▁Opp	-2809
indung	-2810
ändert	-2811
▁Bevölker	-2812
▁Klima	-2813
▁nämlich	-2814
iver	-2815
▁Frankfur	-2816
▁Griechen	-2817
ign	-2818
▁Vergleich	-2819
▁direkt	-2820
osk	-2821
▁Lösung	-2822
ungsant	-2823
▁musste	-2824
ört	-2825
uell	-2826
▁Plan	-2827
▁erreichen	-2828
▁jewei	-2829
▁Kin	-2830
com	-2831
▁(1	-2832
jährige	-2833
tragen	-2834
ranten	-2835
▁wolle	-2836
▁demnach	-2837
schafts	-2838
▁Projekt	-2839
iko	-2840
uellen	-2841
▁Köl	-2842
▁Schritt	-2843
▁Stell	-2844
▁Während	-2845
abl	-2846
▁Ru	-2847
olle	-2848
geh	-2849
stum	-2850
reiten	-2851
▁gebracht	-2852
onstr	-2853
▁handelt	-2854
weile	-2855
▁Wieder	-2856
▁Firmen	-2857
äufig	-2858
▁Klein	-2859
▁Je	-2860
▁Verteidig	-2861
▁unterstützen	-2862
▁Kurz	-2863
immer	-2864
▁Dieser	-2865
▁Wettbewerb	-2866
▁Ist	-2867
▁besteht	-2868
stoff	-2869
▁meinen	-2870
edig	-2871
ücke	-2872
Ein	-2873
zahlen	-2874
ient	-2875
▁Team	-2876
▁Smartph	-2877
▁Abend	-2878
▁paar	-2879
▁Start	-2880
▁mittler	-2881
▁Ort	-2882
▁23	-2883
▁priv	-2884
▁Mü	-2885
standen	-2886
▁jem	-2887
▁Haft	-2888
▁Kultur	-2889
▁Inst	-2890
▁Deshalb	-2891
▁richtig	-2892
ritann	-2893
▁muß	-2894
▁Italien	-2895
▁erg	-2896
ipp	-2897
stimmungen	-2898
LIN	-2899
▁beteil	-2900
▁Raum	-2901
▁Parteien	-2902
eiger	-2903
ritannien	-2904
Präsident	-2905
denken	-2906
leichen	-2907
▁spe	-2908
etter	-2909
rast	-2910
▁darum	-2911
▁interess	-2912
isieren	-2913
▁Feb	-2914
▁ernst	-2915
▁sonst	-2916
stre	-2917
▁acht	-2918
rate	-2919
ruar	-2920
ommun	-2921
▁Wert	-2922
▁auszu	-2923
elfen	-2924
netz	-2925
▁verz	-2926
anwaltschaft	-2927
▁Eben	-2928
▁Neben	-2929
▁UN	-2930
igital	-2931
▁Februar	-2932
▁gestellt	-2933
▁folgen	-2934
bank	-2935
▁Fa	-2936
▁Bilder	-2937
▁Weise	-2938
▁Oder	-2939
▁Test	-2940
ängt	-2941
▁Kranken	-2942
▁Minuten	-2943
derte	-2944
▁Ins	-2945
▁Stre	-2946
▁erhö	-2947
▁indem	-2948
▁schließlich	-2949
▁Bot	-2950
▁Großbritannien	-2951
▁schwier	-2952
▁bringt	-2953
▁kleinen	-2954
▁Militär	-2955
▁Post	-2956
rab	-2957
▁Studie	-2958
arbeiten	-2959
▁sozialen	-2960
▁Donald	-2961
▁Geheim	-2962
▁Telefon	-2963
▁bem	-2964
▁Anw	-2965
▁Justiz	-2966
▁FDP	-2967
▁du	-2968
▁Jetzt	-2969
▁grund	-2970
▁wes	-2971
▁Interview	-2972
▁Brüssel	-2973
▁setzen	-2974
gruppe	-2975
OS	-2976
▁französ	-2977
▁Tor	-2978
ediglich	-2979
▁spricht	-2980
gress	-2981
chner	-2982
▁Leist	-2983
agement	-2984
staben	-2985
Adresse	-2986
eho	-2987
Ber	-2988
▁Institut	-2989
▁Sicht	-2990
ologie	-2991
rauch	-2992
▁Mutter	-2993
▁Islam	-2994
▁leg	-2995
▁He	-2996
▁Israel	-2997
▁Angela	-2998
▁Pflicht	-2999
oss	-3000
ätzen	-3001
ickt	-3002
▁äußer	-3003
▁erf	-3004
▁Verfügung	-3005
▁ö	-3006
orge	-3007
▁Straßen	-3008
▁Zusammenhang	-3009
▁:	-3010
äst	-3011
row	-3012
▁Lehr	-3013
▁Gebie	-3014
kore	-3015
▁Dazu	-3016
▁Hamburg	-3017
laden	-3018
▁stärker	-3019
ina	-3020
erweise	-3021
▁Bek	-3022
sych	-3023
▁unterschied	-3024
▁müssten	-3025
▁konnten	-3026
▁europäische	-3027
▁Besuch	-3028
▁versucht	-3029
zeichen	-3030
▁sofort	-3031
▁führt	-3032
burger	-3033
samm	-3034
digte	-3035
ones	-3036
rop	-3037
▁weg	-3038
▁ru	-3039
ivil	-3040
▁Bef	-3041
oper	-3042
ichtete	-3043
ins	-3044
▁erreicht	-3045
eldet	-3046
schließen	-3047
AN	-3048
elle	-3049
▁Stein	-3050
▁Kern	-3051
kräfte	-3052
▁darin	-3053
unge	-3054
Ab	-3055
▁Zahlen	-3056
artner	-3057
wand	-3058
▁Konfl	-3059
dessen	-3060
▁beton	-3061
old	-3062
▁Thom	-3063
▁Job	-3064
dächt	-3065
▁zuge	-3066
chter	-3067
▁aktuellen	-3068
▁Industrie	-3069
aat	-3070
ehnt	-3071
▁Ris	-3072
abel	-3073
chef	-3074
▁Stutt	-3075
▁Ost	-3076
wagen	-3077
▁Hersteller	-3078
▁Bezieh	-3079
▁Beschäft	-3080
▁schreibt	-3081
▁Car	-3082
▁sieben	-3083
▁erw	-3084
▁anzu	-3085
bieter	-3086
▁Demokratie	-3087
▁Zugang	-3088
▁obwohl	-3089
▁Privat	-3090
▁Dis	-3091
gemein	-3092
▁Seeho	-3093
▁Prov	-3094
ksam	-3095
▁Empfeh	-3096
ehm	-3097
▁August	-3098
▁Höhe	-3099
Re	-3100
▁Hel	-3101
▁Umsatz	-3102
erin	-3103
▁Richter	-3104
▁Verhandlungen	-3105
pflicht	-3106
▁tragen	-3107
öllig	-3108
▁größten	-3109
▁Bus	-3110
▁fordert	-3111
▁brauchen	-3112
▁Fach	-3113
▁internationalen	-3114
▁gesp	-3115
▁fort	-3116
▁Gruppe	-3117
▁Monate	-3118
echnet	-3119
▁Einzel	-3120
▁bald	-3121
▁Bas	-3122
▁Det	-3123
▁and	-3124
▁Mitglieder	-3125
les	-3126
▁Kopf	-3127
▁bestehen	-3128
▁Paris	-3129
▁lin	-3130
akte	-3131
▁ganze	-3132
▁Antwort	-3133
▁Wider	-3134
▁Bedeut	-3135
sicher	-3136
verband	-3137
fung	-3138
▁Griechenland	-3139
oment	-3140
heb	-3141
▁setzt	-3142
own	-3143
agentur	-3144
▁Dok	-3145
▁Kur	-3146
ierende	-3147
▁Noch	-3148
stein	-3149
...	-3150
▁Vier	-3151
wurf	-3152
▁60	-3153
▁Kandid	-3154
publik	-3155
▁Wahr	-3156
▁Är	-3157
▁Opposition	-3158
▁Initi	-3159
itten	-3160
ener	-3161
ähl	-3162
▁000	-3163
▁Frü	-3164
▁Möglichkeiten	-3165
umm	-3166
▁erwartet	-3167
▁Zur	-3168
▁Gefahr	-3169
gern	-3170
ael	-3171
▁Schn	-3172
buch	-3173
▁Schon	-3174
▁Peter	-3175
isse	-3176
ochter	-3177
ymp	-3178
fallen	-3179
▁Öffent	-3180
länd	-3181
sport	-3182
▁angem	-3183
▁darunter	-3184
▁Elekt	-3185
unst	-3186
wegen	-3187
▁unterstützt	-3188
▁lediglich	-3189
.2	-3190
zeuge	-3191
läss	-3192
Politik	-3193
mäßig	-3194
▁sowohl	-3195
▁Wach	-3196
dpa	-3197
▁warum	-3198
wegung	-3199
▁angekündigt	-3200
▁Bevölkerung	-3201
last	-3202
▁verantwort	-3203
▁Frieden	-3204
okraten	-3205
▁Beh	-3206
bo	-3207
ches	-3208
▁gefunden	-3209
▁Angst	-3210
▁nutzt	-3211
▁Verantwortung	-3212
uren	-3213
ähler	-3214
▁Punkt	-3215
▁Bedeutung	-3216
▁Mio	-3217
▁Rund	-3218
▁sprach	-3219
▁Ukraine	-3220
itzt	-3221
▁übr	-3222
▁inform	-3223
utzt	-3224
▁Kön	-3225
nern	-3226
aler	-3227
▁ebenso	-3228
▁rech	-3229
▁Sitz	-3230
▁Themen	-3231
▁wiederhol	-3232
rinzip	-3233
▁höch	-3234
zon	-3235
▁Stellen	-3236
▁füh	-3237
▁Abgeordneten	-3238
rich	-3239
▁bietet	-3240
▁to	-3241
▁Vort	-3242
EG	-3243
auen	-3244
▁Thomas	-3245
gelt	-3246
kennen	-3247
▁IT	-3248
▁Treffen	-3249
arbeitet	-3250
▁Nutzung	-3251
▁öffentlichen	-3252
igit	-3253
mittag	-3254
▁verletzt	-3255
ahren	-3256
schriften	-3257
▁Folgen	-3258
alk	-3259
rainer	-3260
App	-3261
▁Verfassungs	-3262
ake	-3263
▁helfen	-3264
▁heut	-3265
ai	-3266
▁Änder	-3267
zeugen	-3268
bringen	-3269
eten	-3270
▁Bundesk	-3271
rak	-3272
yte	-3273
▁Quart	-3274
par	-3275
▁diskut	-3276
rö	-3277
pdate	-3278
▁erk	-3279
istor	-3280
▁weltweit	-3281
fühl	-3282
zte	-3283
▁Per	-3284
▁posit	-3285
▁Richtung	-3286
▁Aktion	-3287
vol	-3288
deten	-3289
ören	-3290
teten	-3291
▁Warum	-3292
▁stand	-3293
was	-3294
icken	-3295
wendung	-3296
affe	-3297
▁TV	-3298
mens	-3299
▁genug	-3300
▁zeig	-3301
▁Konkur	-3302
itionen	-3303
▁As	-3304
▁Pal	-3305
▁Prof	-3306
folgt	-3307
▁21	-3308
forder	-3309
drück	-3310
ellen	-3311
▁Trotz	-3312
▁Komment	-3313
▁Schm	-3314
▁Teilen	-3315
▁Firma	-3316
schaffen	-3317
▁Ama	-3318
öhn	-3319
▁Wahlkampf	-3320
losen	-3321
ängst	-3322
▁danach	-3323
▁verur	-3324
äne	-3325
▁Journalisten	-3326
▁Viel	-3327
▁Gu	-3328
▁Kanzlerin	-3329
▁bedeutet	-3330
▁solchen	-3331
▁leicht	-3332
▁Mart	-3333
▁erfü	-3334
▁27	-3335
▁Seehofer	-3336
PI	-3337
▁Berichter	-3338
ington	-3339
▁2012	-3340
▁Amts	-3341
oder	-3342
ktionen	-3343
EL	-3344
▁nahe	-3345
▁Dom	-3346
sequ	-3347
▁taz	-3348
▁Foto	-3349
▁Kor	-3350
▁Fernseh	-3351
fassung	-3352
▁funktioniert	-3353
stritten	-3354
opul	-3355
formen	-3356
▁Städ	-3357
üm	-3358
▁veröffentlicht	-3359
▁umf	-3360
lig	-3361
▁ihres	-3362
▁völlig	-3363
ült	-3364
▁verloren	-3365
uk	-3366
olz	-3367
▁Mail	-3368
onds	-3369
Pl	-3370
▁nachdem	-3371
▁handel	-3372
ämpfen	-3373
üsse	-3374
▁unver	-3375
digung	-3376
▁Interesse	-3377
anischen	-3378
▁Alle	-3379
▁verein	-3380
▁Experten	-3381
▁FC	-3382
▁Wissenschaft	-3383
leitet	-3384
iegen	-3385
▁Ak	-3386
▁dr	-3387
wärt	-3388
▁ließ	-3389
▁verhindern	-3390
▁Text	-3391
klar	-3392
rägt	-3393
▁nimmt	-3394
▁Amt	-3395
▁lau	-3396
▁Sal	-3397
▁Prem	-3398
warz	-3399
▁Rechte	-3400
scheinlich	-3401
▁genommen	-3402
▁Ter	-3403
▁blie	-3404
ash	-3405
Be	-3406
▁Hei	-3407
jährigen	-3408
▁staat	-3409
mehr	-3410
▁28	-3411
▁Bew	-3412
mitte	-3413
ministerin	-3414
dungen	-3415
▁Lö	-3416
▁Iran	-3417
▁kleine	-3418
lock	-3419
weiter	-3420
▁Beam	-3421
▁jede	-3422
▁besten	-3423
lleg	-3424
▁läuft	-3425
▁Cl	-3426
sprache	-3427
beh	-3428
Ge	-3429
▁ur	-3430
▁außerdem	-3431
▁Ausschuss	-3432
▁Bundestags	-3433
▁Con	-3434
ometer	-3435
gesellschaft	-3436
▁ung	-3437
▁kor	-3438
▁entschieden	-3439
▁Benutz	-3440
▁Stu	-3441
agaz	-3442
lauf	-3443
hafen	-3444
bildung	-3445
▁Alex	-3446
▁Kontrolle	-3447
▁Bre	-3448
▁erhält	-3449
▁Abkommen	-3450
▁Verwalt	-3451
ängen	-3452
▁niemand	-3453
wo	-3454
▁neuer	-3455
▁alten	-3456
▁solle	-3457
▁iPh	-3458
isierte	-3459
will	-3460
platz	-3461
,9	-3462
▁einzige	-3463
▁Hoff	-3464
▁Strom	-3465
ogan	-3466
▁Ansicht	-3467
ER	-3468
▁Stellung	-3469
▁begrü	-3470
▁glaube	-3471
▁Folge	-3472
seite	-3473
▁Strate	-3474
▁zweite	-3475
hältnis	-3476
spricht	-3477
▁Les	-3478
▁Michael	-3479
gart	-3480
gehend	-3481
▁beschäft	-3482
▁Änderungsant	-3483
gner	-3484
▁öffentlich	-3485
arten	-3486
▁gewähr	-3487
▁leider	-3488
bruch	-3489
das	-3490
änge	-3491
▁Aktiv	-3492
ohner	-3493
▁Feuer	-3494
▁Urteil	-3495
iellen	-3496
ka	-3497
▁Arbeitspl	-3498
LINE	-3499
▁beide	-3500
ausschuss	-3501
▁junge	-3502
ev	-3503
sitz	-3504
▁Stat	-3505
NLINE	-3506
▁Bü	-3507
stimmen	-3508
üler	-3509
assung	-3510
ipfel	-3511
geld	-3512
tworten	-3513
▁ro	-3514
En	-3515
▁Lond	-3516
troll	-3517
Vers	-3518
▁anderer	-3519
▁braucht	-3520
▁Detail	-3521
▁Woh	-3522
ias	-3523
▁Rel	-3524
▁Volk	-3525
▁Linux	-3526
▁machte	-3527
▁einst	-3528
▁Straße	-3529
ienen	-3530
acken	-3531
▁%	-3532
▁Halb	-3533
▁Beginn	-3534
sprecher	-3535
▁zurückge	-3536
ings	-3537
ront	-3538
,2	-3539
▁Dat	-3540
▁mut	-3541
▁hinzu	-3542
statt	-3543
▁PC	-3544
izin	-3545
▁Open	-3546
ement	-3547
fluss	-3548
▁Putin	-3549
steuer	-3550
▁26	-3551
▁80	-3552
rug	-3553
imme	-3554
▁demokrat	-3555
▁bitte	-3556
▁fl	-3557
▁aufzu	-3558
▁Europas	-3559
ertig	-3560
▁Abstimmung	-3561
▁kur	-3562
mlich	-3563
▁Andre	-3564
▁einger	-3565
miss	-3566
▁Ed	-3567
konferenz	-3568
anien	-3569
▁Erfahr	-3570
▁geführt	-3571
▁Sache	-3572
anw	-3573
▁entfern	-3574
▁russischen	-3575
▁Erk	-3576
▁überprü	-3577
▁Wachstum	-3578
ennung	-3579
▁Angebot	-3580
▁Atom	-3581
▁spielen	-3582
▁prof	-3583
kraft	-3584
▁198	-3585
uche	-3586
schnitt	-3587
ines	-3588
▁West	-3589
▁Ja	-3590
So	-3591
▁Port	-3592
fähig	-3593
▁mittlerweile	-3594
▁Ac	-3595
▁Registr	-3596
▁Täter	-3597
älfte	-3598
▁u	-3599
▁verschiedenen	-3600
istisch	-3601
amme	-3602
spräsident	-3603
sie	-3604
▁Freund	-3605
?"	-3606
Reg	-3607
bahn	-3608
▁+	-3609
▁erstmals	-3610
▁(2	-3611
▁gehören	-3612
rift	-3613
iffer	-3614
▁bl	-3615
▁ONLINE	-3616
schätz	-3617
met	-3618
▁Ol	-3619
▁Kamer	-3620
▁Gesundheits	-3621
▁Offen	-3622
wegs	-3623
▁Ausland	-3624
▁hingegen	-3625
!"	-3626
▁Obama	-3627
etzte	-3628
▁wollten	-3629
▁Öffentlichkeit	-3630
▁Interessen	-3631
aren	-3632
▁schrieb	-3633
▁Eng	-3634
mt	-3635
▁fä	-3636
merksam	-3637
▁Res	-3638
▁Grenze	-3639
▁he	-3640
▁To	-3641
▁nöt	-3642
uern	-3643
ize	-3644
,4	-3645
ender	-3646
▁hoff	-3647
wart	-3648
stands	-3649
Aus	-3650
▁London	-3651
kel	-3652
▁Österreich	-3653
▁konk	-3654
▁Andro	-3655
bereich	-3656
troffen	-3657
▁Vis	-3658
▁York	-3659
▁Unternehmens	-3660
,7	-3661
▁AR	-3662
▁Spitzen	-3663
▁Net	-3664
▁För	-3665
uhr	-3666
Wenn	-3667
▁Diskussion	-3668
▁Tim	-3669
▁bed	-3670
▁Verkehrs	-3671
▁überra	-3672
Kommission	-3673
▁Weil	-3674
örung	-3675
fter	-3676
ograf	-3677
,6	-3678
▁neues	-3679
:1	-3680
▁Analy	-3681
spartei	-3682
▁verlassen	-3683
rist	-3684
▁Heraus	-3685
ländern	-3686
▁geschlossen	-3687
▁Rom	-3688
▁Miss	-3689
auern	-3690
▁Super	-3691
▁ausreichen	-3692
enntnis	-3693
Man	-3694
▁Empfehlungen	-3695
▁online	-3696
▁wichtige	-3697
schließend	-3698
▁wenige	-3699
mitteln	-3700
lose	-3701
▁Grenzen	-3702
eils	-3703
▁Vater	-3704
▁Vereinigten	-3705
fälle	-3706
▁Beim	-3707
201	-3708
teilen	-3709
ssystem	-3710
▁Integr	-3711
frieden	-3712
▁Standard	-3713
▁großer	-3714
▁Hintergrund	-3715
▁Grenz	-3716
▁Vergangen	-3717
▁keiner	-3718
▁Heimat	-3719
▁endlich	-3720
attform	-3721
▁jedem	-3722
▁digit	-3723
▁1/	-3724
▁Prä	-3725
▁Air	-3726
▁Dan	-3727
fahrt	-3728
▁fü	-3729
haltung	-3730
ücksicht	-3731
CDU	-3732
▁alte	-3733
▁normal	-3734
▁Morgen	-3735
2-	-3736
▁erlau	-3737
▁Mensch	-3738
▁Stuttgart	-3739
,3	-3740
▁Gut	-3741
▁ziehen	-3742
▁2000	-3743
ution	-3744
ielle	-3745
▁Reihe	-3746
ausende	-3747
illen	-3748
folgen	-3749
älter	-3750
▁Polizisten	-3751
▁jüng	-3752
etzung	-3753
▁größte	-3754
▁..	-3755
▁vorher	-3756
▁Personal	-3757
richtung	-3758
▁präsent	-3759
▁Seine	-3760
ehren	-3761
▁Reform	-3762
innt	-3763
▁Ged	-3764
▁gemeinsamen	-3765
pol	-3766
felder	-3767
▁Du	-3768
▁2.	-3769
▁Beitrag	-3770
▁Mosk	-3771
▁gesehen	-3772
oo	-3773
orm	-3774
▁Log	-3775
▁illeg	-3776
wendet	-3777
▁steigen	-3778
▁Nachbar	-3779
entlich	-3780
eitern	-3781
:0	-3782
tell	-3783
eind	-3784
▁Komp	-3785
Mein	-3786
zig	-3787
▁umstritten	-3788
xit	-3789
▁Wash	-3790
sekret	-3791
▁Weitere	-3792
aterial	-3793
▁Idee	-3794
▁Monat	-3795
▁Android	-3796
▁&	-3797
inne	-3798
▁Ermittlungen	-3799
▁men	-3800
▁Boden	-3801
reund	-3802
▁häufig	-3803
gien	-3804
iten	-3805
▁getö	-3806
▁angesichts	-3807
äub	-3808
▁Nutzungs	-3809
▁Kauf	-3810
hoben	-3811
▁entwickelt	-3812
einer	-3813
▁Auff	-3814
▁aktiv	-3815
▁Gerichts	-3816
stellungen	-3817
▁Spe	-3818
▁jemand	-3819
press	-3820
▁gerne	-3821
▁ausger	-3822
▁Szen	-3823
ight	-3824
▁Veranst	-3825
sätze	-3826
▁Kü	-3827
▁wei	-3828
▁unters	-3829
ftige	-3830
▁Immer	-3831
altet	-3832
▁Krise	-3833
ummer	-3834
▁Haushalts	-3835
▁Titel	-3836
▁Soldaten	-3837
erklärung	-3838
▁Amazon	-3839
jen	-3840
▁befür	-3841
▁wün	-3842
▁kamen	-3843
würfe	-3844
▁Verkauf	-3845
▁Dinge	-3846
ried	-3847
▁entgegen	-3848
hard	-3849
▁Eis	-3850
▁maß	-3851
▁Köln	-3852
▁aufgrund	-3853
▁Technik	-3854
▁gehe	-3855
▁Ir	-3856
▁Banken	-3857
▁prü	-3858
▁zug	-3859
stände	-3860
aup	-3861
▁niedr	-3862
▁treffen	-3863
▁unabhäng	-3864
▁kür	-3865
▁iPhone	-3866
ds	-3867
Fraktion	-3868
krieg	-3869
ließen	-3870
▁Char	-3871
▁berichtete	-3872
radition	-3873
▁Sig	-3874
zun	-3875
▁letzte	-3876
▁Digital	-3877
lichten	-3878
▁Po	-3879
ienten	-3880
▁neun	-3881
ftigen	-3882
▁Tour	-3883
▁zentr	-3884
▁Quartal	-3885
▁Washington	-3886
preis	-3887
konzern	-3888
▁guten	-3889
spekt	-3890
acher	-3891
ierenden	-3892
elte	-3893
bürger	-3894
▁Bundeskanzler	-3895
unternehmen	-3896
▁Überwach	-3897
▁Schulz	-3898
folger	-3899
▁Chance	-3900
angt	-3901
▁weder	-3902
▁Bor	-3903
by	-3904
gebung	-3905
▁Hälfte	-3906
▁jedes	-3907
▁rechts	-3908
▁Schluss	-3909
▁2010	-3910
▁WM	-3911
▁29	-3912
haben	-3913
▁übern	-3914
programm	-3915
▁Spieler	-3916
▁fordern	-3917
▁Martin	-3918
▁Kan	-3919
▁erl	-3920
▁70	-3921
,8	-3922
▁forderte	-3923
onn	-3924
▁Phil	-3925
onst	-3926
▁registr	-3927
▁Sc	-3928
▁Erklärung	-3929
sh	-3930
▁2011	-3931
▁mehreren	-3932
abriel	-3933
ögliche	-3934
▁Vertreter	-3935
oc	-3936
▁ändern	-3937
▁tot	-3938
,1	-3939
▁Zentr	-3940
pe	-3941
▁dir	-3942
▁Geräte	-3943
▁Forscher	-3944
▁Wolf	-3945
▁Drei	-3946
▁Gemeinschaft	-3947
bs	-3948
▁regel	-3949
ages	-3950
gramme	-3951
▁hohen	-3952
produ	-3953
teilte	-3954
ädchen	-3955
▁Ergebnisse	-3956
ida	-3957
indust	-3958
polit	-3959
▁absol	-3960
▁Gabriel	-3961
▁zunehmen	-3962
▁General	-3963
▁kritisiert	-3964
▁Tür	-3965
seit	-3966
▁Frankfurt	-3967
ffekt	-3968
eier	-3969
▁meinem	-3970
▁Autos	-3971
▁Wo	-3972
▁Beding	-3973
▁Aufgabe	-3974
▁mass	-3975
ölf	-3976
sekretär	-3977
Byte	-3978
▁körper	-3979
▁Sil	-3980
▁König	-3981
▁sorgen	-3982
keits	-3983
bek	-3984
▁wählen	-3985
ürt	-3986
▁Wh	-3987
▁sex	-3988
▁Dafür	-3989
anische	-3990
vid	-3991
ivi	-3992
▁Landtag	-3993
uft	-3994
▁Stimmen	-3995
spieler	-3996
▁Sex	-3997
ato	-3998
ve	-3999
fin	-4000
forderungen	-4001
▁Regeln	-4002
eien	-4003
▁Fortsch	-4004
▁Arme	-4005
▁Tem	-4006
vis	-4007
EIT	-4008
finden	-4009
jekte	-4010
▁Früh	-4011
▁verantwortlich	-4012
▁Handy	-4013
schwer	-4014
▁Voraus	-4015
▁wären	-4016
▁Ganz	-4017
▁|	-4018
▁verab	-4019
▁wenigen	-4020
laufen	-4021
▁erle	-4022
▁Trumps	-4023
▁betonte	-4024
ums	-4025
wirkungen	-4026
▁Beteil	-4027
▁Konflikt	-4028
industrie	-4029
rats	-4030
▁eng	-4031
▁rei	-4032
▁Produktion	-4033
ison	-4034
bestimmungen	-4035
bil	-4036
Sie	-4037
▁Kunst	-4038
▁zahlen	-4039
▁Mil	-4040
bauen	-4041
eilen	-4042
▁Serv	-4043
ester	-4044
bol	-4045
idar	-4046
plan	-4047
ierter	-4048
▁Sein	-4049
▁Gesamt	-4050
▁Jo	-4051
adr	-4052
▁Handels	-4053
gas	-4054
▁sogenannten	-4055
▁Berichterstat	-4056
äher	-4057
unsch	-4058
äche	-4059
▁Wochenende	-4060
ruf	-4061
▁Fällen	-4062
▁durchaus	-4063
Ar	-4064
▁längst	-4065
▁Fran	-4066
dienste	-4067
▁Schüler	-4068
▁Entwicklungs	-4069
kandid	-4070
▁Tier	-4071
▁Moment	-4072
▁par	-4073
▁Amer	-4074
mittelt	-4075
▁erforder	-4076
ampag	-4077
ochen	-4078
renz	-4079
schungs	-4080
ändler	-4081
eister	-4082
▁brach	-4083
▁Lauf	-4084
▁gemeinsame	-4085
▁verstär	-4086
▁Zul	-4087
tent	-4088
▁übrigen	-4089
sprün	-4090
ven	-4091
▁Vergangenheit	-4092
▁Zeitpunkt	-4093
▁Stelle	-4094
▁türkischen	-4095
schrift	-4096
▁Wähler	-4097
ton	-4098
rax	-4099
reitet	-4100
▁Gast	-4101
▁bekommt	-4102
▁fertig	-4103
▁Schaden	-4104
▁meist	-4105
▁geh	-4106
vo	-4107
▁Prü	-4108
▁Altern	-4109
organisation	-4110
▁alt	-4111
▁2019	-4112
schließlich	-4113
▁voraus	-4114
▁Del	-4115
▁gleichzeitig	-4116
▁getroffen	-4117
▁Richtlinie	-4118
▁ZEIT	-4119
erseits	-4120
▁Bed	-4121
▁Kindern	-4122
▁finde	-4123
▁Auftrag	-4124
▁Körper	-4125
▁automat	-4126
wachsen	-4127
▁Antrag	-4128
▁Hor	-4129
cel	-4130
▁90	-4131
andal	-4132
zeugt	-4133
▁Ern	-4134
abkommen	-4135
▁jeweils	-4136
vertrag	-4137
▁erheb	-4138
irt	-4139
ielten	-4140
▁Statt	-4141
▁Rob	-4142
▁Meine	-4143
zunehmen	-4144
▁Har	-4145
.)	-4146
▁Server	-4147
rastruktur	-4148
▁Osten	-4149
▁Will	-4150
▁amerikanischen	-4151
▁Hauptstadt	-4152
/1	-4153
sextrem	-4154
rochen	-4155
▁exist	-4156
istan	-4157
zustellen	-4158
▁hohe	-4159
▁prakt	-4160
mb	-4161
▁Natur	-4162
▁Alt	-4163
setzt	-4164
▁Strategie	-4165
abt	-4166
▁Brexit	-4167
▁britischen	-4168
▁Führung	-4169
ährung	-4170
ja	-4171
orben	-4172
obach	-4173
▁Aust	-4174
▁organis	-4175
▁Zwischen	-4176
▁Franz	-4177
▁Bi	-4178
▁passiert	-4179
▁dah	-4180
▁500	-4181
▁getötet	-4182
ots	-4183
▁nieder	-4184
▁Erdogan	-4185
ideo	-4186
▁Tochter	-4187
▁Gewinn	-4188
▁Bem	-4189
▁geplant	-4190
zw	-4191
sph	-4192
oben	-4193
▁verpf	-4194
▁Grundlage	-4195
▁NSA	-4196
▁Eing	-4197
▁Mobilfunk	-4198
handelt	-4199
▁Funktion	-4200
EGEL	-4201
▁Dieses	-4202
▁Ander	-4203
PIEGEL	-4204
sl	-4205
endet	-4206
▁Brand	-4207
hem	-4208
▁bieten	-4209
▁Publ	-4210
▁ziemlich	-4211
radik	-4212
ffer	-4213
▁Hause	-4214
ption	-4215
▁dadurch	-4216
sum	-4217
▁chines	-4218
▁Tur	-4219
▁stellte	-4220
vention	-4221
▁Hann	-4222
mel	-4223
iegel	-4224
▁Schau	-4225
▁gezeigt	-4226
ieb	-4227
▁trotzdem	-4228
schinen	-4229
▁Betroffen	-4230
anger	-4231
oto	-4232
▁elekt	-4233
▁ganzen	-4234
▁Fischer	-4235
▁bein	-4236
feh	-4237
▁Position	-4238
uh	-4239
▁arbeitet	-4240
▁Mädchen	-4241
▁Zwar	-4242
▁Zeiten	-4243
▁Punkte	-4244
▁erwarten	-4245
glichen	-4246
ong	-4247
▁35	-4248
maßnahmen	-4249
▁...	-4250
▁Kab	-4251
▁Meter	-4252
aket	-4253
▁Eind	-4254
.00	-4255
▁Zent	-4256
gelegt	-4257
räger	-4258
deck	-4259
▁abgel	-4260
gument	-4261
▁lag	-4262
ars	-4263
▁Kilometer	-4264
▁nationalen	-4265
▁Glück	-4266
reng	-4267
▁erfolgreich	-4268
IP	-4269
▁Heute	-4270
werte	-4271
▁Smartphone	-4272
▁Reise	-4273
▁soziale	-4274
▁Autor	-4275
▁Pet	-4276
▁Verhalten	-4277
arte	-4278
▁ind	-4279
▁russische	-4280
ragten	-4281
▁beschlossen	-4282
▁spezie	-4283
▁Flughafen	-4284
ari	-4285
▁erster	-4286
▁Universität	-4287
del	-4288
▁bestätigt	-4289
▁spielt	-4290
lef	-4291
▁britische	-4292
osen	-4293
▁Anteil	-4294
▁Vorjahr	-4295
▁gleichen	-4296
▁Organisation	-4297
ähe	-4298
stoß	-4299
▁Soll	-4300
fahrer	-4301
▁erinner	-4302
agazin	-4303
▁notwendig	-4304
▁Intel	-4305
ostet	-4306
ew	-4307
▁nächste	-4308
redit	-4309
▁überw	-4310
▁behaup	-4311
▁Bör	-4312
▁Alter	-4313
▁--	-4314
▁SPIEGEL	-4315
po	-4316
▁gestern	-4317
▁Beziehungen	-4318
▁eingeb	-4319
▁2009	-4320
▁zeigte	-4321
▁Zweifel	-4322
ski	-4323
▁Ziele	-4324
▁kontroll	-4325
▁wichtigsten	-4326
astrop	-4327
▁Basis	-4328
▁Maß	-4329
▁Produkte	-4330
▁y	-4331
▁Entwickler	-4332
ährt	-4333
ständen	-4334
▁schützen	-4335
▁Wel	-4336
▁mutmaß	-4337
▁sah	-4338
geschichte	-4339
ieten	-4340
fan	-4341
anzen	-4342
▁Premier	-4343
▁einzelnen	-4344
▁benöt	-4345
▁Stimm	-4346
por	-4347
▁Prote	-4348
Ch	-4349
dass	-4350
▁Verm	-4351
▁Brief	-4352
get	-4353
bericht	-4354
wertung	-4355
yer	-4356
▁Trans	-4357
▁Vorschläge	-4358
ikations	-4359
▁syr	-4360
▁Schwe	-4361
tliche	-4362
▁Benutzern	-4363
▁umfassen	-4364
uchstaben	-4365
chmal	-4366
▁schön	-4367
üge	-4368
▁jungen	-4369
▁drin	-4370
ernen	-4371
ghan	-4372
▁betrifft	-4373
gor	-4374
▁akzeptieren	-4375
▁John	-4376
▁Gruppen	-4377
▁Schule	-4378
▁Menschenrechte	-4379
▁verfüg	-4380
System	-4381
▁rau	-4382
▁för	-4383
▁Ball	-4384
▁Präsidentin	-4385
▁los	-4386
▁Freiheit	-4387
▁Kre	-4388
grei	-4389
omit	-4390
trag	-4391
▁Kolleg	-4392
▁mag	-4393
zehn	-4394
▁2008	-4395
▁vorbei	-4396
▁Zivil	-4397
▁zahlreiche	-4398
▁Anschlag	-4399
deckt	-4400
▁Struktur	-4401
▁Großbuchstaben	-4402
▁Details	-4403
tritt	-4404
stru	-4405
▁Werk	-4406
▁gefordert	-4407
▁Sonderzeichen	-4408
wig	-4409
▁erklären	-4410
▁kündigte	-4411
▁Einführung	-4412
▁akzeptiere	-4413
▁Chem	-4414
▁zwölf	-4415
▁Technolog	-4416
▁eingesetzt	-4417
▁Zeu	-4418
bed	-4419
▁Moskau	-4420
ona	-4421
zahlt	-4422
ammer	-4423
▁Inhalte	-4424
▁selten	-4425
öffnet	-4426
▁Todes	-4427
▁Herz	-4428
4-	-4429
▁Kompro	-4430
▁gesamten	-4431
▁anderes	-4432
▁dritten	-4433
▁alleine	-4434
▁AM	-4435
mern	-4436
▁Regionen	-4437
▁Nor	-4438
▁Produkt	-4439
oph	-4440
▁ARD	-4441
▁Gro	-4442
ration	-4443
▁Sn	-4444
orgung	-4445
▁tran	-4446
▁Bezug	-4447
▁zit	-4448
rang	-4449
▁Insgesamt	-4450
▁Vorgehen	-4451
SPD	-4452
gänger	-4453
omen	-4454
▁Gar	-4455
▁Schlag	-4456
▁vorgesehen	-4457
klag	-4458
gessen	-4459
Ex	-4460
stall	-4461
espekt	-4462
▁unklar	-4463
▁grün	-4464
▁Gebur	-4465
sichts	-4466
▁türkische	-4467
▁fällt	-4468
▁dennoch	-4469
losigkeit	-4470
▁Auswirkungen	-4471
ps	-4472
▁gesprochen	-4473
werke	-4474
▁früheren	-4475
▁erkennen	-4476
▁Besonder	-4477
behörden	-4478
▁Pflichtfelder	-4479
▁zeit	-4480
▁11.	-4481
▁Down	-4482
▁Bedingungen	-4483
▁profit	-4484
▁suchen	-4485
ikanischen	-4486
▁mobil	-4487
▁herr	-4488
▁Gespräche	-4489
▁Christian	-4490
▁Brem	-4491
lad	-4492
icks	-4493
nungen	-4494
▁Umsetzung	-4495
izei	-4496
▁Liste	-4497
öße	-4498
▁Einen	-4499
zentrum	-4500
▁internationale	-4501
geschäft	-4502
▁Spanien	-4503
etzten	-4504
ors	-4505
reen	-4506
stät	-4507
▁überall	-4508
omin	-4509
▁fallen	-4510
10	-4511
▁mel	-4512
load	-4513
uchs	-4514
mitglie	-4515
▁glob	-4516
▁Initiative	-4517
unkten	-4518
▁Qualität	-4519
▁heutigen	-4520
ali	-4521
ragte	-4522
▁Hack	-4523
▁Gewerk	-4524
▁persönlichen	-4525
▁integr	-4526
.4	-4527
ekten	-4528
out	-4529
ängnis	-4530
ögen	-4531
▁uner	-4532
techn	-4533
▁Außenminister	-4534
tivi	-4535
▁Irak	-4536
▁ZDFtivi	-4537
▁geschrieben	-4538
▁Kurs	-4539
sätzlich	-4540
▁üb	-4541
Mar	-4542
krain	-4543
▁Minder	-4544
Gr	-4545
▁übernehmen	-4546
▁Vorwürfe	-4547
gruppen	-4548
umente	-4549
▁verd	-4550
▁Bildung	-4551
ritts	-4552
▁Flüchtlings	-4553
▁Verbesser	-4554
alisierung	-4555
▁x	-4556
reck	-4557
rufen	-4558
▁Dial	-4559
▁vern	-4560
▁Diesel	-4561
▁End	-4562
örter	-4563
sprü	-4564
▁falsch	-4565
▁Ass	-4566
zur	-4567
rah	-4568
▁erfahren	-4569
▁bezeich	-4570
jenigen	-4571
reuz	-4572
▁Nein	-4573
60	-4574
sung	-4575
▁gesamte	-4576
▁Deutschlands	-4577
▁extrem	-4578
▁eindeut	-4579
▁Twe	-4580
▁Protest	-4581
▁leisten	-4582
▁verstehen	-4583
zut	-4584
▁Müller	-4585
▁Mord	-4586
mutlich	-4587
▁rie	-4588
ainer	-4589
kosten	-4590
▁Urs	-4591
▁Daher	-4592
▁älter	-4593
over	-4594
▁Konsequ	-4595
▁Mer	-4596
▁hoffe	-4597
arif	-4598
▁hil	-4599
uliert	-4600
▁300	-4601
lim	-4602
▁VW	-4603
▁moder	-4604
korea	-4605
bach	-4606
▁Wor	-4607
▁komp	-4608
ützt	-4609
▁verurteilt	-4610
gte	-4611
▁möglicherweise	-4612
freiheit	-4613
▁Update	-4614
neten	-4615
wahlen	-4616
▁Licht	-4617
▁Spiele	-4618
▁Sohn	-4619
ips	-4620
▁Schwer	-4621
▁Tats	-4622
schine	-4623
ptim	-4624
schafft	-4625
▁zuständ	-4626
▁oben	-4627
ca	-4628
▁Bundeswehr	-4629
ußer	-4630
zusetzen	-4631
erien	-4632
leiter	-4633
▁Unser	-4634
▁berücksicht	-4635
bieten	-4636
denten	-4637
hü	-4638
lieben	-4639
raxis	-4640
▁#	-4641
▁Weihn	-4642
▁Drit	-4643
gefähr	-4644
▁Bereits	-4645
aust	-4646
bew	-4647
urm	-4648
äude	-4649
▁Einfluss	-4650
gentur	-4651
▁Herbst	-4652
üst	-4653
▁schlecht	-4654
▁verkauft	-4655
▁Münchner	-4656
▁Forschung	-4657
edia	-4658
▁möglichen	-4659
▁Kontakt	-4660
band	-4661
▁bil	-4662
use	-4663
▁zerst	-4664
▁entfernt	-4665
.30	-4666
▁Umgang	-4667
▁Koh	-4668
zi	-4669
▁ra	-4670
gründet	-4671
▁Gründen	-4672
▁Bru	-4673
gült	-4674
essern	-4675
▁Information	-4676
▁Trainer	-4677
heber	-4678
▁stets	-4679
Fl	-4680
▁2007	-4681
▁Karten	-4682
mund	-4683
▁jähr	-4684
▁Chancen	-4685
▁Westen	-4686
stellten	-4687
▁Sek	-4688
üsseld	-4689
▁Aussch	-4690
▁meint	-4691
klus	-4692
▁morgen	-4693
▁militär	-4694
▁Fans	-4695
ica	-4696
arch	-4697
▁verschw	-4698
▁Mc	-4699
▁Rett	-4700
▁Drogen	-4701
worfen	-4702
riech	-4703
▁Entschließ	-4704
US	-4705
flug	-4706
nov	-4707
iter	-4708
▁wichtigen	-4709
▁Hans	-4710
▁Dank	-4711
count	-4712
linien	-4713
ückt	-4714
▁Zun	-4715
▁Imm	-4716
▁Vereinbar	-4717
ehin	-4718
▁Winter	-4719
macht	-4720
▁Vertrauen	-4721
spiele	-4722
▁körperlich	-4723
▁Innenminister	-4724
italien	-4725
griffe	-4726
▁Ihren	-4727
▁Bill	-4728
▁überprüfen	-4729
iftung	-4730
▁lesen	-4731
▁verbunden	-4732
etzungen	-4733
▁Modell	-4734
▁Bur	-4735
uman	-4736
":	-4737
▁aufgenommen	-4738
▁fehlen	-4739
leisch	-4740
▁griech	-4741
▁Ebene	-4742
ötzlich	-4743
▁wachsen	-4744
▁beteiligt	-4745
▁glauben	-4746
zir	-4747
5-	-4748
▁unmöglich	-4749
▁Schne	-4750
▁genannt	-4751
behörde	-4752
hnehin	-4753
▁Integration	-4754
spielt	-4755
dient	-4756
▁öffentliche	-4757
▁Mik	-4758
▁angeblich	-4759
▁wichtiger	-4760
▁dürften	-4761
▁gewalt	-4762
▁möglichst	-4763
IS	-4764
aul	-4765
▁droht	-4766
▁Sachsen	-4767
irm	-4768
Sta	-4769
▁invest	-4770
äuser	-4771
twor	-4772
▁Mitteilung	-4773
▁ag	-4774
▁nennen	-4775
▁Einschrän	-4776
▁Verteidigungs	-4777
▁Stunde	-4778
▁sogenannte	-4779
▁verschiedene	-4780
▁betont	-4781
ämpfung	-4782
gert	-4783
haber	-4784
abilität	-4785
▁Instrum	-4786
ace	-4787
▁Nato	-4788
▁reden	-4789
pel	-4790
rägen	-4791
▁müsste	-4792
▁denke	-4793
wechsel	-4794
älte	-4795
▁Ermittler	-4796
▁genutzt	-4797
uchte	-4798
entwick	-4799
▁dank	-4800
▁Jap	-4801
▁politisch	-4802
▁Netzwerk	-4803
▁Top	-4804
▁kennen	-4805
▁getan	-4806
▁Sanktionen	-4807
▁Düsseld	-4808
▁Verdacht	-4809
▁2006	-4810
▁Nähe	-4811
▁Gegner	-4812
sn	-4813
asi	-4814
▁Linie	-4815
▁gesetzt	-4816
brauch	-4817
▁unserem	-4818
▁islam	-4819
jk	-4820
▁gesetz	-4821
▁international	-4822
BM	-4823
itzer	-4824
▁betrach	-4825
▁blieb	-4826
Bild	-4827
▁entwickeln	-4828
▁erh	-4829
▁Einige	-4830
▁Tru	-4831
▁Äußer	-4832
Sh	-4833
▁Sach	-4834
▁Gesicht	-4835
▁Ind	-4836
▁mögliche	-4837
▁Aktien	-4838
öse	-4839
fristig	-4840
▁Bundeskanzlerin	-4841
▁bezeichnet	-4842
Politiker	-4843
▁Ka	-4844
strafe	-4845
verstanden	-4846
▁Leg	-4847
sver	-4848
▁Ord	-4849
Version	-4850
iber	-4851
▁offiziell	-4852
wissen	-4853
atisch	-4854
▁sen	-4855
▁Jur	-4856
▁ehemalige	-4857
▁nennt	-4858
▁Einwander	-4859
rete	-4860
▁vorgeschlagen	-4861
leger	-4862
würdig	-4863
▁Verhältnis	-4864
▁Reich	-4865
▁ermöglichen	-4866
▁Mode	-4867
▁Schiff	-4868
achtung	-4869
onstranten	-4870
▁ko	-4871
log	-4872
greifen	-4873
▁mussten	-4874
▁tä	-4875
▁Kr	-4876
inz	-4877
reib	-4878
▁Botschaft	-4879
▁Hoffnung	-4880
▁verwendet	-4881
Ger	-4882
schalten	-4883
▁Fotos	-4884
othe	-4885
▁Stück	-4886
▁erzählt	-4887
▁Sieg	-4888
▁Patienten	-4889
▁ter	-4890
▁Ident	-4891
▁vertreten	-4892
verständlich	-4893
▁gewinnen	-4894
▁or	-4895
ith	-4896
▁Schließlich	-4897
unktionen	-4898
▁Voll	-4899
hundert	-4900
auso	-4901
▁aktuell	-4902
▁@	-4903
äufer	-4904
▁aktuelle	-4905
schätzung	-4906
▁Kommunikation	-4907
▁Gerät	-4908
▁bisschen	-4909
▁Websi	-4910
▁Arbeitnehmer	-4911
▁Forderung	-4912
▁komplett	-4913
icherung	-4914
-,	-4915
atoren	-4916
▁Teilnehmer	-4917
▁jedenfalls	-4918
öpf	-4919
izenz	-4920
▁Angelegen	-4921
▁bessere	-4922
▁Entscheidungen	-4923
▁nötig	-4924
play	-4925
Hz	-4926
▁wiederum	-4927
▁Rechten	-4928
wendungen	-4929
▁Preise	-4930
Her	-4931
▁Olymp	-4932
▁21.	-4933
▁AG	-4934
ielte	-4935
▁Bern	-4936
▁festgenommen	-4937
▁Armee	-4938
▁psych	-4939
ändig	-4940
Prozess	-4941
200	-4942
Innen	-4943
änden	-4944
nungs	-4945
▁west	-4946
Ser	-4947
rowser	-4948
▁Kirche	-4949
▁ursprün	-4950
▁bewegen	-4951
▁wahrscheinlich	-4952
ühren	-4953
▁Sprache	-4954
▁angenommen	-4955
Mitglie	-4956
▁sinn	-4957
▁erwäh	-4958
▁Autob	-4959
ini	-4960
▁Risiko	-4961
lege	-4962
▁är	-4963
▁Alexander	-4964
▁korre	-4965
▁bestimmte	-4966
▁Papier	-4967
reut	-4968
weite	-4969
verständnis	-4970
hören	-4971
hänger	-4972
▁teilweise	-4973
oth	-4974
ube	-4975
▁Flüchtlingen	-4976
hte	-4977
schauer	-4978
aner	-4979
▁Fälle	-4980
▁("	-4981
▁frühere	-4982
äste	-4983
▁Umfrage	-4984
▁Domain	-4985
aw	-4986
Dien	-4987
▁Anfrage	-4988
▁tö	-4989
▁sitzt	-4990
▁verwei	-4991
▁Darüber	-4992
▁hören	-4993
ola	-4994
ügen	-4995
▁Eindruck	-4996
ordin	-4997
▁Versuch	-4998
▁Meinungs	-4999
▁histor	-5000
▁schneller	-5001
straße	-5002
yen	-5003
rhein	-5004
▁lieber	-5005
▁Download	-5006
▁starken	-5007
gegeben	-5008
▁Öl	-5009
▁Far	-5010
▁Rau	-5011
▁Sozialdem	-5012
▁Hol	-5013
äger	-5014
▁Verz	-5015
▁Anbieter	-5016
riere	-5017
▁leich	-5018
ih	-5019
leh	-5020
OC	-5021
▁Dennoch	-5022
▁gewählt	-5023
▁2005	-5024
bewerber	-5025
atischen	-5026
▁unge	-5027
▁Videos	-5028
äs	-5029
gewalt	-5030
aktionen	-5031
rig	-5032
lingen	-5033
ance	-5034
▁ohnehin	-5035
▁Prinzip	-5036
▁miss	-5037
▁französischen	-5038
▁Kandidaten	-5039
▁hol	-5040
▁erlaubt	-5041
ohnt	-5042
▁Vo	-5043
schlüssel	-5044
▁Demonstr	-5045
▁Leit	-5046
hren	-5047
schlägen	-5048
stellte	-5049
▁Amerikan	-5050
weiten	-5051
▁angst	-5052
▁Hinweis	-5053
Welt	-5054
leistungen	-5055
▁Rhein	-5056
▁Polen	-5057
▁Zug	-5058
▁Ress	-5059
ams	-5060
igungs	-5061
▁3.	-5062
▁vorzu	-5063
▁Einigung	-5064
hafte	-5065
asil	-5066
▁Rates	-5067
asen	-5068
▁Speicher	-5069
air	-5070
▁Anwalt	-5071
▁Anti	-5072
▁überein	-5073
▁Essen	-5074
▁Studien	-5075
sitzenden	-5076
indungen	-5077
▁pol	-5078
3-	-5079
▁Samsung	-5080
▁Sym	-5081
irektor	-5082
▁Wolfgang	-5083
▁italien	-5084
alle	-5085
perte	-5086
▁Wohnung	-5087
▁bedeuten	-5088
▁Bit	-5089
werten	-5090
▁ehemaligen	-5091
▁197	-5092
punkte	-5093
▁ähnlich	-5094
xt	-5095
EN	-5096
äss	-5097
ile	-5098
▁Renten	-5099
▁Viertel	-5100
sprach	-5101
▁Solidar	-5102
▁Beamten	-5103
▁verboten	-5104
▁Prot	-5105
bus	-5106
▁Konkurrenz	-5107
▁Dam	-5108
▁Pil	-5109
täu	-5110
eller	-5111
▁derart	-5112
▁Schulden	-5113
▁entsprechende	-5114
estf	-5115
▁Demnach	-5116
▁Minute	-5117
arian	-5118
atch	-5119
▁Behörde	-5120
leiche	-5121
▁Zustimmung	-5122
▁Massen	-5123
AP	-5124
▁Elektro	-5125
▁warten	-5126
▁sel	-5127
chtet	-5128
gal	-5129
▁Fin	-5130
▁Pläne	-5131
▁Allein	-5132
▁Gefängnis	-5133
publikan	-5134
ziehungs	-5135
ichert	-5136
lande	-5137
▁israel	-5138
fiz	-5139
▁erfüllen	-5140
▁Refer	-5141
lichung	-5142
▁Gelegen	-5143
▁Haushalt	-5144
▁registriert	-5145
▁heise	-5146
▁Gesundheit	-5147
▁Reaktion	-5148
liefer	-5149
▁Jav	-5150
gemeinen	-5151
sprä	-5152
▁Worten	-5153
▁Herren	-5154
ayer	-5155
▁schreiben	-5156
bedingt	-5157
uropa	-5158
wander	-5159
▁beginnt	-5160
ährungs	-5161
partei	-5162
▁bewusst	-5163
endung	-5164
▁ausgeb	-5165
▁Nah	-5166
▁maßnahme	-5167
▁nannte	-5168
richtungen	-5169
:2	-5170
ille	-5171
▁Drittel	-5172
sammlung	-5173
▁Wol	-5174
▁sitzen	-5175
▁beginnen	-5176
iveau	-5177
▁äuß	-5178
▁May	-5179
▁begonnen	-5180
obei	-5181
ampagne	-5182
▁Ton	-5183
Wer	-5184
▁Mor	-5185
iums	-5186
ames	-5187
▁jüngsten	-5188
▁Hu	-5189
ikum	-5190
▁arbeits	-5191
▁legen	-5192
▁bean	-5193
▁süd	-5194
verein	-5195
▁verbesser	-5196
uchten	-5197
ßt	-5198
Vert	-5199
▁konzentr	-5200
edien	-5201
▁fand	-5202
▁bisherigen	-5203
▁gegangen	-5204
▁Sau	-5205
▁rechnen	-5206
▁Zw	-5207
▁Wissenschaftler	-5208
▁Str	-5209
nicht	-5210
▁Werte	-5211
ehmer	-5212
ösungen	-5213
▁Bu	-5214
euten	-5215
züglich	-5216
▁amerikanische	-5217
zeiten	-5218
setzungen	-5219
▁verbessern	-5220
ada	-5221
▁Haltung	-5222
▁überraschen	-5223
.,	-5224
▁verh	-5225
weil	-5226
▁Graf	-5227
▁bedro	-5228
▁bestimmten	-5229
▁++	-5230
▁beein	-5231
verwalt	-5232
▁Weiterleiten	-5233
▁Klage	-5234
▁fahren	-5235
▁Straft	-5236
▁Holl	-5237
▁Hinweise	-5238
▁Blog	-5239
handlungen	-5240
▁Gebiet	-5241
▁Real	-5242
sein	-5243
schütz	-5244
▁Att	-5245
▁trägt	-5246
ziger	-5247
▁Kommentar	-5248
▁Konzept	-5249
▁jederzeit	-5250
▁Dialog	-5251
gelassen	-5252
▁Hard	-5253
▁Kris	-5254
▁günst	-5255
▁gu	-5256
ürz	-5257
80	-5258
ministeriums	-5259
▁prüfen	-5260
▁Material	-5261
▁zieht	-5262
▁Such	-5263
Bundes	-5264
heben	-5265
▁halte	-5266
▁Gau	-5267
▁Stimme	-5268
▁Mindest	-5269
kreis	-5270
▁Rek	-5271
minist	-5272
bul	-5273
▁deutsch	-5274
▁Bürgermeister	-5275
▁Wunsch	-5276
▁geplanten	-5277
▁kürzlich	-5278
▁Afghan	-5279
tau	-5280
▁Schulen	-5281
▁Schmid	-5282
▁Teile	-5283
fir	-5284
▁Meer	-5285
Ges	-5286
▁Kooper	-5287
▁Tatsache	-5288
▁einverstanden	-5289
▁sorg	-5290
ruhe	-5291
▁Adresse	-5292
gerichts	-5293
tin	-5294
▁Stellungnahme	-5295
▁Verbindung	-5296
▁produz	-5297
▁Vielleicht	-5298
grenz	-5299
▁Aussage	-5300
▁+++	-5301
▁Nationen	-5302
▁Sü	-5303
fangen	-5304
▁Krem	-5305
▁Mannschaft	-5306
ahnen	-5307
eiert	-5308
▁Schwarz	-5309
präsent	-5310
▁Sinn	-5311
▁bestätigte	-5312
temberg	-5313
▁Migranten	-5314
twick	-5315
▁dauer	-5316
▁geraten	-5317
igungen	-5318
▁ausländ	-5319
▁Investitionen	-5320
▁zugleich	-5321
uster	-5322
▁Ausdruck	-5323
▁Lab	-5324
▁tut	-5325
▁Untersuchung	-5326
▁nord	-5327
▁reicht	-5328
betreiber	-5329
40	-5330
▁entsprechenden	-5331
angeb	-5332
▁Termin	-5333
▁NR	-5334
▁Nachdem	-5335
▁Krim	-5336
ammt	-5337
▁Liber	-5338
▁Motor	-5339
schte	-5340
gebiet	-5341
▁Fernsehen	-5342
▁Infrastruktur	-5343
▁gesellschaft	-5344
▁verg	-5345
▁Leip	-5346
▁reduz	-5347
▁überzeugt	-5348
▁Sender	-5349
▁vertei	-5350
präsidenten	-5351
eitag	-5352
▁Satz	-5353
▁Wohl	-5354
▁Spr	-5355
▁Worte	-5356
▁Forderungen	-5357
▁DF	-5358
▁Hart	-5359
ämpfer	-5360
▁gewonnen	-5361
van	-5362
ündnis	-5363
barkeit	-5364
▁Krank	-5365
▁vorliegen	-5366
▁Bewegung	-5367
▁Regierungen	-5368
▁Informations	-5369
▁Beide	-5370
▁Stär	-5371
▁Transpar	-5372
▁Hamburger	-5373
.5	-5374
anke	-5375
▁Rest	-5376
▁jene	-5377
▁Abgeordnete	-5378
▁Natürlich	-5379
▁kat	-5380
▁nahm	-5381
▁vermutlich	-5382
▁Künst	-5383
mung	-5384
▁Demonstranten	-5385
▁Neue	-5386
gewöhn	-5387
▁rein	-5388
▁Gas	-5389
▁Kapital	-5390
▁Gü	-5391
▁Gründe	-5392
▁Tro	-5393
schule	-5394
▁Ärzte	-5395
ständnis	-5396
▁größere	-5397
▁kostet	-5398
onat	-5399
▁Vorsitzende	-5400
▁Kol	-5401
▁Siemens	-5402
▁att	-5403
Ste	-5404
ktor	-5405
klage	-5406
▁Aussprache	-5407
▁räum	-5408
edizin	-5409
raucht	-5410
▁Arbeitgeber	-5411
▁Unabhäng	-5412
▁Wahlen	-5413
▁Binnen	-5414
isst	-5415
▁denken	-5416
▁endgült	-5417
.3	-5418
▁Förderung	-5419
▁durchge	-5420
üb	-5421
▁Urheber	-5422
▁unterwegs	-5423
Jährigen	-5424
▁IBM	-5425
utzer	-5426
▁Wegen	-5427
LAN	-5428
▁beit	-5429
▁Solidarität	-5430
▁plötzlich	-5431
▁langsam	-5432
▁Schuld	-5433
rib	-5434
▁folgt	-5435
akter	-5436
ane	-5437
▁berichten	-5438
▁Krä	-5439
sweise	-5440
spartner	-5441
liga	-5442
▁Hass	-5443
▁Max	-5444
▁Tre	-5445
ächen	-5446
▁kaufen	-5447
▁Afr	-5448
gerufen	-5449
wandel	-5450
▁Berufung	-5451
▁Wagen	-5452
stimmt	-5453
koh	-5454
dienen	-5455
▁trifft	-5456
ffizien	-5457
▁verpflich	-5458
▁Institutionen	-5459
Auf	-5460
▁beschäftigt	-5461
▁angeboten	-5462
mo	-5463
▁Insel	-5464
▁Patent	-5465
▁Brit	-5466
▁Pe	-5467
▁damal	-5468
▁Anspruch	-5469
tels	-5470
▁ukrain	-5471
Au	-5472
▁Sprecherin	-5473
▁offensichtlich	-5474
▁ant	-5475
▁genauso	-5476
▁Linken	-5477
▁Gedanken	-5478
sfäh	-5479
▁Matt	-5480
zeichnung	-5481
▁Zwe	-5482
▁Sec	-5483
klagt	-5484
▁Berg	-5485
▁konserv	-5486
anen	-5487
emit	-5488
▁Verpflicht	-5489
▁Verwaltungs	-5490
▁Aufmerksam	-5491
loud	-5492
spielen	-5493
▁wehren	-5494
▁Tisch	-5495
irn	-5496
meier	-5497
legung	-5498
▁zufrieden	-5499
▁Angrei	-5500
▁Bereichen	-5501
▁Menge	-5502
▁Pan	-5503
mbH	-5504
berger	-5505
atik	-5506
▁wiederholen	-5507
speicher	-5508
republik	-5509
go	-5510
▁Werbung	-5511
▁lok	-5512
▁schwierig	-5513
sc	-5514
▁Aufgaben	-5515
▁beste	-5516
▁Zuschauer	-5517
▁Clin	-5518
▁Fünf	-5519
▁Kein	-5520
▁Erweiter	-5521
▁unbedingt	-5522
ichteten	-5523
▁Auseinander	-5524
▁elektron	-5525
▁gehalten	-5526
▁Berat	-5527
▁Einkommen	-5528
▁tief	-5529
▁gehabt	-5530
▁Praxis	-5531
▁behandelt	-5532
ämpft	-5533
Gener	-5534
▁früh	-5535
leistung	-5536
▁diskutiert	-5537
▁Grad	-5538
▁näher	-5539
DA	-5540
▁Bisher	-5541
isierten	-5542
▁radik	-5543
bin	-5544
mail	-5545
▁schweren	-5546
▁verkün	-5547
eiche	-5548
▁Weiß	-5549
handen	-5550
dlich	-5551
istik	-5552
▁Verband	-5553
ktiv	-5554
▁Trend	-5555
volution	-5556
igur	-5557
▁vergessen	-5558
finanz	-5559
▁Suche	-5560
▁202	-5561
▁Krankenhaus	-5562
▁Änderungen	-5563
▁Entwurf	-5564
bereit	-5565
▁Übernahme	-5566
▁dringend	-5567
▁Abschluss	-5568
größ	-5569
▁min	-5570
▁Link	-5571
▁regelmäßig	-5572
ternehmer	-5573
1-	-5574
▁Überwachung	-5575
▁Klaus	-5576
▁kämpfen	-5577
▁Nachfrage	-5578
▁Mag	-5579
feind	-5580
ranche	-5581
▁reagiert	-5582
▁32	-5583
▁einiger	-5584
geht	-5585
▁verabschie	-5586
▁Städten	-5587
▁Dokument	-5588
▁vergleich	-5589
▁belieb	-5590
▁fehlt	-5591
▁jung	-5592
▁neg	-5593
▁45	-5594
▁Veränder	-5595
▁begann	-5596
▁Schweiz	-5597
▁mehrfach	-5598
▁entstehen	-5599
kn	-5600
▁Saison	-5601
▁herum	-5602
▁Arbeitsplätze	-5603
▁GmbH	-5604
ino	-5605
essor	-5606
▁Also	-5607
▁schlechte	-5608
cial	-5609
▁Landwirtschaft	-5610
andlung	-5611
/0	-5612
unken	-5613
▁Frie	-5614
ischem	-5615
ehrt	-5616
▁außerhalb	-5617
umen	-5618
asch	-5619
Regierung	-5620
▁gestiegen	-5621
eldung	-5622
▁def	-5623
hm	-5624
▁Rake	-5625
▁Lux	-5626
▁Zuge	-5627
acke	-5628
▁Armut	-5629
▁sicherlich	-5630
▁unterb	-5631
For	-5632
▁Damen	-5633
▁Macron	-5634
hlt	-5635
▁Times	-5636
▁informiert	-5637
▁korrekt	-5638
▁Jahrhundert	-5639
▁Blut	-5640
▁OS	-5641
reig	-5642
drücklich	-5643
sitzender	-5644
▁Besonders	-5645
istin	-5646
▁zurückzu	-5647
▁weiterer	-5648
▁Studenten	-5649
do	-5650
ulieren	-5651
▁Sorge	-5652
▁Wen	-5653
wasser	-5654
▁Sitzung	-5655
▁Lebensmittel	-5656
▁Bewer	-5657
▁form	-5658
▁400	-5659
▁Gefühl	-5660
▁Gegenteil	-5661
kal	-5662
öder	-5663
▁Dres	-5664
▁Aufmerksamkeit	-5665
Bereich	-5666
akten	-5667
rior	-5668
Netz	-5669
▁mensch	-5670
Nach	-5671
beauft	-5672
▁Anders	-5673
dungs	-5674
ards	-5675
▁Park	-5676
▁Republik	-5677
▁Ehe	-5678
za	-5679
gebenen	-5680
▁Mand	-5681
▁real	-5682
reuen	-5683
▁Schwier	-5684
▁Band	-5685
liefert	-5686
konom	-5687
▁legt	-5688
▁Cy	-5689
auber	-5690
▁Wien	-5691
▁verlieren	-5692
steht	-5693
▁Konsequenzen	-5694
▁2004	-5695
▁Ku	-5696
▁schwar	-5697
▁Java	-5698
▁Werbe	-5699
uel	-5700
▁Krimin	-5701
ents	-5702
▁Kompromiss	-5703
▁Links	-5704
▁Asylbewerber	-5705
ram	-5706
▁Sinne	-5707
book	-5708
enter	-5709
▁Hannover	-5710
oter	-5711
▁Telekommun	-5712
▁Bundestagswahl	-5713
▁wirkt	-5714
▁erforderlich	-5715
▁Tal	-5716
▁bill	-5717
PC	-5718
6-	-5719
imal	-5720
je	-5721
▁Sprach	-5722
▁Unfall	-5723
da	-5724
▁Relig	-5725
▁Zuvor	-5726
berecht	-5727
▁klass	-5728
▁wert	-5729
▁enthält	-5730
▁betroffenen	-5731
etztlich	-5732
äg	-5733
ffäre	-5734
ausend	-5735
▁Expl	-5736
samen	-5737
▁gegenwärt	-5738
oppel	-5739
geordnete	-5740
▁Baden	-5741
▁vorstellen	-5742
▁mitge	-5743
hungen	-5744
▁Vorstand	-5745
▁angemessen	-5746
▁fragen	-5747
oy	-5748
arlament	-5749
Staaten	-5750
▁Stad	-5751
▁vorgestellt	-5752
stück	-5753
stattung	-5754
euch	-5755
▁manchmal	-5756
rät	-5757
▁Aufnahme	-5758
rächt	-5759
▁Schweizer	-5760
ohlen	-5761
ussen	-5762
▁Freunde	-5763
errt	-5764
kontro	-5765
▁Ereig	-5766
rüst	-5767
▁Steuern	-5768
▁sehe	-5769
▁Eigent	-5770
▁klare	-5771
▁führte	-5772
Um	-5773
▁Wald	-5774
▁Sum	-5775
▁Ther	-5776
▁Geburt	-5777
ierer	-5778
▁Acht	-5779
▁Gold	-5780
▁vermei	-5781
deutschen	-5782
▁Gesetzes	-5783
TV	-5784
▁ermittelt	-5785
▁Analyse	-5786
innern	-5787
▁kennt	-5788
▁AMD	-5789
▁immerhin	-5790
▁erinnert	-5791
schaff	-5792
▁Forschungs	-5793
kus	-5794
zone	-5795
▁Kredit	-5796
ählte	-5797
ld	-5798
▁David	-5799
▁Linke	-5800
▁angemeldet	-5801
▁2003	-5802
▁Konferenz	-5803
kw	-5804
fonds	-5805
▁Sl	-5806
▁2020	-5807
arren	-5808
▁Neuer	-5809
auert	-5810
▁Rebe	-5811
▁Mod	-5812
▁Gelegenheit	-5813
meer	-5814
lassung	-5815
wesen	-5816
gebracht	-5817
▁install	-5818
▁Aussagen	-5819
▁Lager	-5820
▁Sim	-5821
▁Veröffent	-5822
▁ober	-5823
▁Paläst	-5824
▁geschaffen	-5825
ror	-5826
▁Ann	-5827
▁Leiter	-5828
▁Robert	-5829
▁Bla	-5830
▁Lehrer	-5831
▁kritisierte	-5832
▁freien	-5833
ND	-5834
▁Dortmund	-5835
▁Zugriff	-5836
unn	-5837
▁Angriffe	-5838
raut	-5839
▁Berichte	-5840
▁Erdo	-5841
▁Ruhe	-5842
▁Düsseldorf	-5843
bauer	-5844
aktiv	-5845
üssen	-5846
▁übernommen	-5847
▁verpflichtet	-5848
ole	-5849
▁wirtschaftliche	-5850
▁lösen	-5851
▁Vize	-5852
▁abgeschlossen	-5853
Bit	-5854
▁Horst	-5855
▁solcher	-5856
arat	-5857
sphäre	-5858
▁gestimmt	-5859
df	-5860
▁Bislang	-5861
raph	-5862
holt	-5863
eitete	-5864
▁Rundfunk	-5865
▁persönlich	-5866
gesprä	-5867
▁Wechsel	-5868
▁schließen	-5869
kohol	-5870
▁Million	-5871
telligen	-5872
▁Flucht	-5873
sender	-5874
▁großes	-5875
▁Japan	-5876
gründung	-5877
fällen	-5878
▁geplante	-5879
ele	-5880
gesagt	-5881
▁jeweil	-5882
lösung	-5883
iziert	-5884
remden	-5885
morgen	-5886
▁Verbot	-5887
▁vorber	-5888
star	-5889
schäfte	-5890
omöglich	-5891
ehnte	-5892
inett	-5893
steiger	-5894
▁automatisch	-5895
krit	-5896
▁sin	-5897
mär	-5898
▁französische	-5899
▁Hom	-5900
ES	-5901
Konzern	-5902
drich	-5903
vorsitzende	-5904
üchte	-5905
▁zusätzliche	-5906
▁Fast	-5907
▁Bom	-5908
öglicht	-5909
liegt	-5910
▁Smartphones	-5911
▁gingen	-5912
▁Generation	-5913
▁Gal	-5914
▁Service	-5915
▁Fr	-5916
▁hoffen	-5917
▁Gleichzeitig	-5918
akteur	-5919
▁verlangt	-5920
▁schul	-5921
▁langen	-5922
▁gezogen	-5923
▁150	-5924
ague	-5925
▁erscheinen	-5926
schefs	-5927
▁Wahrheit	-5928
▁grundsätzlich	-5929
rd	-5930
▁irgendw	-5931
▁Kamera	-5932
▁Hinblick	-5933
▁übrigens	-5934
▁tradition	-5935
▁manche	-5936
▁Widerstand	-5937
▁wirft	-5938
schle	-5939
▁gescheiter	-5940
ales	-5941
▁HD	-5942
üren	-5943
atter	-5944
▁DFB	-5945
▁Alb	-5946
▁Wür	-5947
▁Verbr	-5948
▁not	-5949
▁Begriff	-5950
▁nachhalt	-5951
▁Plus	-5952
▁aufs	-5953
▁Glas	-5954
▁Anwendung	-5955
▁Schweden	-5956
int	-5957
▁Kritiker	-5958
ontainer	-5959
öne	-5960
▁ehr	-5961
▁Geheimdienst	-5962
tere	-5963
▁Arch	-5964
fläche	-5965
▁wobei	-5966
staats	-5967
▁positiv	-5968
▁ermöglicht	-5969
▁deutscher	-5970
▁[	-5971
▁handeln	-5972
▁News	-5973
kann	-5974
▁Typ	-5975
▁Website	-5976
ese	-5977
PA	-5978
öh	-5979
▁Lib	-5980
▁Bord	-5981
▁heim	-5982
verbot	-5983
obby	-5984
▁richtige	-5985
▁Terrorismus	-5986
▁wissenschaft	-5987
▁Mult	-5988
▁tät	-5989
▁defin	-5990
▁Oper	-5991
▁bayer	-5992
▁außen	-5993
▁Hy	-5994
DS	-5995
▁Verfassung	-5996
▁relativ	-5997
▁Keine	-5998
▁voran	-5999
▁genannten	-6000
▁daraus	-6001
▁ans	-6002
▁demonstr	-6003
machen	-6004
▁stabil	-6005
edes	-6006
▁Pla	-6007
▁Sar	-6008
▁passen	-6009
▁Gebäude	-6010
IA	-6011
▁bundes	-6012
▁region	-6013
▁Öz	-6014
vertreter	-6015
▁digitalen	-6016
vern	-6017
▁Zentrum	-6018
▁Wirk	-6019
Foto	-6020
vier	-6021
▁Sony	-6022
▁Tra	-6023
▁solange	-6024
CSU	-6025
▁Löw	-6026
gelöst	-6027
Grün	-6028
▁Ausnahme	-6029
▁drohen	-6030
ivid	-6031
zieht	-6032
verkehrs	-6033
▁zuständig	-6034
▁Einschränkung	-6035
okoll	-6036
▁Gerade	-6037
▁Lang	-6038
▁komment	-6039
▁th	-6040
con	-6041
▁Bro	-6042
▁Fo	-6043
▁Branche	-6044
handels	-6045
▁Kim	-6046
▁Regen	-6047
opf	-6048
▁lebt	-6049
▁verr	-6050
▁eindeutig	-6051
▁Do	-6052
▁zusätzlich	-6053
denk	-6054
▁schrift	-6055
▁Zunächst	-6056
▁optim	-6057
▁unmittel	-6058
iens	-6059
▁Ohne	-6060
modell	-6061
▁setzte	-6062
▁national	-6063
Im	-6064
▁Dsch	-6065
▁Alltag	-6066
▁Transparenz	-6067
▁brachte	-6068
▁tau	-6069
▁Rie	-6070
zeitung	-6071
▁vorhanden	-6072
part	-6073
▁Star	-6074
▁raus	-6075
ink	-6076
▁Szene	-6077
fest	-6078
▁Kriegs	-6079
▁Etw	-6080
▁max	-6081
▁Bier	-6082
▁stattfinden	-6083
▁Angreifer	-6084
lecht	-6085
sicherheit	-6086
▁Herk	-6087
▁wesent	-6088
afr	-6089
igi	-6090
▁Anst	-6091
▁Dutz	-6092
▁fördern	-6093
▁küm	-6094
▁Bildungs	-6095
ey	-6096
▁erscheint	-6097
maßen	-6098
▁Migration	-6099
▁Et	-6100
wind	-6101
gangs	-6102
▁elf	-6103
▁zer	-6104
▁Kolleginnen	-6105
karten	-6106
entwurf	-6107
▁gefallen	-6108
▁Off	-6109
oßen	-6110
▁mitteilte	-6111
▁Betreiber	-6112
schm	-6113
▁äußerst	-6114
▁warnt	-6115
▁Passwörter	-6116
leistet	-6117
komm	-6118
▁irgendwie	-6119
mord	-6120
▁Sollte	-6121
underte	-6122
▁Nachfolger	-6123
box	-6124
▁Kreuz	-6125
▁Verdächt	-6126
▁gering	-6127
▁Bürgern	-6128
▁Wetter	-6129
▁gelungen	-6130
▁steckt	-6131
iefer	-6132
▁land	-6133
▁darstellt	-6134
▁erhöhen	-6135
eiden	-6136
denburg	-6137
of	-6138
▁glaubt	-6139
▁NRW	-6140
▁iOS	-6141
▁Äußerungen	-6142
rt	-6143
▁Trotzdem	-6144
▁2002	-6145
▁Liebe	-6146
▁Notwend	-6147
▁Erfahrungen	-6148
▁privaten	-6149
rafen	-6150
plomat	-6151
▁Andreas	-6152
▁ausschließlich	-6153
▁Dre	-6154
▁daraufhin	-6155
▁erinnern	-6156
▁verfügbar	-6157
The	-6158
▁4.	-6159
zif	-6160
▁Cor	-6161
▁vieler	-6162
▁beant	-6163
▁Ziffer	-6164
▁II	-6165
▁Kreis	-6166
geg	-6167
▁Metho	-6168
▁ums	-6169
▁Fahrer	-6170
▁rechten	-6171
fällig	-6172
▁Whats	-6173
Sc	-6174
▁2001	-6175
▁Dienste	-6176
Dat	-6177
schnit	-6178
▁Attent	-6179
hre	-6180
▁anal	-6181
▁Amerika	-6182
▁geeig	-6183
▁Jeder	-6184
ise	-6185
wertet	-6186
▁wann	-6187
ürttemberg	-6188
▁Männern	-6189
▁Pu	-6190
▁geboren	-6191
beg	-6192
▁Registrierung	-6193
ütze	-6194
urity	-6195
▁ständig	-6196
sinn	-6197
hel	-6198
▁Account	-6199
AM	-6200
oppelt	-6201
▁Dauer	-6202
▁drau	-6203
▁Sorgen	-6204
▁Glob	-6205
▁Willen	-6206
reibung	-6207
äuble	-6208
▁miteinander	-6209
cks	-6210
▁Krisen	-6211
▁Klar	-6212
▁sorgt	-6213
▁ausgesprochen	-6214
▁Brasil	-6215
▁Regelung	-6216
estfalen	-6217
▁geäu	-6218
▁Tiere	-6219
▁Ausbildung	-6220
ziehung	-6221
45	-6222
blatt	-6223
▁Klin	-6224
▁verp	-6225
same	-6226
ulierung	-6227
▁Gest	-6228
ziehungsweise	-6229
▁jahr	-6230
▁bemü	-6231
mil	-6232
mark	-6233
werken	-6234
▁Verbrechen	-6235
▁Menschenrechts	-6236
▁Abs	-6237
▁Tabl	-6238
▁Republikan	-6239
▁Erwart	-6240
▁Verlust	-6241
arbeitern	-6242
▁weiteres	-6243
cy	-6244
▁gefragt	-6245
▁(@	-6246
endem	-6247
▁Bezir	-6248
▁Karriere	-6249
schirm	-6250
▁hundert	-6251
▁zunehmend	-6252
▁Manager	-6253
bte	-6254
▁Rum	-6255
eta	-6256
▁Kirchen	-6257
▁Hilfs	-6258
▁tritt	-6259
▁einzelne	-6260
ikte	-6261
▁somit	-6262
▁welches	-6263
aming	-6264
▁Hacker	-6265
▁Einschätzung	-6266
▁stehe	-6267
▁bez	-6268
▁Schlüssel	-6269
Land	-6270
▁Play	-6271
▁Spitze	-6272
eldungen	-6273
▁schlä	-6274
oge	-6275
▁weitgehend	-6276
:3	-6277
▁Derzeit	-6278
Sprecher	-6279
pert	-6280
▁füllen	-6281
▁Tatsächlich	-6282
▁Schnitt	-6283
fordern	-6284
▁Tele	-6285
beit	-6286
▁Verordnung	-6287
▁IP	-6288
waffen	-6289
ish	-6290
▁übertragen	-6291
twortet	-6292
stechn	-6293
zy	-6294
iels	-6295
▁Leistung	-6296
karte	-6297
▁höhere	-6298
▁Alles	-6299
▁Schäuble	-6300
▁Naz	-6301
▁Herkunft	-6302
▁Präsidentschaft	-6303
schafter	-6304
▁Welche	-6305
▁Liefer	-6306
▁Ul	-6307
▁reagieren	-6308
laf	-6309
▁Wik	-6310
▁beziehungsweise	-6311
▁Vorwurf	-6312
▁Aufsichts	-6313
▁Finanzierung	-6314
▁di	-6315
video	-6316
▁dritte	-6317
▁Bon	-6318
▁(3	-6319
7-	-6320
▁täglich	-6321
▁halb	-6322
▁kleiner	-6323
illigung	-6324
▁Ungar	-6325
▁belast	-6326
öffnen	-6327
▁hierzu	-6328
ategor	-6329
▁hart	-6330
▁steigt	-6331
▁Fortschritte	-6332
▁Rekord	-6333
forn	-6334
öm	-6335
▁Schä	-6336
▁gener	-6337
Württemberg	-6338
zert	-6339
aliforn	-6340
freund	-6341
▁kommun	-6342
▁einsetzen	-6343
▁Untersuchungs	-6344
problem	-6345
omaten	-6346
lefon	-6347
ürgen	-6348
▁Heil	-6349
▁lautet	-6350
schützer	-6351
▁unseres	-6352
▁Cent	-6353
▁ergän	-6354
▁schwere	-6355
▁WLAN	-6356
▁Weihnacht	-6357
▁Zoll	-6358
▁Tausende	-6359
▁laufenden	-6360
▁erhöht	-6361
▁Prior	-6362
to	-6363
▁vorgelegt	-6364
▁technischen	-6365
▁Einer	-6366
▁sucht	-6367
▁Runde	-6368
▁jen	-6369
▁Nordkorea	-6370
▁verschär	-6371
▁davor	-6372
▁vermeiden	-6373
äumt	-6374
▁Demokraten	-6375
▁Afghanistan	-6376
▁Rettungs	-6377
its	-6378
▁Sub	-6379
ci	-6380
▁verändert	-6381
stu	-6382
Westfalen	-6383
▁Landtags	-6384
99	-6385
▁Verarbeitung	-6386
anne	-6387
▁stimmt	-6388
▁ident	-6389
▁Änderungsantrag	-6390
▁Bra	-6391
▁Mie	-6392
BC	-6393
▁Bedro	-6394
▁abgelehnt	-6395
▁woh	-6396
vel	-6397
▁Vorgänger	-6398
▁Stabilität	-6399
klärt	-6400
▁Obwohl	-6401
▁Note	-6402
▁keines	-6403
▁Stimmung	-6404
):	-6405
▁verdient	-6406
▁1000	-6407
schlüsse	-6408
▁Snow	-6409
▁gedacht	-6410
▁Abt	-6411
▁Organisationen	-6412
▁Besucher	-6413
▁Alternative	-6414
▁Nordrhein	-6415
kandidat	-6416
MS	-6417
legten	-6418
ana	-6419
▁abgesch	-6420
reuung	-6421
▁fr	-6422
wahr	-6423
▁befinden	-6424
▁Erfahrung	-6425
▁Signal	-6426
▁starke	-6427
▁Clinton	-6428
AT	-6429
▁Joh	-6430
▁Unterschied	-6431
nahm	-6432
▁lernen	-6433
▁säm	-6434
▁ausgeschlossen	-6435
▁erläu	-6436
reite	-6437
▁-,	-6438
ahles	-6439
▁hilft	-6440
▁befindet	-6441
▁Browser	-6442
▁Katastrop	-6443
▁verkaufen	-6444
Techn	-6445
▁Friedrich	-6446
▁Flor	-6447
allel	-6448
▁Auffassung	-6449
▁Pre	-6450
▁Kro	-6451
aßen	-6452
▁vollkommen	-6453
▁DV	-6454
▁Amerikaner	-6455
▁hielt	-6456
▁weist	-6457
▁poten	-6458
▁Bekämpfung	-6459
adem	-6460
▁Schrift	-6461
front	-6462
▁wechsel	-6463
▁Frankfurter	-6464
▁Ausschusses	-6465
▁Lind	-6466
▁Moder	-6467
.201	-6468
▁stammen	-6469
forderung	-6470
▁Angesichts	-6471
▁österreich	-6472
▁bezahlen	-6473
▁Nahles	-6474
▁Grüne	-6475
fas	-6476
▁Wil	-6477
▁Betriebssystem	-6478
Bet	-6479
wirken	-6480
▁entdeckt	-6481
▁Serie	-6482
▁verurs	-6483
erner	-6484
bart	-6485
Entwick	-6486
reicher	-6487
▁CO	-6488
seiten	-6489
▁konkrete	-6490
▁Erde	-6491
▁entsprechend	-6492
gerechnet	-6493
▁fiel	-6494
▁Nachricht	-6495
▁Hig	-6496
▁liefern	-6497
ildet	-6498
gewiesen	-6499
ühungen	-6500
▁Nok	-6501
▁BM	-6502
▁anlegen	-6503
▁DDR	-6504
▁wünschen	-6505
▁Auftritt	-6506
ley	-6507
▁Leipzig	-6508
reiter	-6509
see	-6510
▁jährlich	-6511
verarbeitung	-6512
▁Regierungschef	-6513
utzen	-6514
▁persönlicher	-6515
▁ausgew	-6516
▁Anhänger	-6517
▁wus	-6518
▁Beteiligung	-6519
entschei	-6520
grenze	-6521
union	-6522
porter	-6523
linge	-6524
▁Innov	-6525
▁Antworten	-6526
digten	-6527
endum	-6528
▁Tarif	-6529
▁Ähn	-6530
▁Spar	-6531
▁entspricht	-6532
▁fühlen	-6533
▁Gesetze	-6534
ürzt	-6535
▁Verbesserung	-6536
lichte	-6537
▁komme	-6538
▁Psych	-6539
enntnisse	-6540
▁Prin	-6541
▁Glau	-6542
▁gefährlich	-6543
▁veran	-6544
cl	-6545
▁Kün	-6546
▁Berufs	-6547
▁Beschäftigung	-6548
▁Com	-6549
meter	-6550
iga	-6551
renten	-6552
▁Markus	-6553
▁warnte	-6554
▁Bühne	-6555
▁Realität	-6556
▁Wicht	-6557
wid	-6558
▁Mex	-6559
▁Erdoan	-6560
EC	-6561
▁Passag	-6562
▁Asp	-6563
▁vorgeworfen	-6564
▁Zeitraum	-6565
▁Bundesinnen	-6566
▁IC	-6567
▁ausreichend	-6568
▁Städte	-6569
wort	-6570
▁Rot	-6571
▁euch	-6572
▁Problemen	-6573
▁Branchen	-6574
▁Ungarn	-6575
▁bekannte	-6576
richter	-6577
▁treten	-6578
ernt	-6579
▁Andere	-6580
achtet	-6581
▁Einwilligung	-6582
okal	-6583
skrise	-6584
▁Steinmeier	-6585
▁Agr	-6586
▁aufgeb	-6587
▁Engagement	-6588
▁Vermögen	-6589
sprozess	-6590
▁Tät	-6591
▁Pflege	-6592
leute	-6593
▁umgesetzt	-6594
▁digitale	-6595
▁herunter	-6596
▁zahlreichen	-6597
polizei	-6598
ZB	-6599
▁You	-6600
atell	-6601
▁Feld	-6602
▁äußern	-6603
▁erwei	-6604
▁Schwierigkeiten	-6605
▁wies	-6606
▁begleitet	-6607
▁ries	-6608
▁Block	-6609
▁Cha	-6610
▁Programme	-6611
▁Geschäftsführer	-6612
▁Spiegel	-6613
kat	-6614
ops	-6615
▁größeren	-6616
ament	-6617
▁zählt	-6618
▁Spezial	-6619
▁DM	-6620
▁möchten	-6621
ied	-6622
▁verfolgt	-6623
gere	-6624
Unter	-6625
▁Hotel	-6626
▁Beschluss	-6627
sive	-6628
▁Änderung	-6629
▁Baum	-6630
▁Deleg	-6631
▁danken	-6632
krise	-6633
▁gefl	-6634
▁Sekt	-6635
Sicher	-6636
ession	-6637
haften	-6638
yl	-6639
▁anschließend	-6640
▁Mel	-6641
▁Spann	-6642
▁Frühjahr	-6643
▁Leistungs	-6644
▁Paar	-6645
▁Schreiben	-6646
▁ernsthaft	-6647
Software	-6648
ohen	-6649
achim	-6650
▁Abschie	-6651
▁umge	-6652
▁Erweiterung	-6653
▁36	-6654
▁egal	-6655
▁human	-6656
▁Extrem	-6657
▁Erstellung	-6658
▁beschrän	-6659
alte	-6660
▁Wall	-6661
ekul	-6662
ünden	-6663
▁Kooperation	-6664
ET	-6665
▁Ausgabe	-6666
peratur	-6667
insen	-6668
▁Investoren	-6669
grenzen	-6670
▁Danach	-6671
unes	-6672
▁Börsen	-6673
▁Paul	-6674
ifa	-6675
▁dürfe	-6676
schreiben	-6677
▁womöglich	-6678
ript	-6679
oler	-6680
▁deswegen	-6681
agd	-6682
SD	-6683
▁se	-6684
▁Cyber	-6685
vertreten	-6686
▁gerecht	-6687
▁Plattform	-6688
▁lö	-6689
tra	-6690
▁Hat	-6691
Aut	-6692
▁Projekte	-6693
profil	-6694
bas	-6695
▁Ansatz	-6696
▁starten	-6697
teile	-6698
▁AK	-6699
▁Sendung	-6700
,0	-6701
▁Peg	-6702
▁Tsch	-6703
ächs	-6704
stete	-6705
wj	-6706
lexib	-6707
▁Qual	-6708
▁Künstler	-6709
ßert	-6710
▁Posit	-6711
▁Angehör	-6712
▁Rücktritt	-6713
▁Büro	-6714
▁Wege	-6715
ena	-6716
▁erlebt	-6717
▁kostenlos	-6718
▁Alkohol	-6719
erkennung	-6720
riebe	-6721
▁dre	-6722
KA	-6723
▁quasi	-6724
▁Istan	-6725
lö	-6726
▁abs	-6727
▁Gaz	-6728
▁q	-6729
▁Bayer	-6730
▁38	-6731
▁Vereinbarung	-6732
▁Verst	-6733
hersteller	-6734
▁Deutsch	-6735
▁rück	-6736
▁krank	-6737
▁Verwaltung	-6738
▁Fakt	-6739
barer	-6740
▁Name	-6741
alls	-6742
▁verstärkt	-6743
▁Technologie	-6744
▁klingt	-6745
▁Führungs	-6746
▁Rein	-6747
▁vorl	-6748
▁Rass	-6749
FP	-6750
▁jur	-6751
▁Snowden	-6752
▁Saudi	-6753
▁teuer	-6754
▁interessiert	-6755
▁reichen	-6756
▁Ausgaben	-6757
▁20.	-6758
▁Norden	-6759
ipul	-6760
")	-6761
illa	-6762
▁geändert	-6763
PU	-6764
▁lebens	-6765
einkommen	-6766
▁Stefan	-6767
anda	-6768
igem	-6769
▁Por	-6770
dam	-6771
▁Fahrzeuge	-6772
sprogramm	-6773
äufe	-6774
▁Lösungen	-6775
▁entstanden	-6776
▁bas	-6777
▁Gipfel	-6778
▁äußerte	-6779
Seite	-6780
▁Schmidt	-6781
Arab	-6782
▁Fahrzeug	-6783
gut	-6784
fachen	-6785
iment	-6786
▁Apps	-6787
70	-6788
▁Inzwischen	-6789
▁beinhalten	-6790
▁garant	-6791
arzt	-6792
▁Notwendigkeit	-6793
uert	-6794
ließt	-6795
▁Raketen	-6796
▁stieg	-6797
lösen	-6798
▁Jahrzehn	-6799
pag	-6800
▁dahin	-6801
▁schlägt	-6802
▁Missbrauch	-6803
▁5.	-6804
▁Vertrags	-6805
▁Vereinten	-6806
▁Hit	-6807
orts	-6808
▁Schritte	-6809
▁aufgefordert	-6810
▁Waren	-6811
▁Angeklag	-6812
▁dauern	-6813
▁RT	-6814
▁gelegen	-6815
hebung	-6816
▁Dresden	-6817
änen	-6818
▁Liter	-6819
ary	-6820
▁Erinner	-6821
kap	-6822
ackt	-6823
ätestens	-6824
▁Vir	-6825
lück	-6826
▁offenen	-6827
▁meines	-6828
▁übersch	-6829
▁196	-6830
▁erleich	-6831
▁offiziellen	-6832
▁Immobil	-6833
schiff	-6834
AS	-6835
▁Main	-6836
▁letztlich	-6837
wies	-6838
iller	-6839
eher	-6840
▁Sachen	-6841
▁Polit	-6842
▁Ausländer	-6843
▁bezeichnete	-6844
▁Vorhaben	-6845
▁stellvertreten	-6846
▁Beschwer	-6847
▁gleiche	-6848
▁Publikum	-6849
▁links	-6850
▁freiwill	-6851
▁Ideen	-6852
ikanische	-6853
▁bekam	-6854
ike	-6855
▁fragt	-6856
▁zitiert	-6857
▁Flugzeug	-6858
▁anbieten	-6859
▁Russlands	-6860
▁bzw	-6861
▁Maschinen	-6862
agn	-6863
stitution	-6864
prüfung	-6865
verwaltung	-6866
▁geäußert	-6867
▁Rückkehr	-6868
▁vollständig	-6869
▁Damals	-6870
ius	-6871
höhung	-6872
▁intens	-6873
Da	-6874
▁Kohl	-6875
▁diskutieren	-6876
▁Gott	-6877
▁Nokia	-6878
liste	-6879
ader	-6880
eiern	-6881
holen	-6882
▁Johann	-6883
erken	-6884
▁Finger	-6885
▁Mrd	-6886
öger	-6887
urer	-6888
▁anerk	-6889
▁Mikro	-6890
▁Beweis	-6891
ios	-6892
scheidet	-6893
▁Kongress	-6894
▁freie	-6895
▁leiden	-6896
▁Völker	-6897
▁beendet	-6898
änglich	-6899
▁Schaff	-6900
eth	-6901
▁Wein	-6902
▁Zugleich	-6903
ics	-6904
angs	-6905
ueller	-6906
▁jeweiligen	-6907
▁wor	-6908
▁fried	-6909
Über	-6910
▁Veranstaltung	-6911
ößen	-6912
▁Einverständnis	-6913
Te	-6914
▁Bab	-6915
▁dienen	-6916
▁ließen	-6917
▁betreffen	-6918
▁Ordnung	-6919
▁Istanbul	-6920
▁unabhängig	-6921
Le	-6922
arischen	-6923
▁Terroristen	-6924
▁Fleisch	-6925
falt	-6926
▁Stattdessen	-6927
▁19.	-6928
adresse	-6929
utter	-6930
▁besteh	-6931
ollen	-6932
▁Medizin	-6933
▁Sand	-6934
zeugung	-6935
▁block	-6936
▁Kund	-6937
▁2018,	-6938
▁dur	-6939
▁Identität	-6940
▁Ra	-6941
▁33	-6942
betrieb	-6943
▁Mess	-6944
▁diejenigen	-6945
wissenschaft	-6946
able	-6947
▁schlimm	-6948
ifik	-6949
▁Ankün	-6950
▁schwarz	-6951
▁Mittelmeer	-6952
splan	-6953
versorgung	-6954
einhalb	-6955
▁Last	-6956
▁mar	-6957
ügel	-6958
▁plant	-6959
▁eingestellt	-6960
▁beraten	-6961
▁europäischer	-6962
ourcen	-6963
▁Strei	-6964
▁erzielt	-6965
▁Radio	-6966
▁Redaktion	-6967
▁Zeugen	-6968
▁Darauf	-6969
▁Bestand	-6970
▁Koalitions	-6971
▁überraschend	-6972
▁Lizenz	-6973
▁kultur	-6974
▁Falle	-6975
▁verwenden	-6976
▁einheit	-6977
kaufen	-6978
sieht	-6979
▁Wirkung	-6980
BI	-6981
▁enttäu	-6982
ifiziert	-6983
▁mittel	-6984
sa	-6985
wenden	-6986
▁Begründung	-6987
▁Autoren	-6988
▁Jer	-6989
▁GByte	-6990
reift	-6991
▁Hardware	-6992
▁auseinander	-6993
▁8.	-6994
▁rief	-6995
▁hängt	-6996
▁stammt	-6997
Mobil	-6998
▁engag	-6999
▁geschehen	-7000
▁Jobs	-7001
▁48	-7002
▁Grafik	-7003
▁Cloud	-7004
▁legte	-7005
obachter	-7006
▁Chip	-7007
▁Ram	-7008
▁verzichten	-7009
berichten	-7010
▁Alters	-7011
▁Agentur	-7012
kunden	-7013
▁stren	-7014
▁samm	-7015
spiegel	-7016
▁Toten	-7017
versicherung	-7018
▁glück	-7019
▁eins	-7020
▁Korru	-7021
Aber	-7022
Produ	-7023
▁Dritt	-7024
▁Anklage	-7025
▁My	-7026
▁Feuerwehr	-7027
organisationen	-7028
▁blo	-7029
▁staatlichen	-7030
▁kom	-7031
spe	-7032
▁vorerst	-7033
▁besuchen	-7034
▁Klimawandel	-7035
kommt	-7036
anteil	-7037
armon	-7038
▁NDR	-7039
▁demokratischen	-7040
rateg	-7041
▁Kölner	-7042
▁technische	-7043
enk	-7044
▁staatliche	-7045
▁Traum	-7046
hört	-7047
amens	-7048
▁Aufklärung	-7049
▁Login	-7050
▁Versicher	-7051
▁fre	-7052
▁Karl	-7053
üch	-7054
▁Funktionen	-7055
imir	-7056
ynam	-7057
▁private	-7058
OCUS	-7059
volle	-7060
eichert	-7061
sens	-7062
▁Get	-7063
▁Nummer	-7064
möglichkeiten	-7065
▁frag	-7066
▁at	-7067
vorschriften	-7068
▁Song	-7069
▁gutes	-7070
istischer	-7071
▁profitieren	-7072
▁Austr	-7073
▁Quad	-7074
▁gegenseit	-7075
▁Kabinett	-7076
▁Arbeitsmarkt	-7077
▁Inhalt	-7078
▁Email	-7079
▁FOCUS	-7080
▁Bundesrepublik	-7081
▁Urlaub	-7082
▁hab	-7083
▁Punkten	-7084
▁Finanzminister	-7085
zimmer	-7086
▁Bremen	-7087
▁Fischerei	-7088
▁echte	-7089
▁Entschließung	-7090
▁nationale	-7091
▁Umfeld	-7092
▁eingeführt	-7093
▁Pressekonferenz	-7094
weder	-7095
▁sinnvoll	-7096
▁Jürgen	-7097
▁mache	-7098
▁Jugendliche	-7099
▁Reformen	-7100
▁15.	-7101
▁untersucht	-7102
▁Pir	-7103
▁genü	-7104
▁Ausbau	-7105
ory	-7106
afft	-7107
▁Währungs	-7108
städ	-7109
▁syrischen	-7110
▁Vorstellung	-7111
▁bestimmt	-7112
onen	-7113
▁Bundesliga	-7114
▁Rechner	-7115
ariante	-7116
▁zählen	-7117
▁chinesischen	-7118
▁Jungen	-7119
▁wesentlich	-7120
▁Äg	-7121
▁richtigen	-7122
▁ergeben	-7123
züg	-7124
▁total	-7125
▁Anlass	-7126
▁Wohnungen	-7127
▁aufmerksam	-7128
▁Verteidigung	-7129
istanz	-7130
nissen	-7131
rauens	-7132
▁Zuletzt	-7133
igkeits	-7134
▁Proteste	-7135
▁Klei	-7136
▁Vorfall	-7137
▁Show	-7138
▁zwingen	-7139
▁Rebellen	-7140
▁Bündnis	-7141
▁welchen	-7142
▁gearbeitet	-7143
▁75	-7144
▁widerrufen	-7145
spolit	-7146
räsid	-7147
▁Klim	-7148
riff	-7149
andeln	-7150
systeme	-7151
schaffung	-7152
TS	-7153
▁gestar	-7154
ruppe	-7155
▁7.	-7156
sfraktion	-7157
Kl	-7158
tr	-7159
▁festge	-7160
zum	-7161
Update	-7162
wün	-7163
▁Tagesordnung	-7164
▁ausdrücklich	-7165
ij	-7166
forscher	-7167
▁Rech	-7168
▁won	-7169
▁Nieders	-7170
räftig	-7171
▁Kontroll	-7172
▁Management	-7173
▁Anzahl	-7174
▁Pen	-7175
▁Europäer	-7176
▁rechtsextrem	-7177
▁fürs	-7178
▁frühen	-7179
tlichen	-7180
▁Verständnis	-7181
ladimir	-7182
▁Gäste	-7183
bten	-7184
werks	-7185
brechen	-7186
▁31	-7187
▁Yah	-7188
▁rechnet	-7189
▁Verhandlung	-7190
kehrt	-7191
rennen	-7192
loggen	-7193
▁existierende	-7194
▁Maiz	-7195
▁Barcel	-7196
▁Daniel	-7197
▁Organ	-7198
▁erfüllt	-7199
▁berücksichtigt	-7200
ischt	-7201
▁effekt	-7202
spopul	-7203
▁diver	-7204
sturz	-7205
▁Fen	-7206
▁Regional	-7207
▁abgesehen	-7208
▁Kos	-7209
▁Front	-7210
bezogen	-7211
Bahn	-7212
lepp	-7213
fähigkeit	-7214
▁Bemühungen	-7215
▁10.	-7216
immel	-7217
otto	-7218
ocker	-7219
▁bauen	-7220
▁Absatz	-7221
kom	-7222
General	-7223
New	-7224
▁Systeme	-7225
▁Meg	-7226
▁Leser	-7227
ettel	-7228
echtigkeit	-7229
▁Code	-7230
Daten	-7231
.*	-7232
▁Schaffung	-7233
atische	-7234
▁reich	-7235
▁abzuschalten	-7236
▁zog	-7237
leisten	-7238
▁Kohle	-7239
▁Umfragen	-7240
▁Security	-7241
▁Bedenken	-7242
leihen	-7243
▁Liss	-7244
hle	-7245
regel	-7246
▁34	-7247
▁Gemeinschafts	-7248
▁Darin	-7249
forschung	-7250
▁bilden	-7251
▁hand	-7252
▁Train	-7253
▁Zucker	-7254
dat	-7255
ütter	-7256
▁Karls	-7257
▁Betroffenen	-7258
gest	-7259
okument	-7260
abon	-7261
astian	-7262
inf	-7263
▁Roh	-7264
▁festgestellt	-7265
oral	-7266
▁Eigentlich	-7267
usion	-7268
▁position	-7269
▁verhindert	-7270
▁Mad	-7271
OL	-7272
lässig	-7273
endes	-7274
▁Agrar	-7275
▁drän	-7276
▁6.	-7277
▁Aktivitäten	-7278
▁Rand	-7279
▁dram	-7280
▁Ster	-7281
geräte	-7282
▁Schrö	-7283
▁gewar	-7284
ision	-7285
▁wonach	-7286
▁strateg	-7287
▁besondere	-7288
▁geschafft	-7289
▁Kub	-7290
Was	-7291
▁Fel	-7292
▁Joachim	-7293
komp	-7294
▁Matth	-7295
▁beitragen	-7296
▁schlechter	-7297
▁International	-7298
▁häuf	-7299
▁Benutzernamen	-7300
▁See	-7301
▁galt	-7302
▁Juden	-7303
▁fährt	-7304
▁schm	-7305
▁Dokumente	-7306
Partei	-7307
▁ged	-7308
▁geprü	-7309
▁via	-7310
istenz	-7311
staur	-7312
▁Lissabon	-7313
▁angesprochen	-7314
gnor	-7315
▁bezahlt	-7316
▁behauptet	-7317
▁verabschiedet	-7318
▁Gei	-7319
▁sodass	-7320
▁Bud	-7321
ses	-7322
▁werfen	-7323
ologischen	-7324
▁konkreten	-7325
▁eingegebenen	-7326
▁ausführ	-7327
buchstaben	-7328
▁Samm	-7329
annen	-7330
▁Genau	-7331
▁Arbeiter	-7332
▁meinte	-7333
▁oper	-7334
aufnahme	-7335
GH	-7336
▁Kons	-7337
▁beob	-7338
▁Bereit	-7339
▁einloggen	-7340
▁Hessen	-7341
lime	-7342
iness	-7343
wungen	-7344
▁Vorschriften	-7345
schrieben	-7346
▁Afrika	-7347
▁engl	-7348
▁Georg	-7349
▁600	-7350
ologische	-7351
▁Barack	-7352
▁hinsichtlich	-7353
änn	-7354
▁Systems	-7355
eilung	-7356
händler	-7357
▁gesund	-7358
▁Arzt	-7359
▁sicht	-7360
▁welcher	-7361
▁Betriebs	-7362
▁getr	-7363
Dienst	-7364
▁präsentiert	-7365
iß	-7366
▁ursprünglich	-7367
▁Barcelona	-7368
▁Jahrzehnten	-7369
CH	-7370
▁Dach	-7371
▁Live	-7372
▁Behandlung	-7373
▁zusammenge	-7374
▁56	-7375
▁Blu	-7376
▁verdienen	-7377
▁Technology	-7378
▁namens	-7379
erren	-7380
Programm	-7381
▁Kleinbuchstaben	-7382
▁BER	-7383
▁Press	-7384
dio	-7385
ude	-7386
isemit	-7387
▁Unabhängigkeit	-7388
▁Republikaner	-7389
▁begrenz	-7390
▁schafft	-7391
ku	-7392
lant	-7393
▁Argument	-7394
▁vielmehr	-7395
SV	-7396
▁betre	-7397
▁wächst	-7398
▁Media	-7399
achtens	-7400
▁250	-7401
▁1,5	-7402
▁argument	-7403
.05	-7404
icker	-7405
onald	-7406
hilfen	-7407
sektor	-7408
schiede	-7409
ungsst	-7410
:5	-7411
▁Hein	-7412
führten	-7413
▁BV	-7414
ward	-7415
▁praktisch	-7416
▁Ankar	-7417
▁Prüfung	-7418
eting	-7419
▁Fe	-7420
▁Senat	-7421
nitz	-7422
gemeinschaft	-7423
aks	-7424
▁diesmal	-7425
▁Black	-7426
digungen	-7427
▁Grundsatz	-7428
▁Ihrer	-7429
▁voller	-7430
▁Champ	-7431
einsatz	-7432
▁verste	-7433
▁Schmer	-7434
altungen	-7435
▁Wohnungs	-7436
▁zukün	-7437
▁verbessert	-7438
▁funktionieren	-7439
▁Anerkennung	-7440
inal	-7441
▁Beziehung	-7442
▁gelang	-7443
▁Wladimir	-7444
offen	-7445
ource	-7446
otenzial	-7447
▁Unsere	-7448
▁Aufbau	-7449
erben	-7450
▁Niedersachsen	-7451
▁Street	-7452
▁Yahoo	-7453
▁zweit	-7454
öpft	-7455
auch	-7456
▁Angelegenheit	-7457
▁verbreitet	-7458
steigen	-7459
▁Anwender	-7460
▁Pegida	-7461
inens	-7462
▁Bad	-7463
befeh	-7464
arr	-7465
stoffe	-7466
iden	-7467
▁machten	-7468
Is	-7469
gewicht	-7470
▁massiv	-7471
örder	-7472
▁veröffentlichte	-7473
▁Mailadresse	-7474
▁Plast	-7475
▁Sekunden	-7476
▁Zustand	-7477
▁gestorben	-7478
iertes	-7479
▁künst	-7480
▁jap	-7481
▁begrün	-7482
▁Mehrere	-7483
▁39	-7484
▁warf	-7485
▁übert	-7486
▁Ruf	-7487
▁Sonne	-7488
▁Klimaschutz	-7489
Hersteller	-7490
oppen	-7491
Arabien	-7492
-1	-7493
▁Benutzername	-7494
▁bedroht	-7495
sprech	-7496
▁Thür	-7497
isco	-7498
loss	-7499
▁Immobilien	-7500
alz	-7501
Gipfel	-7502
▁Indien	-7503
uste	-7504
▁Athen	-7505
▁religi	-7506
▁gemäß	-7507
Zeitung	-7508
▁Registrieren	-7509
▁hierzulande	-7510
sburg	-7511
▁Kenntnis	-7512
ister	-7513
▁Commun	-7514
▁willige	-7515
gemeine	-7516
▁Tab	-7517
uck	-7518
lohn	-7519
▁Risiken	-7520
raktionen	-7521
▁expl	-7522
▁Gegensatz	-7523
▁Autom	-7524
▁Muslime	-7525
üten	-7526
▁herrscht	-7527
▁allgemein	-7528
▁verf	-7529
▁Tri	-7530
▁Trau	-7531
▁Posten	-7532
▁passieren	-7533
▁Nachmittag	-7534
▁Mitarbeitern	-7535
▁qual	-7536
▁stärken	-7537
▁Erkenntnis	-7538
▁verstanden	-7539
▁gewährleisten	-7540
Terror	-7541
▁Weißen	-7542
▁bestehendem	-7543
▁WhatsApp	-7544
▁zdf	-7545
▁respekt	-7546
▁Erwartungen	-7547
zahlung	-7548
Deut	-7549
etze	-7550
▁37	-7551
▁SZ	-7552
sm	-7553
▁gehandelt	-7554
▁finanzielle	-7555
▁Schie	-7556
▁dest	-7557
▁Jugendlichen	-7558
annter	-7559
▁stimm	-7560
▁erhielt	-7561
▁12.	-7562
▁Gra	-7563
▁Kinderprofil	-7564
▁Ach	-7565
▁Inner	-7566
Server	-7567
lichkeiten	-7568
▁Standards	-7569
▁Papst	-7570
fält	-7571
▁humanit	-7572
▁Briten	-7573
licherweise	-7574
Al	-7575
▁eigenes	-7576
▁Doppel	-7577
▁ausgesetzt	-7578
stehenden	-7579
▁Etwa	-7580
terin	-7581
▁Professor	-7582
▁Funk	-7583
▁Fehl	-7584
solv	-7585
einigt	-7586
▁liber	-7587
.15	-7588
▁Hundert	-7589
apier	-7590
formationen	-7591
ED	-7592
fre	-7593
▁Hen	-7594
▁Verwendung	-7595
▁stür	-7596
:4	-7597
roh	-7598
▁Arm	-7599
handeln	-7600
▁nahezu	-7601
▁schicken	-7602
▁zuständigen	-7603
▁entweder	-7604
▁straf	-7605
▁Belast	-7606
▁aufnehmen	-7607
▁Breit	-7608
▁eröffnet	-7609
▁Truppen	-7610
Mails	-7611
▁Süden	-7612
▁irgendwann	-7613
▁Erste	-7614
▁Fäh	-7615
leitung	-7616
▁wiederholt	-7617
▁Gewerkschaft	-7618
▁protest	-7619
▁guter	-7620
▁Einrichtung	-7621
▁Marken	-7622
▁800	-7623
preise	-7624
osex	-7625
▁Maizire	-7626
porte	-7627
▁Quelle	-7628
▁schn	-7629
▁Diskussionen	-7630
glück	-7631
wiegend	-7632
▁Madr	-7633
▁Kurden	-7634
arische	-7635
gesell	-7636
▁Vf	-7637
▁dich	-7638
▁Fisch	-7639
▁Rechen	-7640
▁medizin	-7641
nier	-7642
owski	-7643
schten	-7644
▁Muse	-7645
▁Anschluss	-7646
ifizierung	-7647
swert	-7648
otion	-7649
▁Progn	-7650
▁menschen	-7651
Or	-7652
▁besseren	-7653
▁Ankara	-7654
wende	-7655
▁fanden	-7656
▁Ag	-7657
▁18.	-7658
ags	-7659
▁virt	-7660
▁Ministerium	-7661
ly	-7662
▁wirken	-7663
▁finanziellen	-7664
▁Stich	-7665
▁Referendum	-7666
▁forder	-7667
▁Kandidat	-7668
▁Bonn	-7669
räumen	-7670
technik	-7671
▁Konsum	-7672
genda	-7673
▁erhoben	-7674
passen	-7675
utzung	-7676
▁9.	-7677
▁Reisen	-7678
▁liebe	-7679
Bei	-7680
▁Rechn	-7681
▁Spaß	-7682
▁teilen	-7683
▁Ev	-7684
▁Mexiko	-7685
▁geblieben	-7686
ürf	-7687
▁retten	-7688
▁umstrittenen	-7689
▁schriftlich	-7690
▁Sonnen	-7691
Außen	-7692
▁verändern	-7693
▁Kabel	-7694
bedarf	-7695
viel	-7696
▁spät	-7697
▁informieren	-7698
▁Entwicklungen	-7699
mon	-7700
iebt	-7701
▁grundlegen	-7702
öll	-7703
▁kä	-7704
▁Vom	-7705
▁verspricht	-7706
Geschäft	-7707
ählten	-7708
▁betrachtet	-7709
▁Tay	-7710
▁wichtigste	-7711
ordnet	-7712
VP	-7713
▁13.	-7714
▁verteilt	-7715
▁Camp	-7716
▁Merkels	-7717
ktop	-7718
▁Respekt	-7719
▁Alli	-7720
ausschusses	-7721
▁Kommissarin	-7722
▁Wes	-7723
▁verschl	-7724
▁Zentralb	-7725
▁hinweg	-7726
retern	-7727
▁gemeldet	-7728
▁Beschäftigten	-7729
▁liefert	-7730
▁Fifa	-7731
bungen	-7732
▁EZB	-7733
▁ruft	-7734
het	-7735
chem	-7736
▁Nahr	-7737
▁Lohn	-7738
▁politischer	-7739
▁angegriffen	-7740
▁Standpunkt	-7741
▁Erz	-7742
▁gescheitert	-7743
container	-7744
▁Perspekt	-7745
fuhr	-7746
lager	-7747
rüstung	-7748
▁Veränderungen	-7749
▁eigener	-7750
finale	-7751
▁Madrid	-7752
▁Roboter	-7753
▁ungewöhn	-7754
▁geringer	-7755
▁su	-7756
beam	-7757
▁65	-7758
▁zuerst	-7759
▁griechischen	-7760
▁gespielt	-7761
ction	-7762
▁Irland	-7763
junkt	-7764
▁Home	-7765
▁Spielen	-7766
häuser	-7767
▁Rechnung	-7768
▁Club	-7769
▁zustimmen	-7770
▁durchgeführt	-7771
▁Maas	-7772
▁Fal	-7773
▁bestehenden	-7774
▁verfolgen	-7775
ronik	-7776
▁positive	-7777
mert	-7778
legte	-7779
▁Gang	-7780
▁Gemeinde	-7781
▁Geschäfte	-7782
▁letzter	-7783
▁Messe	-7784
▁hinein	-7785
rück	-7786
▁Hände	-7787
▁Brasilien	-7788
sehr	-7789
ble	-7790
▁Glauben	-7791
vorstand	-7792
▁Auswahl	-7793
▁1999	-7794
▁Jose	-7795
üß	-7796
▁Befür	-7797
▁beeinfl	-7798
▁Gefahren	-7799
▁Kriterien	-7800
res	-7801
ihad	-7802
wiegen	-7803
▁Beamte	-7804
omme	-7805
▁stud	-7806
otiv	-7807
hoff	-7808
▁begleiten	-7809
▁Binnenmarkt	-7810
uth	-7811
▁konzentrieren	-7812
▁Ans	-7813
ony	-7814
▁nachzu	-7815
ehrte	-7816
▁EM	-7817
▁Sat	-7818
▁Laden	-7819
▁Immerhin	-7820
schär	-7821
jähriger	-7822
▁fün	-7823
▁passt	-7824
kurs	-7825
▁Jens	-7826
wirt	-7827
▁Mobile	-7828
amts	-7829
ernd	-7830
▁Mittler	-7831
lapp	-7832
▁zivil	-7833
▁Konkurrenten	-7834
▁einzigen	-7835
▁Kiew	-7836
Lin	-7837
isses	-7838
SI	-7839
▁jetz	-7840
▁Stiftung	-7841
▁erhältlich	-7842
▁kritisch	-7843
▁Unternehmer	-7844
äbe	-7845
uro	-7846
zeichnen	-7847
▁Instrument	-7848
▁USB	-7849
anlagen	-7850
▁Opf	-7851
▁geprüft	-7852
▁Kräfte	-7853
▁problem	-7854
ualisiert	-7855
iat	-7856
▁Reu	-7857
nehmern	-7858
▁schlicht	-7859
▁Sigmar	-7860
▁res	-7861
opt	-7862
▁Ap	-7863
bn	-7864
▁Kanada	-7865
▁Tradition	-7866
izen	-7867
▁55	-7868
dy	-7869
▁begrüßen	-7870
▁verfügt	-7871
antrag	-7872
▁Engl	-7873
dorf	-7874
▁Rücken	-7875
▁fe	-7876
▁Großteil	-7877
2.	-7878
▁zuständige	-7879
Wahl	-7880
▁Lange	-7881
▁Laufe	-7882
▁abgeb	-7883
▁häufiger	-7884
▁potenzie	-7885
teils	-7886
▁Erachtens	-7887
▁überzeugen	-7888
▁Anwendungen	-7889
ätzt	-7890
kultur	-7891
ersonen	-7892
runde	-7893
▁app	-7894
▁Diskrimin	-7895
▁individ	-7896
▁aufgerufen	-7897
▁Zuwander	-7898
ba	-7899
▁Mir	-7900
▁einig	-7901
▁Bundest	-7902
ival	-7903
▁Apples	-7904
▁Berichts	-7905
ico	-7906
▁Volkswagen	-7907
▁Weltmeister	-7908
▁Hunderte	-7909
▁Absch	-7910
▁scharf	-7911
▁geschickt	-7912
▁unten	-7913
kommission	-7914
▁Separat	-7915
quote	-7916
▁wid	-7917
gesellschaften	-7918
versammlung	-7919
zin	-7920
ec	-7921
▁Leyen	-7922
schauen	-7923
▁Nutzern	-7924
▁etabl	-7925
▁gesorgt	-7926
▁Anne	-7927
sonsten	-7928
▁Rechtsextrem	-7929
entwicklung	-7930
▁Schwar	-7931
▁analys	-7932
▁Portug	-7933
▁Hinsicht	-7934
▁sichern	-7935
attformen	-7936
▁Na	-7937
▁teils	-7938
▁eingehen	-7939
gänge	-7940
▁Aktivisten	-7941
beteil	-7942
reform	-7943
sprüche	-7944
wä	-7945
bi	-7946
▁BMW	-7947
dischen	-7948
▁Display	-7949
struktur	-7950
AR	-7951
▁Umfang	-7952
Fil	-7953
staurant	-7954
▁gelegt	-7955
▁Paket	-7956
▁heißen	-7957
stud	-7958
welle	-7959
iste	-7960
stagram	-7961
osh	-7962
▁tätig	-7963
▁Tonnen	-7964
ovo	-7965
▁standen	-7966
bür	-7967
▁Manche	-7968
lte	-7969
alem	-7970
▁vorbereitet	-7971
ograph	-7972
▁höheren	-7973
▁Junge	-7974
▁Nik	-7975
ney	-7976
dige	-7977
wald	-7978
▁Berichten	-7979
▁freuen	-7980
Dem	-7981
züge	-7982
▁Parteitag	-7983
▁Dad	-7984
▁konkret	-7985
anbieter	-7986
▁Brü	-7987
▁Sw	-7988
▁Niederlage	-7989
itsch	-7990
▁gebeten	-7991
▁Pek	-7992
▁Gerichtshof	-7993
▁Ägyp	-7994
▁umgehen	-7995
▁bestätigen	-7996
▁falsche	-7997
▁Regime	-7998
▁Landgericht	-7999
▁Regierungschefs	-8000
▁Strafe	-8001
▁HT	-8002
▁erwähnt	-8003
speicherung	-8004
▁Herausforderung	-8005
riminal	-8006
lag	-8007
▁30.	-8008
▁YouT	-8009
bereitung	-8010
90	-8011
▁benötigt	-8012
▁(5	-8013
center	-8014
order	-8015
▁jahrel	-8016
▁ausgelöst	-8017
kreisen	-8018
▁FBI	-8019
ößt	-8020
▁Marke	-8021
▁Fein	-8022
▁Vorteil	-8023
▁Kommunen	-8024
▁17.	-8025
▁Geist	-8026
▁leichter	-8027
▁niederländ	-8028
▁Nachbarn	-8029
hy	-8030
▁Han	-8031
▁Ermittlungs	-8032
▁Mund	-8033
▁Leistungen	-8034
▁pad	-8035
Unternehmen	-8036
Sk	-8037
▁2017,	-8038
▁berüh	-8039
▁Design	-8040
▁Ankündigung	-8041
heimer	-8042
▁Zweck	-8043
▁Angebote	-8044
ergebnis	-8045
uver	-8046
▁zentrale	-8047
▁gelassen	-8048
▁Bewohner	-8049
▁greifen	-8050
Nutzer	-8051
eto	-8052
▁Eisen	-8053
▁festgelegt	-8054
▁Anstieg	-8055
▁Best	-8056
bindung	-8057
▁zuver	-8058
▁Untersuchungen	-8059
▁Schön	-8060
ower	-8061
▁missb	-8062
▁Sun	-8063
▁Aufent	-8064
gra	-8065
▁Medik	-8066
▁Brandenburg	-8067
▁ausgerechnet	-8068
deutsche	-8069
ördert	-8070
▁Quellen	-8071
▁Vorstands	-8072
▁ignor	-8073
▁erheblich	-8074
folgung	-8075
▁Gün	-8076
▁übernimmt	-8077
▁14.	-8078
▁unmittelbar	-8079
▁Fenster	-8080
▁maximal	-8081
▁Rich	-8082
▁Räum	-8083
▁Bilanz	-8084
andt	-8085
Markt	-8086
öffnung	-8087
▁Schicks	-8088
▁Bereiche	-8089
▁pf	-8090
figur	-8091
▁geprä	-8092
grenzung	-8093
▁2015,	-8094
▁Wah	-8095
▁Fund	-8096
▁bitten	-8097
▁Straftaten	-8098
sträger	-8099
geordneten	-8100
wa	-8101
ommerzie	-8102
▁Standort	-8103
%;	-8104
▁Hä	-8105
pass	-8106
▁Journalist	-8107
ID	-8108
▁mächt	-8109
▁Schröder	-8110
Source	-8111
De	-8112
▁Aktionen	-8113
▁niemals	-8114
▁schauen	-8115
▁Lud	-8116
▁beteiligen	-8117
wegt	-8118
zn	-8119
▁italienischen	-8120
▁Spekul	-8121
▁Weihnachts	-8122
▁durchs	-8123
12	-8124
▁Separatisten	-8125
▁Maßnahme	-8126
▁42	-8127
▁Pop	-8128
▁Transport	-8129
klusive	-8130
▁Niveau	-8131
▁Investition	-8132
All	-8133
hten	-8134
▁Beob	-8135
▁Hauses	-8136
▁(4	-8137
▁Taten	-8138
ita	-8139
▁chinesische	-8140
▁vierten	-8141
▁Rüst	-8142
▁Meister	-8143
▁Seb	-8144
▁Satell	-8145
ahm	-8146
kräften	-8147
pdates	-8148
▁altern	-8149
▁Emp	-8150
hältnisse	-8151
▁League	-8152
▁Matthias	-8153
▁Bedrohung	-8154
Spiel	-8155
sozial	-8156
ool	-8157
gemäß	-8158
▁verlangen	-8159
▁Söder	-8160
cle	-8161
lebt	-8162
▁traf	-8163
▁Beiträge	-8164
▁Instagram	-8165
zentrale	-8166
PS	-8167
enner	-8168
brü	-8169
▁stärk	-8170
▁aussehen	-8171
firma	-8172
omputer	-8173
▁Zusatz	-8174
▁melden	-8175
mitglieder	-8176
odaf	-8177
▁Sicherheitsl	-8178
olen	-8179
sführer	-8180
verdächt	-8181
▁Sing	-8182
?",	-8183
otten	-8184
strate	-8185
pla	-8186
▁muslim	-8187
▁Kategor	-8188
▁Champions	-8189
▁Agenda	-8190
▁gefährdet	-8191
▁padding	-8192
▁0;	-8193
▁blieben	-8194
.10	-8195
branche	-8196
▁Vorjahres	-8197
ftet	-8198
▁investieren	-8199
▁we	-8200
▁Mauer	-8201
onym	-8202
▁ähnliche	-8203
▁Pay	-8204
▁Regelungen	-8205
▁Rassismus	-8206
cast	-8207
▁Austausch	-8208
▁gestartet	-8209
SL	-8210
▁Geburtstag	-8211
▁Herzen	-8212
▁Hafen	-8213
selben	-8214
▁gelangen	-8215
▁120	-8216
▁verliert	-8217
▁künftigen	-8218
etto	-8219
▁Symbol	-8220
▁Koordin	-8221
enne	-8222
espon	-8223
▁Ressourcen	-8224
▁Sturm	-8225
▁komplex	-8226
inst	-8227
flikt	-8228
ga	-8229
▁Händler	-8230
▁sämtliche	-8231
▁Förder	-8232
▁Katal	-8233
Projekt	-8234
▁solches	-8235
edoch	-8236
▁Siehe	-8237
▁Zentral	-8238
▁zeich	-8239
▁Mitteln	-8240
rechtlichen	-8241
▁Internationalen	-8242
leiben	-8243
▁Müll	-8244
▁Verk	-8245
▁schließt	-8246
▁arab	-8247
▁Umständen	-8248
gten	-8249
▁Dikt	-8250
maschinen	-8251
▁Stoff	-8252
▁zut	-8253
▁Normal	-8254
▁stecken	-8255
▁Grem	-8256
▁stattdessen	-8257
oche	-8258
▁Sind	-8259
verfassungs	-8260
rengungen	-8261
unsten	-8262
▁entschul	-8263
kan	-8264
ografie	-8265
landen	-8266
TE	-8267
bewegung	-8268
▁Gesprächen	-8269
▁ruh	-8270
▁Schuss	-8271
igsten	-8272
▁gep	-8273
anis	-8274
bli	-8275
schulen	-8276
▁schwed	-8277
▁Temperatur	-8278
film	-8279
▁Religion	-8280
▁niedriger	-8281
▁Bruder	-8282
▁Power	-8283
odafone	-8284
▁Holz	-8285
▁Geschwind	-8286
▁Vorteile	-8287
▁64	-8288
▁PS	-8289
▁ide	-8290
▁Befragten	-8291
▁sterben	-8292
bern	-8293
▁Ihrem	-8294
inenser	-8295
sprung	-8296
▁unbek	-8297
ädt	-8298
▁Jahrz	-8299
ständige	-8300
bu	-8301
Eine	-8302
▁Status	-8303
▁Mass	-8304
▁persönliche	-8305
pal	-8306
insel	-8307
▁Summe	-8308
▁Überra	-8309
quart	-8310
▁Ratspräsident	-8311
▁Auge	-8312
▁erleben	-8313
isl	-8314
▁Av	-8315
▁Königreich	-8316
▁Konserv	-8317
▁One	-8318
▁Back	-8319
▁Positionen	-8320
▁Ros	-8321
▁Arg	-8322
▁beobachten	-8323
▁Annahme	-8324
▁Palästinenser	-8325
work	-8326
▁mutmaßlichen	-8327
▁Verbrauch	-8328
▁demokratische	-8329
ays	-8330
▁Überwachungs	-8331
▁rasch	-8332
allo	-8333
▁manchen	-8334
kept	-8335
▁Bücher	-8336
Mitglied	-8337
▁Unterschiede	-8338
▁Vorrats	-8339
▁indes	-8340
politische	-8341
▁entlassen	-8342
verteidig	-8343
▁Erwachsen	-8344
▁Verbreitung	-8345
Mann	-8346
Stand	-8347
▁gezwungen	-8348
prozess	-8349
mension	-8350
▁Bett	-8351
▁sinken	-8352
sicherung	-8353
▁umfang	-8354
▁Arbeiten	-8355
echte	-8356
lands	-8357
▁rot	-8358
▁RTL	-8359
äusern	-8360
▁erzielen	-8361
▁linken	-8362
önen	-8363
chst	-8364
▁Kollege	-8365
▁gegründet	-8366
▁Allgemeinen	-8367
▁Verbindungen	-8368
▁Assad	-8369
▁Darstellung	-8370
▁Verträge	-8371
▁Kampagne	-8372
▁Mitglieds	-8373
win	-8374
▁konsequ	-8375
▁gaben	-8376
▁zuzu	-8377
▁Kontin	-8378
▁angez	-8379
decken	-8380
▁Zentralbank	-8381
▁vorn	-8382
Wie	-8383
▁zeigten	-8384
pan	-8385
▁offene	-8386
▁beruf	-8387
▁Nation	-8388
demokrat	-8389
regen	-8390
▁geist	-8391
iode	-8392
▁Vermitt	-8393
▁wusste	-8394
▁Bos	-8395
amin	-8396
▁vereinbar	-8397
▁angewiesen	-8398
▁geschützt	-8399
Generalsekretär	-8400
▁vernün	-8401
▁öffnen	-8402
Parlament	-8403
▁weshalb	-8404
▁Tes	-8405
usstsein	-8406
▁GHz	-8407
▁BND	-8408
kir	-8409
▁trat	-8410
onom	-8411
▁Maaßen	-8412
▁digital	-8413
▁fühlt	-8414
▁untern	-8415
▁tra	-8416
▁Bauern	-8417
▁Vodafone	-8418
▁Währung	-8419
▁bekomme	-8420
▁Überblick	-8421
▁Ernst	-8422
angaben	-8423
▁Einnahmen	-8424
iro	-8425
oppt	-8426
▁denkt	-8427
kandidaten	-8428
hans	-8429
▁überrascht	-8430
amerikanischen	-8431
▁verfügen	-8432
▁bisherige	-8433
ürn	-8434
▁iPad	-8435
räume	-8436
ischung	-8437
64	-8438
▁Pod	-8439
▁Sel	-8440
Bund	-8441
▁popul	-8442
▁Notebook	-8443
wärts	-8444
▁Cook	-8445
▁Fonds	-8446
▁Größe	-8447
ühl	-8448
Für	-8449
▁Fakten	-8450
▁angep	-8451
▁Akte	-8452
IM	-8453
odelle	-8454
▁Einwohner	-8455
kehren	-8456
▁Messer	-8457
une	-8458
▁einschließlich	-8459
▁Prakt	-8460
▁Vorbild	-8461
▁beobach	-8462
▁Betrug	-8463
iser	-8464
onien	-8465
ema	-8466
ämpfe	-8467
▁Ren	-8468
▁starb	-8469
▁Sei	-8470
▁länd	-8471
ologen	-8472
▁22.	-8473
ummern	-8474
▁iran	-8475
▁Has	-8476
▁Denk	-8477
▁vorne	-8478
▁Parteichef	-8479
erkt	-8480
umenten	-8481
▁Persön	-8482
hängig	-8483
bien	-8484
öck	-8485
▁spr	-8486
▁beenden	-8487
▁keinerlei	-8488
▁notwendigen	-8489
▁globalen	-8490
▁schlagen	-8491
eneß	-8492
▁Andrea	-8493
▁Provinz	-8494
//	-8495
lesen	-8496
Dis	-8497
▁Freude	-8498
▁Bestimmungen	-8499
▁domin	-8500
▁Protokoll	-8501
▁beschäftigen	-8502
▁Audi	-8503
▁grat	-8504
streit	-8505
partner	-8506
▁scheinen	-8507
▁erreich	-8508
▁Ep	-8509
▁Zurück	-8510
itor	-8511
▁Haut	-8512
▁damaligen	-8513
▁gehei	-8514
Mitarbeiter	-8515
ixel	-8516
maschine	-8517
Vorsitzende	-8518
▁spielte	-8519
▁Kas	-8520
ettet	-8521
▁Rennen	-8522
▁Reaktionen	-8523
PÖ	-8524
pack	-8525
▁stre	-8526
▁Stock	-8527
▁Ba	-8528
leun	-8529
▁system	-8530
wachung	-8531
▁Bedarf	-8532
▁verteidigen	-8533
▁monat	-8534
endete	-8535
▁Mas	-8536
▁HP	-8537
▁beschleun	-8538
▁Merc	-8539
▁World	-8540
▁Islamisten	-8541
▁Kompeten	-8542
▁Wirklichkeit	-8543
Recht	-8544
eichern	-8545
▁Phase	-8546
arbeits	-8547
Inter	-8548
▁Sebastian	-8549
▁Motto	-8550
▁Jean	-8551
staun	-8552
▁startet	-8553
projekt	-8554
Angeb	-8555
▁49	-8556
▁Philipp	-8557
▁Göt	-8558
Institut	-8559
▁Sem	-8560
schreiten	-8561
▁Friedens	-8562
stellern	-8563
▁Berater	-8564
▁attrakt	-8565
hüll	-8566
▁Handeln	-8567
▁typ	-8568
▁Verbün	-8569
▁Touristen	-8570
▁genauer	-8571
▁Absicht	-8572
▁16.	-8573
brück	-8574
▁Bewertung	-8575
itim	-8576
▁Lindner	-8577
▁Restaurant	-8578
▁Niederlanden	-8579
▁kontrolliert	-8580
reche	-8581
▁Zimmer	-8582
▁Schwach	-8583
▁Ult	-8584
▁Magazin	-8585
▁berichteten	-8586
▁Klub	-8587
▁Hoeneß	-8588
▁teilnehmen	-8589
▁Dadurch	-8590
▁AKP	-8591
▁43	-8592
▁Rats	-8593
kamer	-8594
▁Bürgerinnen	-8595
/2	-8596
SC	-8597
▁25.	-8598
▁Große	-8599
öch	-8600
Manager	-8601
▁hofft	-8602
erven	-8603
▁hingewiesen	-8604
▁Modelle	-8605
eigern	-8606
▁Motiv	-8607
▁YouTube	-8608
ehme	-8609
▁erfolgt	-8610
▁voraussichtlich	-8611
▁Office	-8612
▁Profil	-8613
ängerung	-8614
▁Option	-8615
▁scheiter	-8616
▁Kolum	-8617
▁Staates	-8618
▁rass	-8619
liehen	-8620
▁Frankreichs	-8621
ices	-8622
sprachen	-8623
äck	-8624
oret	-8625
▁gewün	-8626
zentren	-8627
▁Chaos	-8628
▁stoppen	-8629
://	-8630
▁1990	-8631
▁Rente	-8632
▁event	-8633
▁Revolution	-8634
▁konstru	-8635
▁31.	-8636
▁Wird	-8637
imeter	-8638
ffizienz	-8639
▁44	-8640
orie	-8641
anzer	-8642
▁Theater	-8643
▁Sign	-8644
▁falls	-8645
▁erschienen	-8646
iw	-8647
▁Tweeten	-8648
▁Angel	-8649
AZ	-8650
▁sage	-8651
ierend	-8652
▁Gefähr	-8653
Ko	-8654
zahlungen	-8655
wood	-8656
6.	-8657
deb	-8658
angriff	-8659
▁Korruption	-8660
▁Popul	-8661
Unser	-8662
jekten	-8663
▁Hitler	-8664
verletzungen	-8665
▁Group	-8666
ottes	-8667
füll	-8668
▁Maschine	-8669
▁Eint	-8670
▁achten	-8671
▁Zweitens	-8672
▁Ral	-8673
erry	-8674
▁jüd	-8675
miliz	-8676
▁Prüf	-8677
▁ök	-8678
▁einzus	-8679
beginn	-8680
▁schwerer	-8681
▁Quadrat	-8682
▁behalten	-8683
▁bewaff	-8684
text	-8685
nachrichten	-8686
▁Desktop	-8687
▁Voraussetzungen	-8688
stau	-8689
ther	-8690
▁Besitz	-8691
▁Wunder	-8692
sproblem	-8693
▁weite	-8694
sprechend	-8695
EU	-8696
▁ad	-8697
▁fair	-8698
▁Voraussetzung	-8699
ympath	-8700
▁Zer	-8701
▁Ker	-8702
▁kathol	-8703
▁allzu	-8704
pret	-8705
▁Kann	-8706
▁allgemeinen	-8707
versuch	-8708
▁selber	-8709
kontrolle	-8710
CO	-8711
wjet	-8712
▁hört	-8713
bliothe	-8714
▁Bekannt	-8715
▁24.	-8716
▁Belgien	-8717
ehmigung	-8718
ago	-8719
EO	-8720
spitze	-8721
▁Reihen	-8722
▁bi	-8723
asste	-8724
▁sorgte	-8725
▁generell	-8726
hofs	-8727
ep	-8728
mitglied	-8729
▁User	-8730
kriegs	-8731
▁Krie	-8732
▁Rande	-8733
▁lo	-8734
▁stolz	-8735
pressionen	-8736
/200	-8737
rent	-8738
▁kap	-8739
IV	-8740
▁diplomat	-8741
▁reagierte	-8742
▁Kür	-8743
teln	-8744
vollen	-8745
▁Juncker	-8746
▁Microsofts	-8747
▁bele	-8748
igste	-8749
▁Dorf	-8750
▁bekämpfen	-8751
nam	-8752
▁Opt	-8753
schrau	-8754
▁Kilo	-8755
icke	-8756
ituationen	-8757
▁Rang	-8758
▁besitzt	-8759
▁künftige	-8760
▁Fü	-8761
ächer	-8762
▁beige	-8763
▁Himmel	-8764
eider	-8765
institut	-8766
▁Beobachter	-8767
zellen	-8768
▁Fraktions	-8769
eswig	-8770
junktur	-8771
▁beherr	-8772
GB	-8773
▁DVD	-8774
▁speziell	-8775
flicht	-8776
▁bekannten	-8777
▁betrieben	-8778
▁No	-8779
▁zerstört	-8780
erne	-8781
ivers	-8782
▁schwei	-8783
pte	-8784
▁Abstand	-8785
mack	-8786
sfähigkeit	-8787
▁gebaut	-8788
▁enor	-8789
▁Ereignisse	-8790
ress	-8791
▁BVB	-8792
▁Europap	-8793
ehlen	-8794
▁gewarnt	-8795
mannschaft	-8796
ständigen	-8797
▁feststellen	-8798
weif	-8799
TO	-8800
SM	-8801
ärm	-8802
grammen	-8803
▁einiges	-8804
▁Einheit	-8805
schnittlich	-8806
▁Ludwig	-8807
klärungen	-8808
ztin	-8809
▁Gig	-8810
▁Hill	-8811
werfen	-8812
veranst	-8813
emen	-8814
▁Anstrengungen	-8815
rechten	-8816
▁Gebieten	-8817
▁Ursache	-8818
▁Anforderungen	-8819
▁Rechtsstaat	-8820
örg	-8821
▁Sens	-8822
Bürger	-8823
Agentur	-8824
▁traum	-8825
▁1998	-8826
▁absolut	-8827
rypt	-8828
▁höchst	-8829
Spe	-8830
▁orient	-8831
▁Reporter	-8832
ela	-8833
▁Demonstration	-8834
agte	-8835
▁unterschiedlich	-8836
yt	-8837
▁begrüße	-8838
▁ergreifen	-8839
lehnen	-8840
▁Grunde	-8841
▁halt	-8842
▁teilt	-8843
BIT	-8844
Islam	-8845
▁Wolfs	-8846
▁kommerzie	-8847
elbe	-8848
▁gesucht	-8849
▁versprochen	-8850
ologe	-8851
landes	-8852
▁CD	-8853
asten	-8854
▁verring	-8855
ialen	-8856
▁Zeitungen	-8857
▁Medienberichten	-8858
▁Nürn	-8859
schieben	-8860
geblich	-8861
isierungs	-8862
▁kümmern	-8863
▁23.	-8864
▁Aussicht	-8865
▁Mitgliedern	-8866
▁Intelligen	-8867
▁rechte	-8868
▁Debatten	-8869
▁entschlossen	-8870
zesse	-8871
leb	-8872
▁Existenz	-8873
▁durchsetzen	-8874
▁betonen	-8875
▁Las	-8876
▁entsp	-8877
▁10.000	-8878
Mon	-8879
▁Erstens	-8880
▁höchste	-8881
▁liege	-8882
▁bezüglich	-8883
▁Auswärt	-8884
▁Karte	-8885
schluß	-8886
▁fürchten	-8887
▁Infl	-8888
weisung	-8889
▁beschä	-8890
▁Teilnahme	-8891
▁spätestens	-8892
lehnung	-8893
▁Schauspieler	-8894
schnitten	-8895
▁Schnell	-8896
▁freund	-8897
▁jeg	-8898
▁offizielle	-8899
▁Aspekte	-8900
iete	-8901
3.	-8902
▁Verschw	-8903
▁keinem	-8904
ala	-8905
ilität	-8906
Und	-8907
▁Arbeitslosen	-8908
▁Milch	-8909
▁DN	-8910
▁desto	-8911
▁Mannes	-8912
WF	-8913
▁Australien	-8914
▁spanischen	-8915
Hol	-8916
▁endgültig	-8917
Affäre	-8918
ungsverfahren	-8919
▁Einrichtungen	-8920
anschlag	-8921
▁Moh	-8922
▁Pak	-8923
▁parlament	-8924
▁High	-8925
▁Widerspruch	-8926
▁Bach	-8927
▁Offenbar	-8928
▁Verletzungen	-8929
▁Gerechtigkeit	-8930
▁Daim	-8931
▁Verpflichtungen	-8932
que	-8933
▁Plastik	-8934
▁leb	-8935
Gruppe	-8936
▁Arbeitsplatz	-8937
marsch	-8938
▁ungefähr	-8939
▁folgenden	-8940
software	-8941
station	-8942
▁Scholz	-8943
cv	-8944
▁Recher	-8945
▁Stahl	-8946
ula	-8947
▁Auskunft	-8948
respon	-8949
▁jener	-8950
▁intensiv	-8951
▁Armen	-8952
▁Diskriminierung	-8953
Video	-8954
jah	-8955
▁Lücke	-8956
▁Grundgesetz	-8957
▁Kenn	-8958
▁Schad	-8959
▁Liga	-8960
▁Dob	-8961
DE	-8962
▁Kaffe	-8963
▁drast	-8964
▁Bedürf	-8965
▁Neon	-8966
version	-8967
▁beziehen	-8968
▁Willi	-8969
▁Wann	-8970
▁terror	-8971
▁finanziell	-8972
ordentlich	-8973
▁CN	-8974
▁Gründer	-8975
▁Schätz	-8976
pras	-8977
Chefin	-8978
▁Ersatz	-8979
▁Zinsen	-8980
▁Webseite	-8981
▁Appl	-8982
▁gelingt	-8983
▁Milliarde	-8984
hoch	-8985
▁erfolgen	-8986
15	-8987
har	-8988
▁poln	-8989
▁kontrollieren	-8990
▁Charakter	-8991
▁denk	-8992
On	-8993
▁Filme	-8994
▁Amtszeit	-8995
▁berücksichtigen	-8996
▁haupt	-8997
▁Mat	-8998
▁kurze	-8999
▁NSU	-9000
▁Provider	-9001
▁Börse	-9002
▁Nr	-9003
ivität	-9004
▁Deswegen	-9005
politischen	-9006
▁Gehalt	-9007
▁Koch	-9008
mod	-9009
onie	-9010
▁vorüber	-9011
▁männ	-9012
▁Bal	-9013
strich	-9014
▁Tom	-9015
abrik	-9016
üste	-9017
▁psychisch	-9018
▁Gol	-9019
Datei	-9020
▁höchsten	-9021
upp	-9022
▁darstellen	-9023
ümer	-9024
▁Spur	-9025
▁gesperrt	-9026
▁dient	-9027
kund	-9028
unkel	-9029
wache	-9030
attacken	-9031
arier	-9032
▁verhandelt	-9033
ulgar	-9034
▁Hartz	-9035
▁Angelegenheiten	-9036
ksh	-9037
▁beschrieben	-9038
▁Helmut	-9039
bene	-9040
▁verwies	-9041
▁Fahrt	-9042
Präsidenten	-9043
Bo	-9044
▁Einkauf	-9045
▁wechseln	-9046
▁Bundesamt	-9047
iance	-9048
▁begründet	-9049
aute	-9050
fekt	-9051
hansa	-9052
▁besonderen	-9053
▁Kriminalität	-9054
▁Garant	-9055
uld	-9056
euert	-9057
▁Tief	-9058
▁Kapit	-9059
▁Häuser	-9060
▁verkauf	-9061
verlust	-9062
fred	-9063
isser	-9064
▁beschreibt	-9065
ungslos	-9066
▁Export	-9067
▁pläd	-9068
schwind	-9069
▁bloß	-9070
▁syrische	-9071
▁angeht	-9072
ump	-9073
▁Geräten	-9074
dressen	-9075
▁Leider	-9076
▁Fortschritt	-9077
sipras	-9078
verhalten	-9079
▁mitgeteilt	-9080
▁pic	-9081
▁Vorratsdaten	-9082
▁sk	-9083
aker	-9084
▁Golf	-9085
Des	-9086
▁Guard	-9087
verletzung	-9088
▁repräsent	-9089
▁leist	-9090
ulen	-9091
▁versuchte	-9092
▁weib	-9093
▁warnen	-9094
▁Los	-9095
▁Handys	-9096
▁Beteiligten	-9097
▁beru	-9098
zene	-9099
▁beseit	-9100
▁fliegen	-9101
▁Schatten	-9102
▁Freunden	-9103
▁hoher	-9104
▁betreiben	-9105
Ent	-9106
▁Leuten	-9107
hlen	-9108
▁Anhör	-9109
▁Ausmaß	-9110
nachmittag	-9111
▁Vorfeld	-9112
rel	-9113
recken	-9114
▁genannte	-9115
magazin	-9116
▁amt	-9117
▁Peking	-9118
▁Aktie	-9119
gefunden	-9120
▁bundesweit	-9121
attet	-9122
ymbol	-9123
▁korrig	-9124
▁gezielt	-9125
▁zentralen	-9126
gerät	-9127
▁Behinder	-9128
Serv	-9129
▁Jung	-9130
wirk	-9131
▁James	-9132
▁George	-9133
▁Ausgang	-9134
▁Vorgaben	-9135
▁inhalt	-9136
▁Daimler	-9137
rink	-9138
sorge	-9139
▁Erkenntnisse	-9140
Geh	-9141
echselt	-9142
empf	-9143
würfen	-9144
stellers	-9145
▁westlichen	-9146
sätzen	-9147
▁gelte	-9148
▁Tsipras	-9149
rick	-9150
emm	-9151
▁geleistet	-9152
▁Wettbewerbs	-9153
höhe	-9154
▁Metall	-9155
▁Deal	-9156
▁Dschihad	-9157
▁illegale	-9158
ziplin	-9159
stattet	-9160
▁Che	-9161
▁Lufthansa	-9162
▁seitdem	-9163
▁Putsch	-9164
▁Richtlinien	-9165
▁Slow	-9166
liver	-9167
ifizieren	-9168
▁entsteht	-9169
24	-9170
▁greift	-9171
▁Bemerk	-9172
▁gewisse	-9173
garter	-9174
▁zusätzlichen	-9175
anlage	-9176
▁vorliegenden	-9177
8-	-9178
▁Tesla	-9179
solvenz	-9180
▁UM	-9181
Stefan	-9182
stitute	-9183
famil	-9184
▁genehm	-9185
▁befürchten	-9186
▁mult	-9187
führte	-9188
ibel	-9189
yip	-9190
▁Krebs	-9191
schieht	-9192
▁Partnerschaft	-9193
▁kurzen	-9194
▁Regul	-9195
ikas	-9196
amerika	-9197
▁Kapaz	-9198
▁Automobil	-9199
autos	-9200
▁Vorsitzender	-9201
▁Chemnitz	-9202
cep	-9203
Akt	-9204
▁klären	-9205
iale	-9206
▁finanziert	-9207
code	-9208
ush	-9209
▁Krankheit	-9210
herr	-9211
deutschland	-9212
übt	-9213
remd	-9214
seits	-9215
▁Beta	-9216
▁Vergewalt	-9217
▁Klasse	-9218
dex	-9219
Technik	-9220
▁Schauspiel	-9221
gegangen	-9222
dt	-9223
▁gestalten	-9224
▁Direkt	-9225
▁Fan	-9226
▁Beweg	-9227
▁bemüht	-9228
emente	-9229
▁Bomben	-9230
▁Kompl	-9231
▁Gewicht	-9232
▁veröffentlichen	-9233
ray	-9234
▁Luxem	-9235
▁Kommunikations	-9236
▁194	-9237
▁Drohnen	-9238
berater	-9239
▁PK	-9240
▁Solche	-9241
▁jüngst	-9242
▁Bri	-9243
▁Green	-9244
▁Anschläge	-9245
▁meldete	-9246
▁beobachtet	-9247
leister	-9248
▁eingereicht	-9249
▁Fahrrad	-9250
▁Freundin	-9251
▁lief	-9252
▁Kontrollen	-9253
kolle	-9254
▁schwierigen	-9255
▁Ki	-9256
▁Mosche	-9257
▁Tayyip	-9258
▁Überprüfung	-9259
wege	-9260
Sicherheits	-9261
Smart	-9262
▁Geheimdienste	-9263
▁essen	-9264
▁Digitalisierung	-9265
▁Rückzug	-9266
▁israelischen	-9267
abgeordnete	-9268
▁christ	-9269
▁Hör	-9270
▁unzu	-9271
▁Schal	-9272
vorsitzenden	-9273
ML	-9274
▁lehnt	-9275
▁Plen	-9276
▁erstes	-9277
▁Besser	-9278
west	-9279
▁Ök	-9280
▁Sänger	-9281
▁700	-9282
itiative	-9283
▁Tabe	-9284
▁Verpflichtung	-9285
▁Skandal	-9286
▁Autofahrer	-9287
▁anschließen	-9288
▁Geisel	-9289
▁Hinzu	-9290
▁kurzem	-9291
▁griechische	-9292
Mod	-9293
ya	-9294
▁Mittlerweile	-9295
▁eingeschrän	-9296
▁erschossen	-9297
▁Staatsbürger	-9298
schenko	-9299
regeln	-9300
leit	-9301
▁Beck	-9302
▁irgendeine	-9303
zusp	-9304
vorsitz	-9305
▁Allianz	-9306
gekommen	-9307
▁Autobahn	-9308
▁Einwanderung	-9309
▁keineswegs	-9310
▁freue	-9311
▁Install	-9312
▁Yout	-9313
▁Vat	-9314
▁gewann	-9315
▁Übertrag	-9316
Ma	-9317
▁handele	-9318
okus	-9319
rigen	-9320
▁Galax	-9321
▁richten	-9322
▁Schei	-9323
▁195	-9324
beu	-9325
▁Dän	-9326
izieren	-9327
▁geschieht	-9328
▁produziert	-9329
▁Stil	-9330
▁Bush	-9331
▁Medikamen	-9332
urteilung	-9333
nimmt	-9334
▁Zyp	-9335
▁blau	-9336
▁Absturz	-9337
tät	-9338
nisses	-9339
▁reduzieren	-9340
▁vergeben	-9341
zeilen	-9342
▁Initiativen	-9343
Verb	-9344
▁Business	-9345
ichern	-9346
▁Kramp	-9347
eight	-9348
▁versteht	-9349
▁gekauft	-9350
▁Ärger	-9351
▁vertrau	-9352
▁stattf	-9353
Team	-9354
▁Spenden	-9355
ict	-9356
▁anhalten	-9357
▁verteidigt	-9358
▁einkaufen	-9359
▁Kommentare	-9360
▁übrig	-9361
▁verbr	-9362
dlichen	-9363
▁Soft	-9364
afrika	-9365
▁falschen	-9366
Deutschland	-9367
▁Strukturen	-9368
stande	-9369
▁Recep	-9370
▁Später	-9371
TA	-9372
▁26.	-9373
politiker	-9374
drückt	-9375
fällt	-9376
▁Tipp	-9377
▁Teams	-9378
▁gewinnt	-9379
▁versamm	-9380
▁Netzwerken	-9381
ffel	-9382
gesund	-9383
vision	-9384
Port	-9385
Fahr	-9386
▁fuhr	-9387
▁schnelle	-9388
▁Schle	-9389
▁Orig	-9390
Karren	-9391
ave	-9392
▁weltweiten	-9393
ionage	-9394
▁beträgt	-9395
zk	-9396
▁Breitband	-9397
/9	-9398
bef	-9399
--	-9400
▁Würde	-9401
ragung	-9402
▁Blatt	-9403
▁Rent	-9404
▁Falls	-9405
.200	-9406
▁BI	-9407
▁Bisch	-9408
▁sensi	-9409
▁Mini	-9410
▁ukrainischen	-9411
▁Zehn	-9412
▁auftreten	-9413
▁Einreise	-9414
▁Col	-9415
▁Takt	-9416
▁traur	-9417
▁dauert	-9418
▁Bewerber	-9419
▁nachvoll	-9420
otte	-9421
▁Gefangen	-9422
▁Hof	-9423
▁Full	-9424
▁rechtfert	-9425
▁MP	-9426
▁Krempl	-9427
▁Katastrophe	-9428
ugen	-9429
▁Noten	-9430
▁meldet	-9431
ignal	-9432
▁Geschäftsjahr	-9433
stunden	-9434
▁German	-9435
▁erschöpft	-9436
▁Arten	-9437
▁Karlsruhe	-9438
▁vorange	-9439
nummer	-9440
legungen	-9441
▁Elf	-9442
▁arme	-9443
▁wirksam	-9444
igner	-9445
verbände	-9446
▁illegal	-9447
gentin	-9448
▁Lust	-9449
▁Geschlecht	-9450
▁Verhandlungs	-9451
Medien	-9452
▁richtet	-9453
▁Vielfalt	-9454
▁fügte	-9455
▁Versprechen	-9456
iefe	-9457
werben	-9458
▁100.000	-9459
▁Premierminister	-9460
▁NPD	-9461
klasse	-9462
▁Kreml	-9463
▁Demonstrationen	-9464
▁radikal	-9465
▁Johannes	-9466
gefahr	-9467
▁verfassungs	-9468
7.	-9469
▁moment	-9470
▁absolute	-9471
▁Stadion	-9472
▁arbeite	-9473
▁Dritten	-9474
▁Europawahl	-9475
▁besorgt	-9476
rolle	-9477
▁grenz	-9478
▁Küsten	-9479
üben	-9480
werden	-9481
▁Unglück	-9482
verantwort	-9483
▁ph	-9484
beauftragte	-9485
schlüsselung	-9486
Web	-9487
▁geklärt	-9488
▁abhängig	-9489
▁hinweisen	-9490
▁Can	-9491
▁Kameras	-9492
▁Konzert	-9493
azz	-9494
unfähig	-9495
rik	-9496
aro	-9497
▁MByte	-9498
▁England	-9499
funktion	-9500
▁Archite	-9501
▁Volker	-9502
druckt	-9503
ussia	-9504
sächlich	-9505
dustr	-9506
▁Image	-9507
▁Schicksal	-9508
▁zugelassen	-9509
rüger	-9510
ye	-9511
▁trag	-9512
▁Direktor	-9513
artige	-9514
▁Abgas	-9515
produktion	-9516
usalem	-9517
▁belegt	-9518
▁kritisieren	-9519
▁erneuer	-9520
▁Weber	-9521
aun	-9522
obel	-9523
enken	-9524
▁Verg	-9525
▁Bildschirm	-9526
▁Dipl	-9527
Entwickler	-9528
▁benutzt	-9529
▁ser	-9530
▁Ott	-9531
▁Dieter	-9532
▁Fraktionen	-9533
▁entscheidend	-9534
▁2,5	-9535
▁Sab	-9536
▁umstrittene	-9537
▁Maria	-9538
▁Gelände	-9539
▁wenigstens	-9540
▁Erwer	-9541
hinter	-9542
▁Fremden	-9543
ilder	-9544
llos	-9545
▁schär	-9546
ritz	-9547
rategie	-9548
▁Steinbrück	-9549
▁ältere	-9550
▁Review	-9551
▁wunder	-9552
▁brauche	-9553
änomen	-9554
▁Flash	-9555
▁bewegt	-9556
schicht	-9557
oping	-9558
minen	-9559
gefühl	-9560
.25	-9561
▁Tests	-9562
Part	-9563
gibt	-9564
▁entscheidet	-9565
▁Wandel	-9566
gei	-9567
rufe	-9568
▁Überzeugung	-9569
▁einfacher	-9570
▁spann	-9571
▁feiern	-9572
sagen	-9573
▁27.	-9574
stellungs	-9575
▁schien	-9576
ränen	-9577
Chr	-9578
pause	-9579
▁entscheidende	-9580
phan	-9581
▁Erhöhung	-9582
▁akzeptiert	-9583
▁fern	-9584
▁Kron	-9585
▁Großen	-9586
ömm	-9587
bilder	-9588
▁zweimal	-9589
▁Roll	-9590
▁Nav	-9591
▁attack	-9592
rind	-9593
lu	-9594
▁emp	-9595
meldung	-9596
kul	-9597
▁vergangene	-9598
▁israelische	-9599
teilten	-9600
laubwürdig	-9601
▁Gebiete	-9602
▁überlassen	-9603
▁halbe	-9604
▁Metern	-9605
▁Bernd	-9606
▁einzig	-9607
örderung	-9608
▁heftig	-9609
▁(6	-9610
▁Wild	-9611
drängt	-9612
▁holen	-9613
einbar	-9614
▁internen	-9615
quenz	-9616
ektak	-9617
▁begeg	-9618
reichte	-9619
ugend	-9620
icherheit	-9621
▁exter	-9622
▁Social	-9623
ype	-9624
▁Eck	-9625
Zu	-9626
▁überprüft	-9627
auten	-9628
px	-9629
▁Neonaz	-9630
qualität	-9631
waffe	-9632
atente	-9633
▁Erf	-9634
▁Oliver	-9635
▁schaffe	-9636
▁Datenbank	-9637
▁ausgestattet	-9638
▁gewöhn	-9639
▁Mindestlohn	-9640
▁{	-9641
▁mitten	-9642
▁bayerischen	-9643
ando	-9644
▁moral	-9645
▁danke	-9646
▁welchem	-9647
üter	-9648
▁Grundrechte	-9649
orfen	-9650
▁Rumän	-9651
teuer	-9652
▁teurer	-9653
▁erlauben	-9654
Kunden	-9655
▁abgeben	-9656
iefen	-9657
▁Ban	-9658
▁Verletzung	-9659
iehlt	-9660
▁ändert	-9661
▁Gift	-9662
▁gelöst	-9663
▁Ägypten	-9664
▁saß	-9665
▁Durchschnitt	-9666
künfte	-9667
▁irgendwas	-9668
hä	-9669
▁Gerhard	-9670
bis	-9671
▁height	-9672
▁verbrei	-9673
▁AP	-9674
lastung	-9675
▁verlänger	-9676
spflicht	-9677
▁Innenstadt	-9678
richtet	-9679
▁Gefü	-9680
▁berühm	-9681
▁relev	-9682
▁Letz	-9683
zustand	-9684
▁Strafver	-9685
▁doppelt	-9686
rinken	-9687
wachstum	-9688
▁29.	-9689
firmen	-9690
dar	-9691
▁WDR	-9692
▁Bundesländern	-9693
▁Dobrind	-9694
▁senken	-9695
8.	-9696
20-	-9697
▁Mes	-9698
Haus	-9699
diensten	-9700
▁innen	-9701
ußball	-9702
systems	-9703
▁Rock	-9704
fa	-9705
▁Ähnlich	-9706
▁Abschaffung	-9707
nü	-9708
▁Abwehr	-9709
ahe	-9710
▁inklusive	-9711
bahnhof	-9712
▁erzählen	-9713
ehl	-9714
wuchs	-9715
ometern	-9716
Diese	-9717
▁besucht	-9718
▁Aufsichtsrat	-9719
SS	-9720
angebot	-9721
wirtschafts	-9722
▁Exper	-9723
wahrscheinlich	-9724
▁Schäden	-9725
gesetzten	-9726
ualität	-9727
▁Kontakte	-9728
▁Thüringen	-9729
▁vorlegen	-9730
▁}	-9731
▁Überleben	-9732
EM	-9733
▁Versionen	-9734
▁University	-9735
▁lust	-9736
25	-9737
▁Van	-9738
▁Nvid	-9739
▁Ke	-9740
▁Jörg	-9741
▁eingeleitet	-9742
kette	-9743
▁Versorgung	-9744
Karrenbauer	-9745
stär	-9746
▁Technologien	-9747
▁Treiber	-9748
▁Nahen	-9749
Script	-9750
▁Schieds	-9751
urd	-9752
▁umzu	-9753
rechtlich	-9754
▁Vorbereitung	-9755
▁Pent	-9756
▁Stuttgarter	-9757
▁Stamm	-9758
▁Minderheiten	-9759
▁Lesen	-9760
▁jenen	-9761
okratie	-9762
geheim	-9763
warten	-9764
▁echten	-9765
▁Serien	-9766
▁bezieht	-9767
ture	-9768
▁getragen	-9769
Br	-9770
▁kind	-9771
gewinn	-9772
▁Netan	-9773
▁Führer	-9774
▁behandeln	-9775
leite	-9776
ta	-9777
▁2.0	-9778
ukle	-9779
▁Mars	-9780
einträcht	-9781
ungsmittel	-9782
▁Schlaf	-9783
▁47	-9784
▁Landtagswahl	-9785
▁Schwester	-9786
▁organisiert	-9787
▁andererseits	-9788
▁verkündet	-9789
spräsidenten	-9790
▁SMS	-9791
▁Insolvenz	-9792
Stud	-9793
▁positiven	-9794
▁Kunde	-9795
▁Ablehnung	-9796
paganda	-9797
▁46	-9798
▁Ora	-9799
alkan	-9800
▁Moderator	-9801
▁vereinbart	-9802
▁Zuständig	-9803
▁nahmen	-9804
▁BERLIN	-9805
▁Ce	-9806
▁Marketing	-9807
▁derzeitigen	-9808
▁beantworten	-9809
▁langfrist	-9810
bürgermeister	-9811
▁Bundespolizei	-9812
▁Ausgleich	-9813
▁Tätigkeit	-9814
▁präsentieren	-9815
▁kg	-9816
▁aufzunehmen	-9817
▁Nutzen	-9818
ruh	-9819
▁stellten	-9820
▁deutliche	-9821
▁Tablet	-9822
▁Kämpfer	-9823
amerikanische	-9824
▁Webseiten	-9825
uverän	-9826
▁erhebliche	-9827
steten	-9828
▁Kompon	-9829
▁transpar	-9830
▁van	-9831
▁mutmaßliche	-9832
hi	-9833
gründe	-9834
laubnis	-9835
bildungs	-9836
▁Wut	-9837
spann	-9838
issionen	-9839
wissenschaftler	-9840
law	-9841
▁Len	-9842
▁verlor	-9843
▁Dir	-9844
▁Umgebung	-9845
grundlage	-9846
lichkeits	-9847
▁Law	-9848
ästinens	-9849
▁investiert	-9850
▁1994	-9851
▁sauber	-9852
haltungs	-9853
▁1995	-9854
Book	-9855
gliche	-9856
▁steuer	-9857
▁gemeint	-9858
▁rechtlichen	-9859
stock	-9860
▁motiv	-9861
cc	-9862
Con	-9863
▁eingegangen	-9864
▁Zivilisten	-9865
zz	-9866
ölle	-9867
▁enttäuscht	-9868
▁ukrainische	-9869
apie	-9870
▁twitter	-9871
▁Strecke	-9872
▁kurzer	-9873
▁üblich	-9874
opol	-9875
▁genügend	-9876
▁brut	-9877
▁geeinigt	-9878
raht	-9879
▁Spahn	-9880
▁Festpl	-9881
▁fragte	-9882
▁Opfern	-9883
▁Tax	-9884
bietern	-9885
▁sagten	-9886
▁41	-9887
▁Lobby	-9888
▁ersetzen	-9889
▁regul	-9890
▁bedauer	-9891
▁Mario	-9892
▁Marc	-9893
sichtig	-9894
▁htt	-9895
▁Vorsitzenden	-9896
fi	-9897
ersonal	-9898
▁Verlängerung	-9899
.(	-9900
▁Passagiere	-9901
▁Nic	-9902
▁Abschied	-9903
▁illegalen	-9904
▁gefühl	-9905
stechnik	-9906
▁dran	-9907
▁Interess	-9908
▁Schleswig	-9909
senz	-9910
▁derweil	-9911
▁Russen	-9912
▁großem	-9913
▁militärische	-9914
▁Kaliforn	-9915
▁Mission	-9916
befehl	-9917
otum	-9918
▁Einstellung	-9919
▁langfristig	-9920
gers	-9921
bald	-9922
▁Dell	-9923
▁zugunsten	-9924
▁sech	-9925
fo	-9926
▁promin	-9927
ani	-9928
▁Erinnerung	-9929
▁eingeladen	-9930
anter	-9931
Play	-9932
▁Offiz	-9933
▁Explos	-9934
▁Stau	-9935
▁Gläub	-9936
führungen	-9937
▁Borussia	-9938
▁erfasst	-9939
▁mangeln	-9940
ista	-9941
spir	-9942
▁vollen	-9943
OM	-9944
▁behaupten	-9945
▁stelle	-9946
▁Asien	-9947
▁Linkspartei	-9948
▁Kret	-9949
▁ausländische	-9950
▁eingerichtet	-9951
ativer	-9952
▁AFP	-9953
management	-9954
▁hängen	-9955
▁Solar	-9956
gründen	-9957
▁ausgehen	-9958
ührt	-9959
▁Sky	-9960
▁Franc	-9961
▁bestimmen	-9962
▁gerechnet	-9963
▁rest	-9964
9.	-9965
▁Ausliefer	-9966
▁eingest	-9967
▁Ill	-9968
▁Vertrieb	-9969
▁verdächt	-9970
AC	-9971
▁Methoden	-9972
Komm	-9973
▁Gemeinsam	-9974
anzlei	-9975
▁Portugal	-9976
▁froh	-9977
▁Innovation	-9978
leistungs	-9979
aussch	-9980
▁Höchst	-9981
▁Libyen	-9982
▁Klassen	-9983
▁Piraten	-9984
▁Schwanger	-9985
ara	-9986
zuführen	-9987
▁erschien	-9988
▁Gesetzentwurf	-9989
▁ersetzt	-9990
▁Vene	-9991
iban	-9992
vorschlag	-9993
▁City	-9994
ous	-9995
▁Kindes	-9996
▁halben	-9997
ario	-9998
irmen	-9999
▁Mittelpunkt	-10000
reibungen	-10001
▁af	-10002
▁lasse	-10003
genie	-10004
gier	-10005
kalation	-10006
ftiger	-10007
▁Pariser	-10008
▁Straß	-10009
▁Davon	-10010
▁Roman	-10011
bör	-10012
▁preis	-10013
▁verhalten	-10014
▁Gewerkschaften	-10015
▁erkannt	-10016
▁Asso	-10017
▁benötigen	-10018
▁schlechten	-10019
maier	-10020
▁Parag	-10021
▁Miet	-10022
▁Dreh	-10023
▁(28	-10024
▁schwarzen	-10025
El	-10026
achteil	-10027
▁Konjunktur	-10028
▁einerseits	-10029
▁us	-10030
emark	-10031
▁Konflikte	-10032
rek	-10033
▁telefon	-10034
▁zahlt	-10035
banken	-10036
▁mo	-10037
necht	-10038
▁Fur	-10039
gu	-10040
▁Özil	-10041
▁abstimmen	-10042
eistert	-10043
beitrag	-10044
▁Center	-10045
▁Ast	-10046
▁Kassen	-10047
strom	-10048
▁Bereitschaft	-10049
▁Fla	-10050
▁Mach	-10051
▁unternehmen	-10052
▁Niemand	-10053
testen	-10054
▁historischen	-10055
▁Lim	-10056
▁hinterher	-10057
▁Bundespräsident	-10058
▁Stephan	-10059
aufsicht	-10060
sparteien	-10061
▁Mech	-10062
echten	-10063
na	-10064
▁mon	-10065
▁geld	-10066
Tochter	-10067
▁Konzerne	-10068
▁spüren	-10069
zeß	-10070
märkte	-10071
▁Mercedes	-10072
▁Jub	-10073
eucht	-10074
▁28.	-10075
▁einstellen	-10076
▁kleinere	-10077
▁endet	-10078
▁pal	-10079
▁Kino	-10080
▁Privatsphäre	-10081
▁italienische	-10082
mot	-10083
▁Hum	-10084
▁anerkannt	-10085
hängen	-10086
▁Pflanzen	-10087
nächst	-10088
rahmen	-10089
▁dokument	-10090
Mobile	-10091
zenten	-10092
▁betrachten	-10093
▁Forum	-10094
ckte	-10095
▁leide	-10096
▁Attentäter	-10097
▁ökonom	-10098
▁Sy	-10099
▁Tränen	-10100
auff	-10101
CD	-10102
▁Mannheim	-10103
▁Israels	-10104
▁appell	-10105
▁leer	-10106
gebühren	-10107
▁Ausschuß	-10108
▁wirtschaftlich	-10109
▁krie	-10110
las	-10111
▁Hund	-10112
▁Sur	-10113
▁vorliegt	-10114
ersatz	-10115
▁begut	-10116
▁entschied	-10117
▁still	-10118
alismus	-10119
▁Besitzer	-10120
rations	-10121
Plattform	-10122
ächsischen	-10123
istrib	-10124
schmer	-10125
▁Einhaltung	-10126
▁Produkten	-10127
▁Salz	-10128
▁Chinas	-10129
▁gäbe	-10130
▁Stärkung	-10131
▁Jama	-10132
Bay	-10133
angehör	-10134
▁vorgenommen	-10135
▁Verbesserungen	-10136
garten	-10137
▁Seitdem	-10138
▁aufgebaut	-10139
dische	-10140
▁Rud	-10141
▁verlang	-10142
▁direkten	-10143
▁konfront	-10144
▁Franzisk	-10145
▁Dutzend	-10146
11	-10147
chester	-10148
▁Landwir	-10149
▁Angeklagten	-10150
geschwind	-10151
agern	-10152
▁(7	-10153
▁Nichts	-10154
geren	-10155
▁Konto	-10156
▁gesamm	-10157
erre	-10158
▁Anliegen	-10159
act	-10160
▁vergleichsweise	-10161
▁Andererseits	-10162
fäll	-10163
orient	-10164
▁Neues	-10165
▁Pilot	-10166
▁Franzosen	-10167
▁Märkte	-10168
▁Angehörigen	-10169
▁Dobrindt	-10170
▁Stärke	-10171
rimine	-10172
▁Hamas	-10173
▁Frist	-10174
▁Jack	-10175
▁bezahl	-10176
▁Erfolge	-10177
▁Tote	-10178
▁Ebenso	-10179
Holstein	-10180
▁Analysten	-10181
▁ww	-10182
▁gleicher	-10183
▁empfiehlt	-10184
▁Beste	-10185
ältigen	-10186
not	-10187
▁besitzen	-10188
▁einfache	-10189
ua	-10190
▁Anfragen	-10191
▁vermeint	-10192
überwachung	-10193
atsäch	-10194
▁elektronischen	-10195
▁unterscheiden	-10196
▁begrüßt	-10197
▁Rückgang	-10198
33	-10199
ging	-10200
▁verhandeln	-10201
▁Deutscher	-10202
▁schar	-10203
▁Bildern	-10204
▁Vielen	-10205
▁lokalen	-10206
▁gefördert	-10207
▁co	-10208
▁glücklich	-10209
▁Urheberrechts	-10210
▁Verfahrens	-10211
▁that	-10212
▁reisen	-10213
zwei	-10214
▁versuchten	-10215
räglich	-10216
▁sicherzustellen	-10217
▁militärischen	-10218
▁Bitco	-10219
▁struktur	-10220
beteiligung	-10221
ical	-10222
▁Übergang	-10223
▁schnellen	-10224
▁Anwälte	-10225
▁betreibt	-10226
▁baut	-10227
ywood	-10228
▁Ehr	-10229
▁Methode	-10230
brid	-10231
▁Beispiele	-10232
▁Cann	-10233
▁beruh	-10234
▁Mobilität	-10235
▁Eröffnung	-10236
▁Priorität	-10237
antas	-10238
▁Halle	-10239
▁drauf	-10240
▁installiert	-10241
▁1992	-10242
▁you	-10243
▁ähnlichen	-10244
▁Gebühren	-10245
▁Box	-10246
▁Win	-10247
▁untersuchen	-10248
westen	-10249
Em	-10250
▁abend	-10251
eisen	-10252
▁Bir	-10253
eigert	-10254
äle	-10255
▁rechtliche	-10256
rechtliche	-10257
▁VfB	-10258
▁gelernt	-10259
ctor	-10260
▁live	-10261
▁Haben	-10262
▁Griff	-10263
▁Trag	-10264
▁interessant	-10265
▁Petry	-10266
▁Fra	-10267
▁starben	-10268
▁Haushalte	-10269
osoph	-10270
ubschrau	-10271
▁normalen	-10272
▁Verzöger	-10273
▁Galaxy	-10274
▁verweist	-10275
bem	-10276
zeichnete	-10277
Bes	-10278
zieher	-10279
▁spezielle	-10280
▁_,	-10281
diger	-10282
ifferenz	-10283
behalten	-10284
▁durfte	-10285
stoßen	-10286
▁gekenn	-10287
Bewegung	-10288
▁zurzeit	-10289
▁entf	-10290
▁Scheitern	-10291
Chip	-10292
▁Kombin	-10293
▁sparen	-10294
▁unfähig	-10295
esa	-10296
hauses	-10297
uropäischen	-10298
▁grü	-10299
Sol	-10300
▁UMTS	-10301
▁Südkorea	-10302
bereitschaft	-10303
▁mark	-10304
▁hauptsächlich	-10305
▁Sozi	-10306
▁fahr	-10307
▁Lad	-10308
▁Gipf	-10309
aktor	-10310
▁Zit	-10311
ministers	-10312
▁sim	-10313
regung	-10314
lech	-10315
▁Tempo	-10316
artig	-10317
▁Yor	-10318
▁Brenn	-10319
raw	-10320
▁Dek	-10321
▁klaren	-10322
▁kommende	-10323
ited	-10324
▁Käufer	-10325
▁kämpft	-10326
bü	-10327
start	-10328
▁Dateien	-10329
Bundestag	-10330
zahler	-10331
▁Verlauf	-10332
▁tatsäch	-10333
▁geeignet	-10334
FA	-10335
top	-10336
▁erkennt	-10337
▁lieb	-10338
▁kritische	-10339
▁Weihnachten	-10340
rede	-10341
▁Lat	-10342
Pf	-10343
▁job	-10344
rucht	-10345
sfrei	-10346
holfen	-10347
Hand	-10348
eck	-10349
ungsantrag	-10350
▁versp	-10351
▁Eingriff	-10352
▁reduziert	-10353
▁Generalsekretär	-10354
▁Gutachten	-10355
▁Netzwerke	-10356
▁Halbjahr	-10357
park	-10358
▁Alternativen	-10359
hent	-10360
▁Hal	-10361
▁jüngste	-10362
▁hervorragen	-10363
▁Anschlägen	-10364
▁Kanzleramt	-10365
▁FPÖ	-10366
▁Mö	-10367
▁Trauer	-10368
real	-10369
utto	-10370
knecht	-10371
▁Helfer	-10372
▁beteiligten	-10373
▁Waffe	-10374
▁95	-10375
▁Auflösung	-10376
▁palästinens	-10377
▁formuliert	-10378
▁kooper	-10379
brem	-10380
ängern	-10381
▁54	-10382
rans	-10383
▁Zweiten	-10384
gin	-10385
▁selben	-10386
▁dahinter	-10387
▁Manuel	-10388
▁Insbesondere	-10389
ickte	-10390
Form	-10391
flow	-10392
▁irak	-10393
▁XP	-10394
▁begangen	-10395
▁unein	-10396
▁Übr	-10397
▁Regisse	-10398
Funktion	-10399
▁Anhörung	-10400
▁kompliz	-10401
fleisch	-10402
scheid	-10403
örungen	-10404
▁Wett	-10405
gespräche	-10406
▁vieles	-10407
▁gra	-10408
fügen	-10409
▁Verluste	-10410
yan	-10411
▁emotion	-10412
ziel	-10413
▁risk	-10414
▁Fokus	-10415
mosphäre	-10416
anders	-10417
▁Bol	-10418
▁Kai	-10419
▁Affäre	-10420
▁Industr	-10421
eutr	-10422
klang	-10423
verbote	-10424
urst	-10425
▁grau	-10426
▁Handlungs	-10427
▁erstaun	-10428
▁Warn	-10429
▁Statistik	-10430
bares	-10431
▁Zumindest	-10432
▁Finale	-10433
▁Leiden	-10434
dite	-10435
imen	-10436
mech	-10437
▁Partie	-10438
▁damalige	-10439
ausgaben	-10440
▁Report	-10441
▁AT	-10442
oleranz	-10443
▁Netanjah	-10444
▁profession	-10445
▁finanzieren	-10446
steuropa	-10447
schreibung	-10448
▁verschärft	-10449
▁entscheidenden	-10450
kop	-10451
gäste	-10452
▁Zschä	-10453
▁gesetzlichen	-10454
▁Tank	-10455
▁Bio	-10456
efox	-10457
▁gefä	-10458
▁beur	-10459
▁Luxus	-10460
▁schlug	-10461
sson	-10462
Gesetz	-10463
▁junger	-10464
▁Defin	-10465
▁Cre	-10466
▁Variante	-10467
ki	-10468
▁gelö	-10469
▁Richard	-10470
▁momentan	-10471
▁Effekt	-10472
ventionen	-10473
▁bestehende	-10474
▁kündigt	-10475
▁politisches	-10476
▁erweitert	-10477
▁sammeln	-10478
▁verhung	-10479
schutzes	-10480
▁Anleger	-10481
▁Satelliten	-10482
▁gespeichert	-10483
erkennen	-10484
▁jetzigen	-10485
▁gewissen	-10486
▁verbieten	-10487
ANN	-10488
zulegen	-10489
weist	-10490
▁günstiger	-10491
Ad	-10492
▁Histor	-10493
▁Benz	-10494
gig	-10495
▁Sieger	-10496
▁Schu	-10497
redakteur	-10498
▁Wa	-10499
▁Hür	-10500
▁aggress	-10501
▁Spekulationen	-10502
Serie	-10503
▁älteren	-10504
▁modernen	-10505
▁Repräsent	-10506
sky	-10507
▁Wal	-10508
dress	-10509
▁Achtung	-10510
ifikation	-10511
WM	-10512
▁Meldung	-10513
Neu	-10514
ups	-10515
wes	-10516
▁effizien	-10517
▁konservativen	-10518
▁Ri	-10519
wirkt	-10520
▁klassischen	-10521
▁Ehren	-10522
▁www	-10523
zeigen	-10524
▁Googles	-10525
▁unterstütze	-10526
-2	-10527
▁kre	-10528
Krise	-10529
iguren	-10530
▁SAP	-10531
▁Präsid	-10532
▁späten	-10533
plätze	-10534
▁Akten	-10535
Smartph	-10536
▁integriert	-10537
▁Dänemark	-10538
Star	-10539
▁Dage	-10540
▁Bulgar	-10541
ritor	-10542
▁gesunken	-10543
▁feier	-10544
▁bürger	-10545
orfer	-10546
▁Gramm	-10547
kre	-10548
▁gesen	-10549
▁dement	-10550
▁mögen	-10551
Zoll	-10552
▁Entschä	-10553
ührung	-10554
▁natür	-10555
▁Maut	-10556
▁Gegenüber	-10557
wirkung	-10558
▁Tunes	-10559
dis	-10560
▁gere	-10561
▁Muster	-10562
▁nochmals	-10563
▁Elect	-10564
▁Wehr	-10565
▁befassen	-10566
anner	-10567
kontrollen	-10568
-)	-10569
gorith	-10570
anzig	-10571
steuerung	-10572
reff	-10573
pu	-10574
▁alter	-10575
bom	-10576
▁rechtzeitig	-10577
▁Vision	-10578
vangel	-10579
▁Redner	-10580
▁herauszu	-10581
▁Eric	-10582
▁ei	-10583
porn	-10584
▁sexuellen	-10585
▁Gottes	-10586
▁Party	-10587
▁Mangel	-10588
Prozessoren	-10589
▁Geschichten	-10590
▁Sektor	-10591
arkt	-10592
äuse	-10593
Bot	-10594
igar	-10595
▁harte	-10596
ieder	-10597
spart	-10598
▁Ganze	-10599
▁allgemeine	-10600
▁Vorder	-10601
▁Beitritt	-10602
▁Empfehlung	-10603
▁Perspektive	-10604
ikationen	-10605
▁Sperr	-10606
▁Maße	-10607
▁Katar	-10608
▁Oracle	-10609
▁Stern	-10610
▁verschoben	-10611
▁kurzfristig	-10612
▁gesichert	-10613
▁Polizeisprecher	-10614
▁zugänglich	-10615
imes	-10616
▁Lau	-10617
▁binnen	-10618
▁Luxemburg	-10619
obe	-10620
▁Tweet	-10621
▁Schwerpunkt	-10622
üstet	-10623
eignet	-10624
▁Orts	-10625
▁spanische	-10626
ktions	-10627
stern	-10628
▁Trennung	-10629
▁85	-10630
▁dachte	-10631
▁Kal	-10632
▁einzusetzen	-10633
▁Behaupt	-10634
▁anhand	-10635
▁verstoßen	-10636
▁auto	-10637
screen	-10638
▁over	-10639
▁Parallel	-10640
▁meter	-10641
besuch	-10642
ira	-10643
▁Zahlungs	-10644
▁bezeichnen	-10645
▁gewachsen	-10646
widrig	-10647
▁schwarze	-10648
▁verursacht	-10649
▁Ronald	-10650
▁Unterricht	-10651
▁überwiegend	-10652
amtes	-10653
▁belegen	-10654
▁Tatort	-10655
▁spür	-10656
▁Aufnahmen	-10657
▁Boris	-10658
▁Nvidia	-10659
▁geprägt	-10660
▁Wag	-10661
▁Firefox	-10662
schneiden	-10663
▁wichtiges	-10664
▁it	-10665
▁Montagabend	-10666
▁Jahrhunderts	-10667
iers	-10668
▁treiben	-10669
▁beantragt	-10670
▁Act	-10671
▁geschlagen	-10672
▁umfassende	-10673
▁Potenzial	-10674
▁internationaler	-10675
▁rufen	-10676
▁direkte	-10677
ruppen	-10678
ästen	-10679
▁bestellen	-10680
▁draußen	-10681
▁Festnahme	-10682
▁Becker	-10683
▁Verlag	-10684
▁Amster	-10685
▁gegenwärtig	-10686
Com	-10687
▁(0	-10688
Zeit	-10689
▁angesehen	-10690
rieren	-10691
▁Botschafter	-10692
▁Verdächtigen	-10693
▁ausgegeben	-10694
▁erleichtern	-10695
▁sicherstellen	-10696
dach	-10697
▁Jamaika	-10698
▁Liebl	-10699
▁Mobilte	-10700
▁mittels	-10701
stür	-10702
öpfen	-10703
▁Ersten	-10704
▁befürchtet	-10705
▁Prom	-10706
dienstes	-10707
▁Ungleich	-10708
▁Hollywood	-10709
▁Beitritts	-10710
▁Weltkrieg	-10711
Verk	-10712
▁Texte	-10713
▁ständ	-10714
undation	-10715
ano	-10716
etooth	-10717
▁folgte	-10718
▁Antisemit	-10719
▁verpflichten	-10720
▁Jerusalem	-10721
IC	-10722
▁Aspekt	-10723
PDF	-10724
ata	-10725
▁Intelligenz	-10726
halle	-10727
▁Piloten	-10728
▁gefahren	-10729
▁überlegen	-10730
tement	-10731
▁Klinik	-10732
lässlich	-10733
▁51	-10734
▁Eu	-10735
takt	-10736
▁Anton	-10737
▁Hua	-10738
▁Youtube	-10739
▁Tick	-10740
▁bleibe	-10741
▁privat	-10742
▁Ausstieg	-10743
▁Mehrwert	-10744
▁Unbek	-10745
▁Gründung	-10746
.45	-10747
▁130	-10748
▁stimme	-10749
ahnt	-10750
terte	-10751
▁Händen	-10752
▁Böh	-10753
▁Lande	-10754
▁umwelt	-10755
geschrieben	-10756
▁zumal	-10757
▁Europe	-10758
▁Argumente	-10759
▁Gerüchte	-10760
▁üblichen	-10761
hagen	-10762
▁Lesung	-10763
▁vorläuf	-10764
▁demonstrieren	-10765
▁schuldig	-10766
angriffe	-10767
ham	-10768
▁Werner	-10769
isa	-10770
▁Energien	-10771
ießt	-10772
▁Nürnberg	-10773
▁belastet	-10774
▁Hung	-10775
▁verschwunden	-10776
gerichtshof	-10777
▁Aktualisiert	-10778
Durch	-10779
▁umgehend	-10780
anismen	-10781
▁Stadtteil	-10782
▁landen	-10783
▁Bart	-10784
▁63	-10785
▁Mu	-10786
▁Netto	-10787
▁Rumänien	-10788
suchen	-10789
▁san	-10790
▁Monats	-10791
Mo	-10792
▁Beweise	-10793
verk	-10794
anismus	-10795
periode	-10796
▁Baby	-10797
▁Zehnt	-10798
▁roten	-10799
rechtler	-10800
▁Moz	-10801
▁gro	-10802
▁Glaubwürdig	-10803
far	-10804
ählern	-10805
▁Vorstoß	-10806
800	-10807
▁bereitet	-10808
▁Politikern	-10809
▁Rechtspopul	-10810
▁52	-10811
▁CNN	-10812
snotwend	-10813
▁solch	-10814
▁geboten	-10815
▁Out	-10816
▁Subst	-10817
▁herk	-10818
▁Ausnahmen	-10819
▁Aufwand	-10820
▁Mittag	-10821
▁hielten	-10822
▁Kosovo	-10823
▁Dagegen	-10824
▁Tool	-10825
▁3000	-10826
rauchen	-10827
zwe	-10828
gels	-10829
hardt	-10830
richen	-10831
niveau	-10832
▁Silvest	-10833
▁Instrumente	-10834
otyp	-10835
▁umsetzen	-10836
rates	-10837
▁arbeitete	-10838
▁Terrormiliz	-10839
größte	-10840
▁Vertretern	-10841
▁Bestandteil	-10842
▁vorgehen	-10843
▁Gemeinden	-10844
▁dien	-10845
▁Spuren	-10846
orgnis	-10847
mäßigen	-10848
▁ausländischen	-10849
▁Spark	-10850
▁Veranstalter	-10851
▁bemerken	-10852
viertel	-10853
▁demnächst	-10854
▁Brot	-10855
▁liefer	-10856
▁Schlagzeilen	-10857
vorsitzender	-10858
gy	-10859
▁Ah	-10860
▁Zeitungs	-10861
▁harten	-10862
▁angekommen	-10863
▁beschränkt	-10864
ohnern	-10865
oß	-10866
▁Flag	-10867
▁Literatur	-10868
pport	-10869
▁hinten	-10870
▁sobald	-10871
▁erreichte	-10872
öpfe	-10873
▁Venezu	-10874
▁Fer	-10875
▁geöffnet	-10876
▁Bluetooth	-10877
▁aufgehoben	-10878
panik	-10879
19	-10880
okol	-10881
▁AOL	-10882
▁Legisl	-10883
perlich	-10884
▁ding	-10885
▁hast	-10886
▁erkenn	-10887
nest	-10888
imedia	-10889
arta	-10890
▁Weiße	-10891
▁gestoppt	-10892
▁volle	-10893
▁Balkan	-10894
▁sport	-10895
▁spezif	-10896
▁Camer	-10897
▁Math	-10898
▁Vielmehr	-10899
▁Lo	-10900
meine	-10901
▁Op	-10902
▁Herkunfts	-10903
Versionen	-10904
▁CeBIT	-10905
▁absch	-10906
▁1997	-10907
▁Mieter	-10908
▁kan	-10909
▁tr	-10910
▁ergibt	-10911
▁verzichtet	-10912
verhandlungen	-10913
▁Wende	-10914
▁Veg	-10915
droht	-10916
▁Protesten	-10917
▁Elektronik	-10918
sstreit	-10919
sitzung	-10920
▁Anlage	-10921
▁Kau	-10922
▁umzusetzen	-10923
ives	-10924
▁Streik	-10925
ungsstörung	-10926
asp	-10927
aku	-10928
▁Schmerzen	-10929
▁lebensnotwend	-10930
▁Klagen	-10931
▁Mur	-10932
konserv	-10933
▁Rheinland	-10934
groß	-10935
▁Heb	-10936
Abkommen	-10937
▁Hillary	-10938
▁Empörung	-10939
▁sexuelle	-10940
▁behinder	-10941
▁Beschäftigungs	-10942
ärkt	-10943
▁gerufen	-10944
▁Netzbetreiber	-10945
▁geste	-10946
▁här	-10947
▁Verkaufs	-10948
Red	-10949
▁Schen	-10950
▁Geschwindigkeit	-10951
▁vermutet	-10952
▁Sond	-10953
▁belg	-10954
▁Erklärungen	-10955
▁Jahrzehnte	-10956
▁Komprom	-10957
▁Dimension	-10958
▁abgegeben	-10959
▁beider	-10960
▁unternommen	-10961
tv	-10962
olution	-10963
▁Gab	-10964
unnel	-10965
gener	-10966
▁erweiter	-10967
▁Bam	-10968
▁Stick	-10969
▁tausend	-10970
▁mobile	-10971
▁Vereins	-10972
▁eingeräumt	-10973
gi	-10974
▁Feder	-10975
zuständen	-10976
suchung	-10977
heitlich	-10978
▁besetzt	-10979
lenburg	-10980
appen	-10981
▁Prioritäten	-10982
▁Marine	-10983
▁ört	-10984
ächeln	-10985
Bericht	-10986
▁Lassen	-10987
▁Ulrich	-10988
▁Alarm	-10989
weichen	-10990
▁Rettung	-10991
▁arbeitsfähig	-10992
▁Lok	-10993
rechnung	-10994
etaill	-10995
▁Netze	-10996
▁umfasst	-10997
kor	-10998
▁glaub	-10999
▁Formen	-11000
▁Supermarkt	-11001
▁skept	-11002
▁Gör	-11003
uerin	-11004
▁Saal	-11005
testet	-11006
▁Bundesländer	-11007
▁steigern	-11008
▁traumatischen	-11009
erer	-11010
▁Auflagen	-11011
▁Christoph	-11012
▁MHz	-11013
▁Updates	-11014
stunde	-11015
▁detaill	-11016
▁Hollande	-11017
▁Anschließend	-11018
▁kö	-11019
▁entwickelte	-11020
▁Os	-11021
▁nehme	-11022
▁Riesen	-11023
▁BKA	-11024
örte	-11025
▁53	-11026
▁Redakteur	-11027
zusagen	-11028
mine	-11029
▁schreck	-11030
▁wesentlichen	-11031
▁Gi	-11032
▁Batter	-11033
▁Defiz	-11034
loser	-11035
▁heutige	-11036
▁Aufsicht	-11037
▁as	-11038
▁Leitung	-11039
▁Pfer	-11040
▁freiwillig	-11041
▁legal	-11042
▁Rentner	-11043
▁erläutert	-11044
Mitglieder	-11045
verbrauch	-11046
▁gestanden	-11047
▁linke	-11048
flix	-11049
▁Core	-11050
▁Erfolgs	-11051
weisungen	-11052
▁Extremisten	-11053
▁Gauck	-11054
▁Liberalen	-11055
zung	-11056
▁annehmen	-11057
▁beauft	-11058
▁schlimmer	-11059
▁Vizepräsident	-11060
▁koordin	-11061
etty	-11062
▁hallo	-11063
▁geliefert	-11064
pm	-11065
▁:(	-11066
▁Studio	-11067
▁schwieriger	-11068
▁verfassung	-11069
ries	-11070
Ac	-11071
▁PKK	-11072
▁speziellen	-11073
▁Internationale	-11074
▁Pack	-11075
▁Lücken	-11076
▁streng	-11077
▁antreten	-11078
Christ	-11079
▁ermitteln	-11080
!",	-11081
▁1993	-11082
verm	-11083
▁Inhalten	-11084
oher	-11085
▁Übrigen	-11086
▁sichtbar	-11087
▁amts	-11088
▁Bahnhof	-11089
serklärung	-11090
▁ras	-11091
ommern	-11092
▁beweisen	-11093
▁parallel	-11094
ove	-11095
▁vermitteln	-11096
▁Beleg	-11097
▁leiten	-11098
▁breit	-11099
▁wiege	-11100
▁Hindern	-11101
▁Migrations	-11102
▁Verteilung	-11103
▁notwendige	-11104
▁Wachstums	-11105
zed	-11106
▁kleines	-11107
▁Konzentr	-11108
▁veränder	-11109
▁arbeitsunfähig	-11110
▁Sus	-11111
▁Enthüll	-11112
▁Homosex	-11113
▁Kalifornien	-11114
▁Dub	-11115
▁Walter	-11116
Süd	-11117
cu	-11118
▁weißen	-11119
▁5000	-11120
▁Mandat	-11121
ladung	-11122
▁zweiter	-11123
▁nunmal	-11124
Finanz	-11125
here	-11126
▁Freiburg	-11127
▁Hilf	-11128
▁Staatschef	-11129
▁ungew	-11130
absicht	-11131
▁handelte	-11132
ms	-11133
ura	-11134
▁Lkw	-11135
▁unn	-11136
üchtern	-11137
▁begründete	-11138
▁Anrei	-11139
▁Züge	-11140
▁1996	-11141
arianten	-11142
▁Polizist	-11143
▁lebensnotwendig	-11144
▁LG	-11145
▁Konsens	-11146
▁globale	-11147
▁Meck	-11148
▁Befug	-11149
standards	-11150
▁Europaparlament	-11151
icherte	-11152
▁Anträge	-11153
strategie	-11154
opfer	-11155
▁Andr	-11156
▁Xbox	-11157
ologisch	-11158
▁rät	-11159
serie	-11160
änderung	-11161
▁flexib	-11162
izza	-11163
▁Mainz	-11164
▁Diesen	-11165
▁mobilen	-11166
▁technisch	-11167
▁Landesregierung	-11168
▁Einstieg	-11169
▁Kass	-11170
▁Bö	-11171
▁Vorstellungen	-11172
▁berecht	-11173
indungs	-11174
▁gehörte	-11175
BA	-11176
inten	-11177
fahrzeuge	-11178
▁France	-11179
▁Staatssekretär	-11180
messen	-11181
▁Zerst	-11182
▁Visier	-11183
▁Garten	-11184
▁Konsol	-11185
Jahr	-11186
▁Feind	-11187
paket	-11188
▁gefü	-11189
Rei	-11190
▁Schneider	-11191
metho	-11192
tages	-11193
▁Dschihadisten	-11194
mittler	-11195
plement	-11196
▁Glaubwürdigkeit	-11197
▁Außenpolitik	-11198
▁gewährleistet	-11199
▁wochen	-11200
▁tro	-11201
▁Mütter	-11202
schungen	-11203
▁Meldungen	-11204
▁Favor	-11205
▁Onlin	-11206
▁Konzerns	-11207
▁2019,	-11208
ancen	-11209
▁genaue	-11210
stab	-11211
jedoch	-11212
▁Mont	-11213
▁unterzeichnet	-11214
ahnsinn	-11215
▁Cop	-11216
▁wenden	-11217
▁Attacke	-11218
▁Partnern	-11219
▁Mohamm	-11220
▁Ursachen	-11221
▁jahrelang	-11222
▁überallhin	-11223
▁Meist	-11224
▁Schnee	-11225
▁Überein	-11226
zusehen	-11227
▁Hü	-11228
▁Sowohl	-11229
▁Christen	-11230
ww	-11231
▁PR	-11232
üssig	-11233
iner	-11234
▁gewährt	-11235
▁Rem	-11236
▁benutzen	-11237
▁merk	-11238
▁befragt	-11239
▁Watt	-11240
▁bist	-11241
Intern	-11242
▁angeschlossen	-11243
▁Big	-11244
▁Agen	-11245
▁Audio	-11246
zeichneten	-11247
▁Beschwerde	-11248
▁1,2	-11249
hausen	-11250
weilen	-11251
▁unmögliches	-11252
bilden	-11253
ünde	-11254
▁Ralf	-11255
▁erlassen	-11256
▁beigetragen	-11257
▁begrenzt	-11258
▁Ca	-11259
▁Lob	-11260
border	-11261
Co	-11262
▁Stor	-11263
▁Freihandels	-11264
▁(28).	-11265
▁quote	-11266
▁Model	-11267
twitter	-11268
▁menschlichen	-11269
▁bekrä	-11270
▁versorgt	-11271
▁Tore	-11272
▁jahren	-11273
vereinigung	-11274
▁Schriftsteller	-11275
▁lagen	-11276
stehende	-11277
Betrieb	-11278
▁Gebrauch	-11279
▁unterdessen	-11280
äßt	-11281
▁Aufstieg	-11282
austausch	-11283
▁km	-11284
▁Auftakt	-11285
AF	-11286
team	-11287
▁Phänomen	-11288
8,	-11289
▁Manipul	-11290
▁Investment	-11291
▁Sonntagabend	-11292
▁rechtlich	-11293
▁Pau	-11294
▁Manchmal	-11295
▁Netanjahu	-11296
▁Pause	-11297
▁arzt	-11298
direktor	-11299
▁empfehlen	-11300
akete	-11301
▁Store	-11302
entet	-11303
bit	-11304
▁Reuters	-11305
forschungs	-11306
Abgeordnete	-11307
utern	-11308
▁hergestellt	-11309
region	-11310
▁berentet	-11311
borderline	-11312
▁Plattformen	-11313
reden	-11314
siver	-11315
▁minum	-11316
▁Bundesrat	-11317
▁betreuung	-11318
▁köperlich	-11319
▁verhungernd	-11320
panikattacken	-11321
PL	-11322
cvken	-11323
sesetzt	-11324
▁starße	-11325
▁ärztin	-11326
▁amtsarzt	-11327
▁kindheit	-11328
▁stecvken	-11329
▁terminen	-11330
▁jobcenter	-11331
▁betreuerin	-11332
▁entsesetzt	-11333
▁lebensjahr	-11334
▁begutachtung	-11335
▁depressionen	-11336
▁unmöglichkeit	-11337
▁angstzuständen	-11338
Geb	-11339
▁eint	-11340
.-	-11341
▁Rüstungs	-11342
▁leitet	-11343
▁Schließ	-11344
▁derartige	-11345
▁Huawei	-11346
▁sprachen	-11347
▁Stellenmarkt	-11348
▁Gefl	-11349
▁elektronische	-11350
▁erfolgreichen	-11351
▁umso	-11352
itzung	-11353
▁getrennt	-11354
▁Fit	-11355
▁Syn	-11356
▁sau	-11357
grem	-11358
zepte	-11359
verbandes	-11360
▁Eskalation	-11361
▁Olympischen	-11362
▁Staatsanwalt	-11363
debatte	-11364
Cl	-11365
▁Syrer	-11366
▁fremden	-11367
▁dün	-11368
▁Museum	-11369
▁Belastung	-11370
▁Türken	-11371
▁Antisemitismus	-11372
▁ländlichen	-11373
▁Anlagen	-11374
arn	-11375
▁räumte	-11376
▁JavaScript	-11377
zureichen	-11378
rient	-11379
▁eigentliche	-11380
gol	-11381
▁Parlam	-11382
35	-11383
merk	-11384
streben	-11385
▁verschwinden	-11386
spunkt	-11387
▁Ministerin	-11388
▁Hot	-11389
▁Jes	-11390
▁Olympia	-11391
▁Übergangs	-11392
nehmung	-11393
rektur	-11394
▁Gerichte	-11395
▁verbreiten	-11396
▁ausgeliefert	-11397
▁Formel	-11398
▁fielen	-11399
▁Tschech	-11400
drücken	-11401
▁Rab	-11402
dl	-11403
▁station	-11404
▁Foundation	-11405
▁IV	-11406
▁vorab	-11407
Anbieter	-11408
Vize	-11409
▁Brun	-11410
▁zustande	-11411
▁enorm	-11412
▁Interviews	-11413
flächen	-11414
Rat	-11415
Länder	-11416
▁tat	-11417
gebiete	-11418
▁Wolfsburg	-11419
▁weitergehen	-11420
▁Überlegungen	-11421
▁aufgestellt	-11422
kas	-11423
ordnen	-11424
▁Meeres	-11425
▁gegenseitig	-11426
einnahmen	-11427
▁freilich	-11428
▁Verteidiger	-11429
namen	-11430
Du	-11431
▁(...	-11432
▁Wohlstand	-11433
RT	-11434
▁vertritt	-11435
▁Kroat	-11436
▁weisen	-11437
gründer	-11438
wachs	-11439
▁Bevor	-11440
▁Vereinbarungen	-11441
▁erstellt	-11442
▁Krankheiten	-11443
▁Lü	-11444
▁Fahn	-11445
▁Tot	-11446
▁testen	-11447
rut	-11448
▁durchschnitt	-11449
▁gegenwärtigen	-11450
▁Gewinne	-11451
▁leh	-11452
▁UNO	-11453
▁Beschwerden	-11454
▁Bäum	-11455
▁Tenden	-11456
▁59	-11457
▁2014,	-11458
▁trans	-11459
ierender	-11460
▁konfrontiert	-11461
▁Austritt	-11462
▁abgestimmt	-11463
▁laufende	-11464
▁unglaub	-11465
▁bayerische	-11466
DL	-11467
ights	-11468
ietet	-11469
äufen	-11470
▁erteilt	-11471
▁Dutzende	-11472
▁Zahlungen	-11473
▁einfachen	-11474
▁kleineren	-11475
▁Zypern	-11476
▁Keller	-11477
▁Marktanteil	-11478
uj	-11479
▁Prei	-11480
▁Impf	-11481
▁Ergebnissen	-11482
vbr	-11483
berat	-11484
punkten	-11485
▁Nordir	-11486
▁Virt	-11487
▁Datei	-11488
▁(8	-11489
▁Sowjet	-11490
va	-11491
respondent	-11492
Minister	-11493
ausenden	-11494
ymn	-11495
▁Neun	-11496
▁Selbstmord	-11497
gelung	-11498
▁Student	-11499
beauftragten	-11500
▁anf	-11501
HP	-11502
tz	-11503
▁Finn	-11504
▁schmer	-11505
▁gegebenen	-11506
▁Erl	-11507
▁Ingenie	-11508
▁gült	-11509
▁verbind	-11510
bekämpfung	-11511
ubschrauber	-11512
▁drängen	-11513
▁erschüt	-11514
4.	-11515
▁log	-11516
plant	-11517
▁massiven	-11518
▁Streaming	-11519
▁dauerhaft	-11520
▁Fähigkeiten	-11521
▁Situationen	-11522
▁produzieren	-11523
▁Gegenzug	-11524
▁Unterlagen	-11525
▁seitens	-11526
▁beding	-11527
▁fassen	-11528
▁eingehalten	-11529
Fern	-11530
▁Erkrank	-11531
Modell	-11532
▁Wand	-11533
konzept	-11534
Geheim	-11535
mäßige	-11536
Fraktionschef	-11537
▁Kläger	-11538
▁Yorker	-11539
aturen	-11540
tausende	-11541
▁regionalen	-11542
neutr	-11543
▁Gauland	-11544
▁Netflix	-11545
▁Echt	-11546
scheinend	-11547
ätern	-11548
▁Zusätz	-11549
▁Beschul	-11550
mü	-11551
▁Anzeigen	-11552
▁gekennzeichnet	-11553
gebieten	-11554
▁Globalisierung	-11555
zeitraum	-11556
▁sowieso	-11557
ness	-11558
formance	-11559
▁erklärten	-11560
▁Minderheit	-11561
▁Spren	-11562
strafen	-11563
▁Pakistan	-11564
▁BBC	-11565
▁Sekunde	-11566
orer	-11567
macher	-11568
▁lande	-11569
häusern	-11570
▁Rechnungs	-11571
häfen	-11572
scheinlichkeit	-11573
erecht	-11574
urce	-11575
▁Glasfas	-11576
▁vierte	-11577
WE	-11578
justiz	-11579
▁infrage	-11580
▁Flexib	-11581
▁geheim	-11582
▁gelöscht	-11583
▁Gute	-11584
marktes	-11585
Vertrag	-11586
reien	-11587
izenzen	-11588
▁Darm	-11589
▁Minist	-11590
▁getestet	-11591
▁Kell	-11592
▁grenzüber	-11593
▁anstatt	-11594
Schn	-11595
▁Gehirn	-11596
reitungen	-11597
▁bewerten	-11598
▁unsicher	-11599
▁ruhig	-11600
▁Diplomaten	-11601
oul	-11602
yk	-11603
zugs	-11604
▁Zahlung	-11605
ideos	-11606
ience	-11607
▁sach	-11608
▁Element	-11609
kern	-11610
▁Rosen	-11611
▁forderten	-11612
▁modern	-11613
▁Kategorie	-11614
▁Blo	-11615
Handel	-11616
▁Kilometern	-11617
▁konsequent	-11618
beck	-11619
▁Münster	-11620
▁verhängt	-11621
ägen	-11622
Berlin	-11623
▁kanad	-11624
▁sichere	-11625
▁Todesstrafe	-11626
▁gelingen	-11627
▁Kommissions	-11628
radio	-11629
Spiegel	-11630
▁langem	-11631
▁Uber	-11632
▁Sechs	-11633
▁Parlamentarier	-11634
▁Aufruf	-11635
▁präz	-11636
▁trug	-11637
▁Alten	-11638
▁rat	-11639
material	-11640
▁Pfund	-11641
▁Edward	-11642
lten	-11643
▁Nazis	-11644
lient	-11645
▁zweier	-11646
Pat	-11647
▁schloss	-11648
▁unabhängige	-11649
ikal	-11650
nehm	-11651
schließt	-11652
heer	-11653
Online	-11654
▁angegeben	-11655
eing	-11656
▁Est	-11657
▁bewertet	-11658
▁empfangen	-11659
▁gebraucht	-11660
▁durchgesetzt	-11661
hofft	-11662
▁Boot	-11663
▁Schock	-11664
produkte	-11665
▁port	-11666
SE	-11667
emann	-11668
▁bitter	-11669
melden	-11670
odes	-11671
▁Rauch	-11672
▁Kä	-11673
ukraine	-11674
▁Freitagabend	-11675
ktive	-11676
▁Abschließend	-11677
▁Freiheits	-11678
zten	-11679
ältin	-11680
▁denkbar	-11681
Test	-11682
▁Mei	-11683
lasten	-11684
▁with	-11685
märkten	-11686
gj	-11687
▁Niger	-11688
▁schaut	-11689
▁tiefer	-11690
▁Außer	-11691
einrichtungen	-11692
▁Zert	-11693
ählung	-11694
programme	-11695
▁Turnier	-11696
▁Jury	-11697
Walter	-11698
▁Arab	-11699
▁schäd	-11700
formation	-11701
▁Böhmer	-11702
▁folgende	-11703
steuern	-11704
▁Genehmigung	-11705
▁Vereinigung	-11706
▁Schiffe	-11707
▁verlängert	-11708
▁Kaum	-11709
▁Merz	-11710
▁komplette	-11711
▁Töt	-11712
passung	-11713
▁grundsätz	-11714
holung	-11715
▁Bezirks	-11716
obte	-11717
▁anger	-11718
▁Absage	-11719
▁gemessen	-11720
Als	-11721
▁Cam	-11722
hetor	-11723
▁Clau	-11724
▁zurückgewiesen	-11725
▁Angriffen	-11726
▁Dynam	-11727
fertigt	-11728
pommern	-11729
▁Messen	-11730
▁sicheren	-11731
eur	-11732
weitung	-11733
ahrt	-11734
▁spezial	-11735
▁massive	-11736
▁Abbau	-11737
ektakul	-11738
ask	-11739
▁sahen	-11740
telle	-11741
▁Unterstützer	-11742
▁Kaffee	-11743
▁gestrichen	-11744
▁Verstoß	-11745
höre	-11746
▁Adobe	-11747
strecken	-11748
▁spek	-11749
verbands	-11750
▁Nazi	-11751
haushalt	-11752
▁Betrag	-11753
▁Volkspartei	-11754
▁Durchführung	-11755
hlung	-11756
▁Uwe	-11757
▁rum	-11758
▁Güter	-11759
▁Englisch	-11760
Landes	-11761
ödie	-11762
▁beeinflussen	-11763
Zug	-11764
▁Zschäpe	-11765
▁Argentin	-11766
orgungs	-11767
▁überfl	-11768
worben	-11769
▁Julia	-11770
▁Präsent	-11771
▁geholfen	-11772
▁Betracht	-11773
▁180	-11774
sucht	-11775
▁ergriffen	-11776
▁Tourismus	-11777
Tel	-11778
ennungs	-11779
how	-11780
rafik	-11781
▁Orten	-11782
gemacht	-11783
▁Wün	-11784
abwehr	-11785
▁beschul	-11786
▁Modern	-11787
verkus	-11788
izit	-11789
ffekte	-11790
ädag	-11791
esende	-11792
Tat	-11793
orth	-11794
▁Versand	-11795
Strategie	-11796
▁Bezirk	-11797
Anhalt	-11798
Geräte	-11799
▁wartet	-11800
▁Flüge	-11801
▁Schätzungen	-11802
▁breite	-11803
▁Kollegin	-11804
▁Sprachen	-11805
Ja	-11806
▁Feier	-11807
izid	-11808
woche	-11809
wetter	-11810
▁diverse	-11811
sphase	-11812
▁verha	-11813
▁ehrlich	-11814
▁Niederlande	-11815
▁ergänzt	-11816
lechter	-11817
▁Optim	-11818
▁Werke	-11819
▁garantiert	-11820
▁befürwor	-11821
▁Temperaturen	-11822
uns	-11823
orien	-11824
▁schaff	-11825
twortete	-11826
▁blockiert	-11827
▁Fusion	-11828
▁Benutzer	-11829
Deb	-11830
▁Küste	-11831
bad	-11832
mach	-11833
▁Folter	-11834
▁**	-11835
▁Kapitän	-11836
▁Günther	-11837
▁99	-11838
▁Lam	-11839
▁Kürze	-11840
▁Altmaier	-11841
▁Nachwuchs	-11842
▁erheben	-11843
anzeige	-11844
▁Distanz	-11845
▁Rele	-11846
▁zugestimmt	-11847
▁Musiker	-11848
▁Vorlage	-11849
▁Player	-11850
unruh	-11851
▁Verfolgung	-11852
▁kass	-11853
▁ehe	-11854
▁gezahlt	-11855
▁gefeiert	-11856
lings	-11857
▁Blei	-11858
block	-11859
▁Wurz	-11860
bereiche	-11861
bestand	-11862
atal	-11863
▁Abschiebung	-11864
Richt	-11865
▁platz	-11866
▁Justizminister	-11867
voz	-11868
▁57	-11869
▁ablehnen	-11870
▁Harmon	-11871
▁irgendwo	-11872
▁Mecklenburg	-11873
▁institution	-11874
▁öfter	-11875
Mill	-11876
▁Buß	-11877
▁Kombination	-11878
bott	-11879
ransport	-11880
▁eingeschränkt	-11881
TP	-11882
agten	-11883
impf	-11884
▁Ax	-11885
▁Telecom	-11886
verhältnis	-11887
▁Regisseur	-11888
hor	-11889
17	-11890
mächt	-11891
6,	-11892
▁geltenden	-11893
▁Tagesspiegel	-11894
prob	-11895
ZE	-11896
neu	-11897
▁Gesetzgebung	-11898
Univers	-11899
ahme	-11900
medien	-11901
▁dargestellt	-11902
▁Mond	-11903
ächte	-11904
▁Mittwochabend	-11905
▁Versuche	-11906
▁Ostukraine	-11907
▁Reichweite	-11908
hängern	-11909
skandid	-11910
▁Studium	-11911
▁abseh	-11912
▁Dienstagabend	-11913
▁Rollen	-11914
aal	-11915
▁lieben	-11916
anspruch	-11917
▁heran	-11918
▁Orient	-11919
▁Steiger	-11920
▁konservative	-11921
▁Null	-11922
reif	-11923
Plus	-11924
sergebnis	-11925
dauer	-11926
▁gerichtet	-11927
cess	-11928
rechn	-11929
▁distanz	-11930
▁har	-11931
▁publ	-11932
gast	-11933
instrum	-11934
▁deb	-11935
kay	-11936
▁schla	-11937
▁aufbauen	-11938
▁schwach	-11939
▁Cap	-11940
ziele	-11941
▁samt	-11942
▁Motorola	-11943
▁Faktoren	-11944
Ph	-11945
manns	-11946
▁stößt	-11947
meldungen	-11948
▁Katastrophen	-11949
▁Ecke	-11950
▁einseit	-11951
way	-11952
▁Eines	-11953
▁Veranstaltungen	-11954
Men	-11955
quem	-11956
▁Planung	-11957
▁eventuell	-11958
▁Spannungen	-11959
▁Offensive	-11960
rand	-11961
▁sofern	-11962
▁gefolgt	-11963
▁kräftig	-11964
▁verständ	-11965
▁Atmosphäre	-11966
▁Fass	-11967
verkauf	-11968
▁Cons	-11969
▁Zut	-11970
▁Que	-11971
▁angezeigt	-11972
▁erwiesen	-11973
▁schätzen	-11974
▁erforderlichen	-11975
▁Ech	-11976
ifizierte	-11977
▁Neuen	-11978
▁kenne	-11979
▁Definition	-11980
ieden	-11981
gesetzte	-11982
PN	-11983
500	-11984
▁unzureichen	-11985
deckung	-11986
▁speichern	-11987
▁Finanzkrise	-11988
▁Manfred	-11989
▁Serbien	-11990
analy	-11991
▁Cast	-11992
▁verank	-11993
▁Music	-11994
▁Watch	-11995
▁Londoner	-11996
▁gefährden	-11997
▁verstärken	-11998
▁Arbeitszeit	-11999
▁Akadem	-12000
▁herkömm	-12001
▁nunmehr	-12002
Fans	-12003
stes	-12004
▁jemanden	-12005
Vorstand	-12006
▁afr	-12007
▁Ursula	-12008
▁Heiko	-12009
▁DI	-12010
beln	-12011
▁wahren	-12012
▁Planeten	-12013
ratet	-12014
▁überwachen	-12015
▁kämen	-12016
▁erober	-12017
▁gefällt	-12018
▁überwacht	-12019
▁Theresa	-12020
aufbau	-12021
pfl	-12022
▁Johnson	-12023
▁Darum	-12024
artigen	-12025
▁Generationen	-12026
▁Klass	-12027
▁Darunter	-12028
▁gelesen	-12029
fehler	-12030
▁Leverkus	-12031
▁beeinträcht	-12032
sverhandlungen	-12033
worter	-12034
oschenko	-12035
▁Neuwahlen	-12036
▁Val	-12037
▁freut	-12038
▁Source	-12039
▁Ausweitung	-12040
DV	-12041
▁verweigert	-12042
▁Steuerzahler	-12043
▁WTO	-12044
▁Mitgliedstaat	-12045
▁missbraucht	-12046
jahren	-12047
▁Vorsitz	-12048
▁Halbzeit	-12049
▁intelligen	-12050
klen	-12051
leicht	-12052
▁Delegation	-12053
▁Hong	-12054
▁Fernseher	-12055
▁Vertrauens	-12056
▁Unklar	-12057
▁Prognose	-12058
affäre	-12059
▁moderne	-12060
▁konkur	-12061
änner	-12062
belast	-12063
▁Senats	-12064
▁Palm	-12065
ieter	-12066
▁Jede	-12067
lichem	-12068
▁verschiedener	-12069
rüm	-12070
▁übergeben	-12071
▁Verbündeten	-12072
▁Veränderung	-12073
▁Freilassung	-12074
▁Teher	-12075
▁Zuschau	-12076
▁ener	-12077
▁2016,	-12078
manager	-12079
schnitts	-12080
städten	-12081
▁Wahls	-12082
▁Schwein	-12083
▁niedrigen	-12084
▁Norwegen	-12085
▁abger	-12086
▁Freizeit	-12087
▁Zuwanderung	-12088
▁Hitze	-12089
▁Schar	-12090
▁austr	-12091
leichter	-12092
▁entlang	-12093
▁führenden	-12094
▁Oft	-12095
▁Umweltschutz	-12096
leib	-12097
▁Betriebe	-12098
▁Eier	-12099
amas	-12100
▁Cas	-12101
enseits	-12102
ärt	-12103
▁Betroffene	-12104
▁twitterte	-12105
▁Softwar	-12106
▁zweifel	-12107
▁Kapitel	-12108
▁Stür	-12109
▁wachsenden	-12110
teste	-12111
▁Brust	-12112
▁Jahresende	-12113
▁prüft	-12114
EA	-12115
▁sub	-12116
▁Gibt	-12117
▁Steve	-12118
▁belei	-12119
▁Universitäten	-12120
ON	-12121
▁gerät	-12122
▁menschliche	-12123
▁Porn	-12124
▁Landwirte	-12125
sprodu	-12126
bliothek	-12127
▁langer	-12128
▁Blau	-12129
▁nerv	-12130
fers	-12131
▁Marok	-12132
▁planen	-12133
▁deutlicher	-12134
urt	-12135
▁Pixel	-12136
▁schöne	-12137
quellen	-12138
▁Zigar	-12139
▁Weltraum	-12140
▁Akku	-12141
▁Prinz	-12142
atsch	-12143
völkerung	-12144
Vol	-12145
empl	-12146
ampagnen	-12147
▁Bitcoin	-12148
▁wünsche	-12149
▁Insi	-12150
▁Panzer	-12151
uc	-12152
▁Kla	-12153
▁Installation	-12154
eid	-12155
▁Zugangs	-12156
▁Gewinner	-12157
rott	-12158
ford	-12159
▁transport	-12160
▁gerettet	-12161
abit	-12162
▁zwang	-12163
▁kommentiert	-12164
▁Dire	-12165
:00	-12166
rein	-12167
▁provoz	-12168
helm	-12169
▁Tabellen	-12170
Politikerin	-12171
▁österreichische	-12172
akzept	-12173
▁Zweit	-12174
▁Seni	-12175
▁jemals	-12176
▁interne	-12177
▁beinahe	-12178
▁skeptisch	-12179
▁Kürz	-12180
▁Kilogramm	-12181
schenk	-12182
▁Labor	-12183
▁überschritten	-12184
page	-12185
Force	-12186
▁Plätze	-12187
▁nationaler	-12188
▁relative	-12189
▁beantwortet	-12190
▁Bremer	-12191
▁Statist	-12192
▁Hon	-12193
eline	-12194
phase	-12195
▁leidet	-12196
▁Original	-12197
▁Programms	-12198
▁by	-12199
Stre	-12200
▁Amsterdam	-12201
anc	-12202
▁Schlacht	-12203
rake	-12204
▁Vogel	-12205
richtlinie	-12206
▁Aufenthalts	-12207
▁Strafen	-12208
▁FAZ	-12209
gelte	-12210
▁Fullscreen	-12211
▁Barbar	-12212
▁werben	-12213
▁schwierige	-12214
tags	-12215
▁symbol	-12216
▁erfordert	-12217
▁Senator	-12218
▁Aufgrund	-12219
TIP	-12220
▁auftau	-12221
▁Mohammed	-12222
▁einzur	-12223
▁***	-12224
▁Irgend	-12225
klagte	-12226
icon	-12227
▁Ehef	-12228
▁Ausstellung	-12229
▁Mem	-12230
▁historische	-12231
rant	-12232
▁Saar	-12233
ächstes	-12234
ärer	-12235
kammer	-12236
▁gesetzliche	-12237
▁wünscht	-12238
▁Einwanderer	-12239
Fest	-12240
▁Tenn	-12241
ordnungs	-12242
▁Gemeinsamen	-12243
schub	-12244
Skandal	-12245
▁them	-12246
▁gefasst	-12247
▁arabischen	-12248
antin	-12249
trieben	-12250
▁Atlant	-12251
▁67	-12252
▁Bevölkerungs	-12253
▁verlie	-12254
▁Konservativen	-12255
▁Sieben	-12256
geladen	-12257
▁Tablets	-12258
▁1,3	-12259
lappt	-12260
manuel	-12261
▁Bundesfinanz	-12262
▁erfolgreiche	-12263
▁hom	-12264
itären	-12265
scheidung	-12266
▁sozialer	-12267
▁bo	-12268
▁Einmal	-12269
▁Institute	-12270
ühlen	-12271
Fre	-12272
▁Cameron	-12273
▁freigegeben	-12274
▁Fraktionschef	-12275
pläne	-12276
▁stünden	-12277
Vorpommern	-12278
▁vorübergehend	-12279
verträge	-12280
▁Angeles	-12281
schne	-12282
▁69	-12283
▁geladen	-12284
▁Dör	-12285
teren	-12286
▁Attacken	-12287
usk	-12288
Su	-12289
spät	-12290
▁Pkw	-12291
▁theoret	-12292
ulation	-12293
▁Kh	-12294
▁Olaf	-12295
back	-12296
▁BIOS	-12297
bekommen	-12298
Gründer	-12299
▁Arn	-12300
gebäude	-12301
▁Statement	-12302
▁verteidig	-12303
▁Haftbefehl	-12304
▁perfekt	-12305
astreifen	-12306
demir	-12307
▁unnöt	-12308
Speicher	-12309
konzerne	-12310
ministrat	-12311
▁krimine	-12312
▁verbinden	-12313
idden	-12314
▁bestellt	-12315
▁löst	-12316
▁3,5	-12317
frame	-12318
ohnen	-12319
▁Verwand	-12320
ee	-12321
▁Auslieferung	-12322
low	-12323
klaus	-12324
illstand	-12325
▁Sonntags	-12326
▁wüten	-12327
▁Anwohner	-12328
▁20.000	-12329
phen	-12330
▁gefäl	-12331
▁konzentriert	-12332
Art	-12333
▁Global	-12334
▁Türen	-12335
▁minder	-12336
▁Gazastreifen	-12337
gh	-12338
ros	-12339
▁Deck	-12340
lieger	-12341
▁Gn	-12342
stätten	-12343
▁Einklang	-12344
▁humanitäre	-12345
kontroll	-12346
▁Spionage	-12347
janer	-12348
▁Reden	-12349
gelder	-12350
▁innov	-12351
ido	-12352
▁fließen	-12353
▁Gastgeber	-12354
rischen	-12355
▁bestehe	-12356
▁spektakul	-12357
▁Dor	-12358
▁getreten	-12359
▁abschließen	-12360
▁nein	-12361
▁Fritz	-12362
▁basiert	-12363
vard	-12364
krie	-12365
▁Jeden	-12366
▁negativ	-12367
ovic	-12368
▁Regulierung	-12369
Pfalz	-12370
otograf	-12371
▁Anwesen	-12372
▁Gesetzgeber	-12373
▁kurdischen	-12374
klärungs	-12375
▁Vielzahl	-12376
volumen	-12377
▁installieren	-12378
ziehungen	-12379
▁Atem	-12380
ads	-12381
▁IWF	-12382
▁stern	-12383
▁gewisser	-12384
umer	-12385
weich	-12386
ässer	-12387
ktiven	-12388
abyte	-12389
▁Mike	-12390
▁enger	-12391
Partner	-12392
▁organisieren	-12393
▁62	-12394
▁Früher	-12395
▁Anal	-12396
Unsere	-12397
wickelt	-12398
▁ursprünglichen	-12399
▁Viz	-12400
▁verhaftet	-12401
entlichen	-12402
▁Effizienz	-12403
▁treibt	-12404
▁mancher	-12405
▁durchzusetzen	-12406
olu	-12407
▁Eth	-12408
plays	-12409
▁Orte	-12410
▁1,6	-12411
▁Plat	-12412
▁zeige	-12413
▁umfassenden	-12414
werbe	-12415
▁heftige	-12416
kassen	-12417
papier	-12418
▁gesammelt	-12419
▁la	-12420
▁perfe	-12421
geräten	-12422
▁ansonsten	-12423
krank	-12424
▁Serge	-12425
▁ungewöhnlich	-12426
▁führten	-12427
▁geradezu	-12428
▁mehrmals	-12429
▁Dokumenten	-12430
entscheidung	-12431
weifelt	-12432
▁OL	-12433
▁900	-12434
▁Übergriffe	-12435
▁Verdächtige	-12436
▁CIA	-12437
gendes	-12438
Stiftung	-12439
▁McC	-12440
akis	-12441
▁EC	-12442
▁zü	-12443
▁Kiel	-12444
▁erstellen	-12445
▁Musk	-12446
freie	-12447
▁gewähren	-12448
cking	-12449
▁geregelt	-12450
▁Mi	-12451
▁Rio	-12452
▁Höhepunkt	-12453
ankt	-12454
▁wettbewerb	-12455
▁entwickelten	-12456
▁Free	-12457
▁Schalke	-12458
▁Venezuela	-12459
▁Auswertung	-12460
▁Straßburg	-12461
▁Knapp	-12462
▁(...)	-12463
▁löschen	-12464
messe	-12465
▁Otto	-12466
schleun	-12467
▁Auslands	-12468
▁fortgesetzt	-12469
▁sichergestellt	-12470
terp	-12471
▁ICANN	-12472
▁Misst	-12473
Display	-12474
äb	-12475
▁Yü	-12476
FC	-12477
wendungs	-12478
▁etliche	-12479
▁fil	-12480
▁willkommen	-12481
senator	-12482
▁Neuerungen	-12483
▁grüne	-12484
ero	-12485
▁Roth	-12486
▁stra	-12487
▁alarm	-12488
▁Sven	-12489
▁Kob	-12490
▁nötigen	-12491
▁Angehörige	-12492
▁mitunter	-12493
▁Treffer	-12494
DC	-12495
ny	-12496
achbar	-12497
▁erzielte	-12498
▁Machthaber	-12499
▁enge	-12500
Verfahren	-12501
▁Schließung	-12502
Ur	-12503
▁aussieht	-12504
kür	-12505
▁billiger	-12506
▁Eisenbahn	-12507
▁Einschränkungen	-12508
Apps	-12509
put	-12510
▁monatlich	-12511
eutet	-12512
▁Doping	-12513
▁Propaganda	-12514
▁nör	-12515
works	-12516
▁Streitkräfte	-12517
gleichen	-12518
▁jenseits	-12519
täter	-12520
▁Jong	-12521
▁soweit	-12522
▁Herstellung	-12523
schärfung	-12524
▁Vorwürfen	-12525
kin	-12526
▁nütz	-12527
▁bemühen	-12528
▁Aufregung	-12529
▁Bürgerkrieg	-12530
▁Wagenknecht	-12531
ky	-12532
▁Lastwagen	-12533
▁Liv	-12534
Adressen	-12535
▁Beratungs	-12536
▁Özdemir	-12537
ular	-12538
ohnung	-12539
ungel	-12540
▁Kriminal	-12541
▁Tö	-12542
▁Bauch	-12543
▁setzten	-12544
▁stehenden	-12545
▁Zentimeter	-12546
▁Arbeitsplätzen	-12547
ocaust	-12548
över	-12549
geiz	-12550
gän	-12551
▁Salv	-12552
▁Fingerab	-12553
ineon	-12554
ikten	-12555
fellos	-12556
▁Nex	-12557
▁Habe	-12558
▁genießen	-12559
▁Entfern	-12560
val	-12561
▁Sog	-12562
kollegen	-12563
▁Prinzipien	-12564
▁Images	-12565
▁Daraufhin	-12566
▁ren	-12567
adi	-12568
wicht	-12569
▁unabhängigen	-12570
▁Fried	-12571
▁Gelder	-12572
ids	-12573
▁bildet	-12574
▁erb	-12575
▁Julian	-12576
▁Exp	-12577
▁Wikip	-12578
evin	-12579
▁Eigentümer	-12580
▁müß	-12581
▁58	-12582
▁höchstens	-12583
▁Dingen	-12584
▁73	-12585
▁Beleidig	-12586
▁festgehalten	-12587
monat	-12588
▁EG	-12589
▁bestraft	-12590
▁Till	-12591
▁begeistert	-12592
gstoff	-12593
zettel	-12594
▁autor	-12595
schmann	-12596
▁Support	-12597
▁verabschieden	-12598
▁Besatz	-12599
ckten	-12600
lächen	-12601
▁kop	-12602
▁Wettbewer	-12603
▁Minus	-12604
omet	-12605
▁Aldi	-12606
▁stimmten	-12607
▁Erdbe	-12608
▁stärkere	-12609
▁leu	-12610
ami	-12611
sage	-12612
▁Cr	-12613
hause	-12614
▁Hell	-12615
▁Wichtig	-12616
znei	-12617
werkschaft	-12618
▁Beobacht	-12619
▁Bruch	-12620
gesetzes	-12621
Peter	-12622
▁Community	-12623
▁Kroatien	-12624
▁eskal	-12625
▁Ihm	-12626
dreht	-12627
risiko	-12628
endeten	-12629
Ro	-12630
aj	-12631
▁Kontext	-12632
▁Staffel	-12633
▁Boch	-12634
▁Taliban	-12635
▁stärksten	-12636
▁Steffen	-12637
▁Sehr	-12638
▁Leicht	-12639
schätzen	-12640
▁Ali	-12641
National	-12642
▁verraten	-12643
würdige	-12644
sthe	-12645
▁Alepp	-12646
journal	-12647
swerte	-12648
quartal	-12649
▁Festnetz	-12650
▁IG	-12651
ado	-12652
Tunes	-12653
DAC	-12654
fried	-12655
alender	-12656
▁Gewissen	-12657
Mus	-12658
▁160	-12659
▁Küh	-12660
▁Kernel	-12661
▁Plänen	-12662
▁Release	-12663
▁Bewusstsein	-12664
Dienste	-12665
▁Flughäfen	-12666
▁Hauptbahnhof	-12667
pat	-12668
agon	-12669
Arch	-12670
▁Brie	-12671
▁Zahn	-12672
▁Vorgang	-12673
▁Warnung	-12674
▁Problems	-12675
▁erleichtert	-12676
dere	-12677
stiegen	-12678
▁signal	-12679
mat	-12680
▁vermuten	-12681
▁Energiewende	-12682
▁Mindestens	-12683
▁Sied	-12684
seg	-12685
otos	-12686
▁zurückhalten	-12687
▁Institution	-12688
altete	-12689
▁Bestät	-12690
▁Explorer	-12691
imeo	-12692
▁Preisen	-12693
▁Verspät	-12694
▁Franziskus	-12695
▁Tatverdächt	-12696
▁verschaffen	-12697
▁gedroht	-12698
▁Data	-12699
▁Ersch	-12700
▁gegrün	-12701
▁anzubieten	-12702
wertungs	-12703
▁Infineon	-12704
▁Sollten	-12705
▁Denken	-12706
▁verringern	-12707
▁09	-12708
born	-12709
höhungen	-12710
▁läßt	-12711
koreas	-12712
▁nomin	-12713
▁Gremium	-12714
▁japanischen	-12715
gespräch	-12716
itur	-12717
▁Hochschule	-12718
▁verkündete	-12719
▁United	-12720
▁Ferner	-12721
▁Unterhaltungs	-12722
▁Zwangs	-12723
▁Hoffnungen	-12724
üsselt	-12725
▁Mieten	-12726
▁kritischen	-12727
▁Flexibilität	-12728
▁Kleidung	-12729
Tatort	-12730
▁traditionellen	-12731
▁Muslim	-12732
reichung	-12733
▁DR	-12734
▁350	-12735
abbau	-12736
AL	-12737
gs	-12738
assten	-12739
1)	-12740
1,	-12741
▁stat	-12742
▁dringen	-12743
retung	-12744
ächter	-12745
▁Autorin	-12746
steil	-12747
▁zeitweise	-12748
▁Erkenntnissen	-12749
▁schätzt	-12750
▁pat	-12751
▁Notfall	-12752
▁Bulgarien	-12753
ül	-12754
▁MBit	-12755
aufnahmen	-12756
▁bedarf	-12757
▁ausgewogen	-12758
▁untersagt	-12759
ingend	-12760
▁Abhäng	-12761
▁Regulierungs	-12762
▁2030	-12763
▁verstehe	-12764
2)	-12765
▁Anpassung	-12766
▁Instituts	-12767
atlant	-12768
▁Zufall	-12769
▁Volkes	-12770
▁Ebenfalls	-12771
▁Donnerstagabend	-12772
ufe	-12773
▁zulassen	-12774
aller	-12775
▁versichert	-12776
ippe	-12777
ication	-12778
▁Kurzem	-12779
▁entdeck	-12780
▁morgens	-12781
▁dän	-12782
ilde	-12783
▁Luc	-12784
▁1989	-12785
▁Straftat	-12786
5.	-12787
mangel	-12788
▁Moschee	-12789
▁bedeute	-12790
gipfel	-12791
▁Gre	-12792
▁ferner	-12793
▁geschossen	-12794
▁regionale	-12795
▁stattfindet	-12796
▁vorgeschlagenen	-12797
18	-12798
würdigen	-12799
zeichnungen	-12800
▁zurückkehren	-12801
▁Konsult	-12802
ml	-12803
▁Ausschreitungen	-12804
▁mehrerer	-12805
▁Bundesland	-12806
azit	-12807
▁Emmanuel	-12808
▁Quote	-12809
▁con	-12810
▁Fox	-12811
▁Porsche	-12812
ody	-12813
▁ert	-12814
▁wach	-12815
▁normale	-12816
körper	-12817
▁Farben	-12818
▁Operation	-12819
▁Gegenstand	-12820
▁eingestuft	-12821
alia	-12822
disk	-12823
▁opt	-12824
▁neuesten	-12825
▁manip	-12826
▁Koll	-12827
▁Brüder	-12828
▁Amnest	-12829
Auft	-12830
▁mill	-12831
▁niedrig	-12832
▁beeindruck	-12833
Chips	-12834
zo	-12835
wohn	-12836
rages	-12837
▁Wenig	-12838
▁siehe	-12839
▁europa	-12840
▁aktivieren	-12841
▁gefährliche	-12842
▁lehnte	-12843
initiative	-12844
▁hinnehmen	-12845
▁Säu	-12846
▁einführen	-12847
▁Hyper	-12848
bereiten	-12849
leiden	-12850
▁belasten	-12851
▁Sprengstoff	-12852
manden	-12853
▁Verw	-12854
▁verknü	-12855
▁längere	-12856
▁Electron	-12857
▁Elemente	-12858
versicher	-12859
▁Vista	-12860
ensur	-12861
zugreifen	-12862
andte	-12863
▁train	-12864
▁LTE	-12865
yph	-12866
▁68	-12867
▁Entlastung	-12868
▁zusammenzu	-12869
▁hess	-12870
▁wirbt	-12871
▁äußert	-12872
▁profitiert	-12873
▁gemeinschaft	-12874
schloss	-12875
▁Mozilla	-12876
▁gestärkt	-12877
▁haus	-12878
stätte	-12879
▁Nachfolge	-12880
bay	-12881
▁Schiedsrichter	-12882
▁Figur	-12883
elf	-12884
rust	-12885
▁Gülen	-12886
▁wahrgenommen	-12887
▁Mengen	-12888
▁Abkommens	-12889
▁interessieren	-12890
▁Drag	-12891
ßig	-12892
▁Produktions	-12893
eland	-12894
14	-12895
eilt	-12896
▁Haar	-12897
▁Kaiser	-12898
▁Florian	-12899
16	-12900
▁Josef	-12901
▁gründ	-12902
▁breiten	-12903
kla	-12904
▁geschütz	-12905
lines	-12906
board	-12907
echnungen	-12908
▁Strand	-12909
▁Liberalisierung	-12910
anstalt	-12911
ündet	-12912
▁klagen	-12913
▁Holocaust	-12914
▁Vordergrund	-12915
kasse	-12916
stücke	-12917
▁66	-12918
▁entfernen	-12919
tex	-12920
▁my	-12921
schüsse	-12922
▁Vorschlägen	-12923
▁anscheinend	-12924
lla	-12925
▁austral	-12926
▁Demo	-12927
▁landes	-12928
▁beglück	-12929
▁versprach	-12930
üse	-12931
▁eigentlichen	-12932
Nein	-12933
bring	-12934
male	-12935
▁Kontinent	-12936
gab	-12937
▁Zuschauern	-12938
astatur	-12939
▁berufen	-12940
▁ausfallen	-12941
▁Boeing	-12942
▁verweisen	-12943
▁erhielten	-12944
▁Il	-12945
▁Enttäu	-12946
TER	-12947
Ob	-12948
otels	-12949
▁Firm	-12950
klären	-12951
aur	-12952
▁Erb	-12953
▁Här	-12954
willigen	-12955
▁Riv	-12956
beziehung	-12957
▁Teheran	-12958
▁erwarte	-12959
▁garantieren	-12960
earch	-12961
▁Pots	-12962
▁einstimm	-12963
▁streiten	-12964
ois	-12965
▁ermut	-12966
dliche	-12967
ferenzen	-12968
uber	-12969
▁Krypt	-12970
▁grünen	-12971
▁Nad	-12972
▁Vertrau	-12973
▁Orbn	-12974
ermann	-12975
▁Spreng	-12976
▁Thr	-12977
▁Konsequenz	-12978
itiv	-12979
Sender	-12980
▁Kevin	-12981
cs	-12982
▁Jac	-12983
▁Lit	-12984
▁plus	-12985
▁Waffenruhe	-12986
siv	-12987
▁wem	-12988
merkt	-12989
▁schlimmsten	-12990
▁Nase	-12991
▁kr	-12992
▁existiert	-12993
schätzt	-12994
stoffen	-12995
▁Aktuell	-12996
ätte	-12997
▁schil	-12998
▁Medikamente	-12999
rix	-13000
▁20-	-13001
eiler	-13002
ussischen	-13003
▁Herrmann	-13004
▁bezogen	-13005
informationen	-13006
▁nachge	-13007
▁angeblichen	-13008
außen	-13009
hörer	-13010
▁Repräsentanten	-13011
▁Explosion	-13012
▁HSV	-13013
▁liest	-13014
▁Algorith	-13015
13	-13016
▁PCs	-13017
terprise	-13018
▁Bä	-13019
▁Kart	-13020
▁selt	-13021
▁Auffor	-13022
▁Transfer	-13023
▁Pens	-13024
▁Tech	-13025
blen	-13026
post	-13027
▁größter	-13028
▁zweites	-13029
▁Kartell	-13030
▁Ressort	-13031
Krieg	-13032
▁trennen	-13033
▁Anlauf	-13034
▁überwinden	-13035
ardt	-13036
▁Erneuer	-13037
▁overflow	-13038
▁Wikipedia	-13039
seln	-13040
▁Brutto	-13041
verteilung	-13042
▁Chrome	-13043
▁bewiesen	-13044
▁zeichnet	-13045
▁negativen	-13046
brand	-13047
▁Billig	-13048
Spezial	-13049
▁dankbar	-13050
▁muslimischen	-13051
DI	-13052
anges	-13053
▁blut	-13054
▁Verab	-13055
mie	-13056
▁Tweets	-13057
▁Taschen	-13058
fältig	-13059
▁Zwecke	-13060
Wirtschaft	-13061
▁stattgefunden	-13062
umph	-13063
▁Beratung	-13064
▁wachsende	-13065
▁Provok	-13066
sparte	-13067
iard	-13068
bottom	-13069
▁Optionen	-13070
schi	-13071
▁argumentiert	-13072
▁Span	-13073
▁niemanden	-13074
lehr	-13075
samkeit	-13076
▁Bayerns	-13077
Gem	-13078
▁Roma	-13079
▁ehemaliger	-13080
▁Wiener	-13081
▁Fassung	-13082
▁drohte	-13083
▁1,8	-13084
rische	-13085
▁Treib	-13086
fassen	-13087
▁gehöre	-13088
▁Eurozone	-13089
Am	-13090
pul	-13091
Bank	-13092
▁Immun	-13093
▁befand	-13094
▁gebrochen	-13095
▁Francisco	-13096
▁Grupp	-13097
ohne	-13098
▁Chat	-13099
▁Training	-13100
▁SP	-13101
Code	-13102
grad	-13103
▁Panik	-13104
▁Labour	-13105
▁Befürcht	-13106
▁Überraschung	-13107
▁Hongkon	-13108
Bl	-13109
▁toll	-13110
handlung	-13111
▁Zehntausende	-13112
▁Rö	-13113
▁anst	-13114
▁Erstmals	-13115
denkt	-13116
telang	-13117
baus	-13118
Jähriger	-13119
▁Michel	-13120
▁Stro	-13121
▁Mos	-13122
▁nam	-13123
▁Kämpfe	-13124
▁vorsichtig	-13125
Ass	-13126
▁Kompetenz	-13127
League	-13128
▁50.000	-13129
stellbar	-13130
▁Finanzierungs	-13131
▁extra	-13132
abstimmung	-13133
▁gemeinsames	-13134
▁Ehefrau	-13135
Prozessor	-13136
▁TTIP	-13137
▁100%;	-13138
▁Human	-13139
▁Einblick	-13140
▁Angeklagte	-13141
▁japanische	-13142
▁klassische	-13143
▁Verschwörung	-13144
▁Gou	-13145
menge	-13146
▁Kul	-13147
▁Meiner	-13148
▁Vergabe	-13149
▁Beratungen	-13150
▁mittleren	-13151
ütung	-13152
▁erheblichen	-13153
jo	-13154
▁Kard	-13155
▁infiz	-13156
▁mithilfe	-13157
▁einzuführen	-13158
▁späteren	-13159
▁erreichbar	-13160
alli	-13161
▁dein	-13162
Grafik	-13163
▁Gegend	-13164
▁Sympath	-13165
eintlich	-13166
▁Krimine	-13167
▁Virtual	-13168
FR	-13169
▁enth	-13170
geschrän	-13171
beziehungen	-13172
ieber	-13173
▁beklagt	-13174
▁Tageszeitung	-13175
prinzip	-13176
▁Einladung	-13177
▁140	-13178
▁Lands	-13179
▁Rainer	-13180
▁erstmal	-13181
örn	-13182
▁ADAC	-13183
schaftswahl	-13184
▁Resolution	-13185
Informationen	-13186
▁fund	-13187
▁käme	-13188
▁definiert	-13189
▁negative	-13190
▁dicht	-13191
▁Cour	-13192
▁lohnt	-13193
angebote	-13194
▁verdien	-13195
ollt	-13196
▁Services	-13197
keine	-13198
▁rote	-13199
▁Gesellschaften	-13200
▁schönen	-13201
▁Quadratmeter	-13202
▁vollständige	-13203
▁diskrimin	-13204
▁Zusätzlich	-13205
▁Kult	-13206
▁münd	-13207
ikaner	-13208
▁iTunes	-13209
▁verurteilte	-13210
invest	-13211
▁Skand	-13212
▁eingesch	-13213
▁beglückwün	-13214
HD	-13215
▁77	-13216
▁Airbus	-13217
▁erkennbar	-13218
aps	-13219
bund	-13220
vergleich	-13221
spakt	-13222
mensch	-13223
▁nachhaltige	-13224
▁aufeinander	-13225
▁Ablauf	-13226
riminalamt	-13227
▁verteilen	-13228
schränkungen	-13229
appe	-13230
arien	-13231
▁kontin	-13232
einheit	-13233
▁Entschul	-13234
▁wesentliche	-13235
▁Gebäu	-13236
▁Chefs	-13237
▁bilater	-13238
Anwendungen	-13239
Kern	-13240
pool	-13241
▁ausgel	-13242
▁193	-13243
lässt	-13244
Sen	-13245
▁ausgegangen	-13246
▁polizei	-13247
▁Borch	-13248
▁hidden	-13249
▁verwiesen	-13250
▁Schlussfolger	-13251
umsatz	-13252
bestimmung	-13253
▁Ernährung	-13254
2,	-13255
ahnte	-13256
▁geringen	-13257
▁beschreiben	-13258
club	-13259
vimeo	-13260
▁Schein	-13261
▁Freiheiten	-13262
▁umgerechnet	-13263
schet	-13264
▁Zuckerberg	-13265
uz	-13266
iler	-13267
▁Handelsblatt	-13268
▁teure	-13269
▁Jedes	-13270
wen	-13271
▁Einzelfall	-13272
iesen	-13273
▁Prozessor	-13274
▁gewusst	-13275
Net	-13276
▁Taxi	-13277
Systeme	-13278
▁Szenen	-13279
▁Humm	-13280
▁diesbe	-13281
Anhänger	-13282
▁Ordnungs	-13283
gste	-13284
▁Petition	-13285
▁bedienen	-13286
Famil	-13287
▁Kandidatur	-13288
autor	-13289
▁Fron	-13290
▁Bedien	-13291
▁durchführen	-13292
▁steuern	-13293
brüche	-13294
▁Mom	-13295
▁Bestellung	-13296
▁brä	-13297
▁Kopft	-13298
▁versorgen	-13299
schritt	-13300
▁grundlegende	-13301
schuld	-13302
▁Teilnehmern	-13303
▁Leon	-13304
riet	-13305
overn	-13306
▁fortsetzen	-13307
▁Jagd	-13308
▁Versicherungs	-13309
▁Hert	-13310
▁Zins	-13311
▁Notebooks	-13312
▁Spitzenkandidat	-13313
▁iframe	-13314
▁analysiert	-13315
wl	-13316
▁Ret	-13317
▁Int	-13318
▁spreche	-13319
▁Menschheit	-13320
▁Jord	-13321
▁Umbau	-13322
▁Norbert	-13323
▁Klarheit	-13324
▁angesp	-13325
ban	-13326
▁Ansichten	-13327
▁Geheimnis	-13328
▁traditionell	-13329
fügt	-13330
▁öffnet	-13331
▁islamistischen	-13332
▁1,4	-13333
schern	-13334
▁56.25	-13335
posten	-13336
▁dreht	-13337
▁56.25%;	-13338
Spitzen	-13339
sisten	-13340
▁begrüß	-13341
▁erlitten	-13342
▁normalerweise	-13343
betrag	-13344
▁ausgeben	-13345
gestaltung	-13346
▁Empfänger	-13347
ws	-13348
▁Filter	-13349
▁Vormittag	-13350
▁scheitern	-13351
▁Böhmermann	-13352
Att	-13353
▁Suchmaschinen	-13354
älen	-13355
urteil	-13356
▁aktive	-13357
▁gestrigen	-13358
▁Bosn	-13359
▁versehen	-13360
▁Duis	-13361
Aktiv	-13362
bevölkerung	-13363
weiger	-13364
▁weiße	-13365
irma	-13366
▁Schauspielerin	-13367
vater	-13368
At	-13369
▁feiert	-13370
▁abgesagt	-13371
Go	-13372
II	-13373
jan	-13374
▁Arznei	-13375
▁Lapt	-13376
▁übers	-13377
▁Berücksicht	-13378
▁Prozentpunkte	-13379
▁Platten	-13380
▁Verdachts	-13381
▁Sprung	-13382
▁MS	-13383
▁are	-13384
▁bra	-13385
fangs	-13386
▁innere	-13387
▁schickt	-13388
gegner	-13389
abgeordneten	-13390
▁demonstriert	-13391
▁programm	-13392
ypt	-13393
▁Beschäftigte	-13394
▁Teen	-13395
▁gesundheit	-13396
itee	-13397
▁Öffnung	-13398
entin	-13399
medizin	-13400
▁flächen	-13401
ianischen	-13402
stelligen	-13403
▁Kapazität	-13404
▁Flugzeuge	-13405
▁Souverän	-13406
▁gehörten	-13407
▁Ausführungen	-13408
ield	-13409
ymnas	-13410
▁Toil	-13411
▁Firmware	-13412
▁redet	-13413
▁Königs	-13414
▁Grau	-13415
▁Danke	-13416
familien	-13417
wirr	-13418
▁Unsicherheit	-13419
▁Übereinkommen	-13420
▁räumt	-13421
▁einziges	-13422
▁führende	-13423
▁zugreifen	-13424
▁Gouvern	-13425
▁Bundesstaat	-13426
▁Nas	-13427
▁Verhältnisse	-13428
▁zwanzig	-13429
▁Space	-13430
▁Fortsetzung	-13431
▁Dax	-13432
▁Journalistin	-13433
Gel	-13434
▁VR	-13435
unts	-13436
▁Höcke	-13437
▁Brüsseler	-13438
▁BenQ	-13439
▁Strecken	-13440
▁dramatisch	-13441
▁Tagung	-13442
▁ausgezeichnet	-13443
Mark	-13444
▁Einzelheiten	-13445
▁Sob	-13446
▁kauft	-13447
,50	-13448
suchungen	-13449
elekt	-13450
▁Songs	-13451
staates	-13452
Plan	-13453
▁schaden	-13454
vort	-13455
▁Roten	-13456
▁Scheuer	-13457
irgend	-13458
Maut	-13459
bacher	-13460
▁Wul	-13461
rücken	-13462
illigt	-13463
ässe	-13464
▁inhaft	-13465
▁Präsenz	-13466
▁Beihilfen	-13467
energie	-13468
▁erzählte	-13469
▁DSL	-13470
bungs	-13471
▁vermeintlich	-13472
▁Leid	-13473
kirchen	-13474
▁Kiosk	-13475
personen	-13476
▁pein	-13477
▁Sätze	-13478
▁Grundsätze	-13479
▁Gleichstellung	-13480
hafter	-13481
▁Augenblick	-13482
▁anfangen	-13483
▁ansprechen	-13484
▁schwedischen	-13485
▁fühle	-13486
▁Einzug	-13487
▁verstorben	-13488
agazins	-13489
▁beantragen	-13490
räte	-13491
jamin	-13492
▁Schäd	-13493
▁engen	-13494
spolitische	-13495
▁(19	-13496
hemen	-13497
utung	-13498
sendung	-13499
▁kulturellen	-13500
beschluss	-13501
▁Ferien	-13502
▁Cookies	-13503
▁Größen	-13504
▁englischen	-13505
▁Pressefreiheit	-13506
dia	-13507
schränken	-13508
▁Rub	-13509
▁lokale	-13510
▁Vortrag	-13511
▁Stress	-13512
mengen	-13513
klat	-13514
▁rechtsextremen	-13515
▁massen	-13516
▁Provision	-13517
plo	-13518
▁Pi	-13519
fache	-13520
▁geworfen	-13521
▁gewohnt	-13522
freien	-13523
vize	-13524
▁Maus	-13525
▁Drucken	-13526
Kamer	-13527
▁fehler	-13528
▁Berlins	-13529
▁Flächen	-13530
med	-13531
Ausgabe	-13532
iegelt	-13533
▁aufzubauen	-13534
Fin	-13535
▁Lou	-13536
▁Vergewaltigung	-13537
statten	-13538
abis	-13539
▁Lokal	-13540
leitungen	-13541
▁Sant	-13542
▁ha	-13543
▁Fab	-13544
▁Verschlüsselung	-13545
remde	-13546
▁Format	-13547
▁Farb	-13548
▁Kammer	-13549
▁Fachkräfte	-13550
▁beschließen	-13551
basis	-13552
▁Tunesien	-13553
▁Urteils	-13554
▁Elektroautos	-13555
▁Budget	-13556
▁angestre	-13557
▁gefährlichen	-13558
lastet	-13559
▁verhei	-13560
▁trinken	-13561
War	-13562
▁teilten	-13563
▁ost	-13564
▁Reserv	-13565
▁engagiert	-13566
▁Bundestrainer	-13567
▁bestimmter	-13568
▁Ursprün	-13569
dies	-13570
▁benachteil	-13571
▁Dienstleistungs	-13572
quenzen	-13573
ily	-13574
▁Sound	-13575
▁Zwang	-13576
▁Schäfer	-13577
▁bevorzu	-13578
schlossenheit	-13579
▁rechtfertigen	-13580
▁Jemen	-13581
▁töten	-13582
▁Plenum	-13583
tellekt	-13584
▁Befrei	-13585
▁verheer	-13586
▁Dol	-13587
iren	-13588
▁Games	-13589
▁beunruh	-13590
▁Elite	-13591
bundes	-13592
Pol	-13593
zähl	-13594
mutter	-13595
▁Heinz	-13596
▁abgeschoben	-13597
▁perman	-13598
athy	-13599
ebene	-13600
▁teuren	-13601
▁Großbritanniens	-13602
heil	-13603
▁Zeug	-13604
▁Mittelfeld	-13605
elen	-13606
verdien	-13607
▁meistens	-13608
essel	-13609
▁Geträn	-13610
▁integrieren	-13611
▁fordere	-13612
▁Prognosen	-13613
▁riesigen	-13614
▁Samstagabend	-13615
▁geringe	-13616
munder	-13617
kommissar	-13618
▁antwortete	-13619
▁eingebracht	-13620
▁weltweite	-13621
▁Poroschenko	-13622
▁Ky	-13623
uff	-13624
▁inszen	-13625
▁unverändert	-13626
iano	-13627
▁Aleppo	-13628
▁jegliche	-13629
ications	-13630
▁Mitgliedschaft	-13631
bot	-13632
PG	-13633
uier	-13634
▁Gran	-13635
artikel	-13636
▁Ring	-13637
▁Tabak	-13638
▁Beschlüsse	-13639
▁ann	-13640
schwung	-13641
▁enden	-13642
wicklung	-13643
▁ignoriert	-13644
▁gesetzlich	-13645
▁Verurteilung	-13646
reens	-13647
▁Quer	-13648
eiteten	-13649
▁Patente	-13650
▁sicherer	-13651
gebungen	-13652
zutreten	-13653
dring	-13654
ordet	-13655
andern	-13656
paar	-13657
▁übernahm	-13658
▁72	-13659
spolitiker	-13660
▁steigenden	-13661
▁erfuhr	-13662
aßt	-13663
vider	-13664
▁Leichen	-13665
▁Kinderporn	-13666
▁Gesprächs	-13667
▁einschlä	-13668
▁Fähigkeit	-13669
▁Finnland	-13670
▁frage	-13671
▁kostenlose	-13672
▁Bang	-13673
▁Grundlagen	-13674
▁Performance	-13675
Service	-13676
▁Florida	-13677
▁Schüsse	-13678
▁Revision	-13679
▁Sto	-13680
▁wirkte	-13681
▁absolv	-13682
▁Sonst	-13683
Interview	-13684
▁genehmigt	-13685
nur	-13686
▁Liebes	-13687
▁kombin	-13688
▁Eingang	-13689
▁legitim	-13690
,99	-13691
präsidentin	-13692
js	-13693
anka	-13694
enhagen	-13695
▁Legislatur	-13696
▁sank	-13697
BS	-13698
▁Bull	-13699
duzierung	-13700
▁Finanzen	-13701
▁Hermann	-13702
▁Sportler	-13703
ühen	-13704
verteidiger	-13705
▁Zür	-13706
▁regiert	-13707
▁Italiens	-13708
▁Devel	-13709
▁lehnen	-13710
Problem	-13711
▁Möglicherweise	-13712
▁Fun	-13713
▁Objekt	-13714
▁Barbara	-13715
▁lebenden	-13716
▁Verletzte	-13717
▁Ausbildungs	-13718
▁Manchester	-13719
reckt	-13720
▁reine	-13721
riot	-13722
aster	-13723
nummern	-13724
▁Bin	-13725
NET	-13726
▁entstand	-13727
▁fert	-13728
▁Ministeriums	-13729
ittern	-13730
▁schock	-13731
▁aufgefallen	-13732
▁Ziels	-13733
einde	-13734
üsten	-13735
▁zogen	-13736
▁Tieren	-13737
▁Gaza	-13738
▁Bade	-13739
▁auton	-13740
▁Metrop	-13741
▁Autonom	-13742
▁zurecht	-13743
▁from	-13744
aufgaben	-13745
▁Ohr	-13746
▁festlegen	-13747
Justiz	-13748
▁Militärs	-13749
▁76	-13750
▁unterbrochen	-13751
▁Ehem	-13752
gesetze	-13753
iktor	-13754
▁Renn	-13755
▁Cisco	-13756
▁erzeugt	-13757
▁Research	-13758
vorschläge	-13759
▁rechtspopul	-13760
▁Kond	-13761
▁Strich	-13762
computer	-13763
schlüssen	-13764
▁Bonner	-13765
▁Fernsehsender	-13766
▁öst	-13767
▁attackiert	-13768
Format	-13769
▁Nerven	-13770
▁kurs	-13771
▁Mischung	-13772
qual	-13773
▁seither	-13774
▁angepasst	-13775
▁Inflation	-13776
ican	-13777
ault	-13778
▁Bundesnetz	-13779
▁Enterprise	-13780
▁Master	-13781
▁optimistisch	-13782
▁Entscheidungs	-13783
▁ausb	-13784
▁ergab	-13785
endungen	-13786
▁scheinbar	-13787
igend	-13788
▁Network	-13789
▁Kommunal	-13790
sbaden	-13791
▁anonym	-13792
▁Silber	-13793
▁mitteilen	-13794
▁zuversichtlich	-13795
▁gelangt	-13796
einheiten	-13797
▁Benjamin	-13798
▁vermittelt	-13799
Preis	-13800
äußer	-13801
ordnungen	-13802
übergreifen	-13803
-3	-13804
Beit	-13805
▁Augsburg	-13806
▁eBay	-13807
▁Disco	-13808
▁befasst	-13809
▁Übertragung	-13810
▁Messenger	-13811
inhaber	-13812
fungen	-13813
▁beabsicht	-13814
▁Portal	-13815
▁zurückzuführen	-13816
berry	-13817
löser	-13818
regelung	-13819
▁Patrick	-13820
Show	-13821
hema	-13822
▁bricht	-13823
KW	-13824
▁Tok	-13825
ental	-13826
▁städt	-13827
▁Dortmunder	-13828
lus	-13829
▁Phot	-13830
▁Tritt	-13831
▁Brücke	-13832
▁Formulierung	-13833
ged	-13834
afen	-13835
bein	-13836
Karten	-13837
▁Faktor	-13838
berichte	-13839
▁begegnen	-13840
blog	-13841
▁med	-13842
esh	-13843
▁Ansonsten	-13844
▁RWE	-13845
▁identifiziert	-13846
ilen	-13847
▁Novell	-13848
▁isol	-13849
risten	-13850
▁Tipps	-13851
▁Warte	-13852
▁eröffnen	-13853
▁fehlende	-13854
mm	-13855
▁Som	-13856
▁Lade	-13857
▁gewünscht	-13858
▁Leitlinien	-13859
▁Geschlechter	-13860
▁Sturz	-13861
▁wuchs	-13862
▁bewältigen	-13863
ütte	-13864
▁Kraw	-13865
4,	-13866
▁na	-13867
bedür	-13868
▁Heidel	-13869
:30	-13870
agert	-13871
▁Zeitplan	-13872
▁antworten	-13873
aufe	-13874
▁Kredite	-13875
ora	-13876
▁prom	-13877
▁Vorfälle	-13878
▁katholischen	-13879
iza	-13880
▁08	-13881
lassungen	-13882
▁Sicherung	-13883
▁Verletzten	-13884
▁angebliche	-13885
▁beschränken	-13886
▁Mängel	-13887
▁Chips	-13888
▁Neonazis	-13889
Links	-13890
kreise	-13891
▁Websites	-13892
hängt	-13893
▁ethn	-13894
beamte	-13895
"?	-13896
▁Erw	-13897
▁Assange	-13898
▁brachten	-13899
▁beliebt	-13900
▁Oberlandes	-13901
▁Delegierten	-13902
listen	-13903
▁beschädigt	-13904
▁Akteure	-13905
verwaltungs	-13906
▁PDF	-13907
▁Steu	-13908
▁erzeugen	-13909
ibi	-13910
▁SCO	-13911
▁Deren	-13912
▁Prototyp	-13913
▁BR	-13914
sletter	-13915
▁Kathol	-13916
presse	-13917
modelle	-13918
▁Griechenlands	-13919
▁NS	-13920
▁Bug	-13921
▁Haare	-13922
schäften	-13923
▁angebracht	-13924
▁festen	-13925
3)	-13926
▁96	-13927
▁Anzeichen	-13928
▁sozialdemokrat	-13929
▁1991	-13930
▁hohem	-13931
▁nachts	-13932
Qu	-13933
önig	-13934
▁bestand	-13935
▁Toleranz	-13936
75	-13937
▁Mun	-13938
▁Repar	-13939
▁maxim	-13940
stützung	-13941
▁holt	-13942
osat	-13943
zügigkeit	-13944
▁geteilt	-13945
▁vorgesehenen	-13946
ege	-13947
▁Abm	-13948
jahre	-13949
▁pror	-13950
wesend	-13951
▁Syriens	-13952
▁Wählern	-13953
▁angehen	-13954
▁AC	-13955
lade	-13956
gebühr	-13957
▁Ferr	-13958
Auch	-13959
▁Visa	-13960
▁Tau	-13961
▁zerstören	-13962
▁einheitliche	-13963
strecke	-13964
▁beruht	-13965
▁möglicher	-13966
Box	-13967
schnitte	-13968
▁Umstände	-13969
▁riesige	-13970
▁erworben	-13971
▁Meinungen	-13972
Angebot	-13973
anktionen	-13974
▁Düsseldorfer	-13975
▁effektiv	-13976
bard	-13977
chefs	-13978
▁schärfer	-13979
Kont	-13980
▁Länge	-13981
ausschuß	-13982
Experten	-13983
▁liebsten	-13984
Experte	-13985
▁Angriffs	-13986
größten	-13987
▁wenigsten	-13988
▁Zusammenhalt	-13989
HO	-13990
▁Asyls	-13991
▁Wurzeln	-13992
besitz	-13993
▁Anmer	-13994
▁veranst	-13995
LD	-13996
▁Einem	-13997
▁kontinuier	-13998
▁Prim	-13999
5-0	-14000
▁Album	-14001
▁frisch	-14002
oko	-14003
▁Roy	-14004
ülern	-14005
▁Wiesbaden	-14006
▁außergewöhn	-14007
▁Marco	-14008
▁Fazit	-14009
camp	-14010
iese	-14011
fessor	-14012
▁Pressemit	-14013
▁unangen	-14014
▁angelegt	-14015
▁Umstellung	-14016
▁mehrheitlich	-14017
gehr	-14018
▁30-	-14019
▁Hotels	-14020
▁Rechtsanwalt	-14021
geschwindigkeit	-14022
▁Pa	-14023
impft	-14024
▁1980	-14025
▁Schum	-14026
▁vergewalt	-14027
▁ehren	-14028
▁Gates	-14029
▁uneingeschrän	-14030
▁Farbe	-14031
▁Arbeitsgruppe	-14032
▁zurückgezogen	-14033
MU	-14034
▁Nomin	-14035
▁Drohungen	-14036
yd	-14037
▁Apothe	-14038
▁zitierte	-14039
▁deutet	-14040
▁erweitern	-14041
3,	-14042
bri	-14043
chern	-14044
▁Kamp	-14045
▁sinkt	-14046
▁Spiels	-14047
ächsische	-14048
▁Ratsvorsitz	-14049
▁wodurch	-14050
▁fa	-14051
udan	-14052
▁dreimal	-14053
neutralität	-14054
▁Linien	-14055
▁lebensl	-14056
▁andauern	-14057
▁beschleunigen	-14058
▁Fake	-14059
▁Sogar	-14060
▁Fahrzeugen	-14061
rikt	-14062
▁Maduro	-14063
▁Handelsk	-14064
▁Zahlreiche	-14065
verdacht	-14066
rachten	-14067
▁Mühe	-14068
▁verteidigte	-14069
▁erhöhte	-14070
▁Premiere	-14071
▁Wagner	-14072
▁Cannabis	-14073
Met	-14074
▁Oberfläche	-14075
stufe	-14076
▁Spam	-14077
▁Genossen	-14078
usch	-14079
▁Philosoph	-14080
▁schritt	-14081
▁Raumfahrt	-14082
▁frühe	-14083
▁messen	-14084
▁kompliziert	-14085
▁Leverkusen	-14086
▁Guten	-14087
ted	-14088
▁Defen	-14089
▁Edition	-14090
▁Koordinierung	-14091
▁gelo	-14092
▁Gefühle	-14093
▁Umsätze	-14094
Frank	-14095
▁Atomwaffen	-14096
▁Lied	-14097
▁interpret	-14098
▁iranischen	-14099
▁umk	-14100
klusiv	-14101
▁Jungs	-14102
▁Empfang	-14103
▁Kasse	-14104
▁ordentlich	-14105
sey	-14106
ileaks	-14107
senden	-14108
▁nordkore	-14109
xid	-14110
▁Featur	-14111
▁herrschen	-14112
▁Promin	-14113
▁Schweigen	-14114
▁kommentierte	-14115
▁Geschehen	-14116
▁aussprechen	-14117
▁verhäng	-14118
▁zweifellos	-14119
▁pausch	-14120
▁Staatspräsident	-14121
▁1.0	-14122
▁untergebracht	-14123
▁Bitkom	-14124
▁CPU	-14125
▁Flügel	-14126
probleme	-14127
▁Zielen	-14128
▁scheiterte	-14129
▁islamischen	-14130
▁Diet	-14131
▁Träger	-14132
▁gestaltet	-14133
ünkt	-14134
▁CEO	-14135
abeth	-14136
musik	-14137
kamera	-14138
▁vorigen	-14139
▁bewahren	-14140
▁phys	-14141
Wh	-14142
üre	-14143
▁endgültige	-14144
▁Bedürfnisse	-14145
geist	-14146
▁Geht	-14147
iola	-14148
▁Zulassung	-14149
▁Comm	-14150
▁Herbert	-14151
▁Krieges	-14152
▁Rathaus	-14153
▁Kundgebung	-14154
ockt	-14155
▁Aufhebung	-14156
7,	-14157
▁worauf	-14158
▁Normen	-14159
▁Now	-14160
▁Eigentum	-14161
wn	-14162
▁Strategien	-14163
▁Bj	-14164
▁lobte	-14165
▁gegebenenfalls	-14166
Haupt	-14167
ianer	-14168
finanzierung	-14169
Main	-14170
▁Mid	-14171
▁Garantie	-14172
Hier	-14173
▁Erzeug	-14174
▁Aufsehen	-14175
▁Seg	-14176
▁ließe	-14177
pers	-14178
ierbar	-14179
▁Gemüse	-14180
friedenheit	-14181
▁bar	-14182
weren	-14183
▁Phys	-14184
ippen	-14185
▁Fremd	-14186
▁Namens	-14187
▁bit	-14188
▁industrie	-14189
▁verbindet	-14190
Kar	-14191
▁1500	-14192
▁interessante	-14193
▁Navig	-14194
▁ermordet	-14195
BB	-14196
adbach	-14197
▁deutlichen	-14198
▁Hintergründe	-14199
kinder	-14200
▁Welle	-14201
▁geholt	-14202
▁angekündigten	-14203
▁Cel	-14204
kapital	-14205
AG	-14206
Det	-14207
▁Vern	-14208
▁Instanz	-14209
▁Zie	-14210
frau	-14211
▁fotograf	-14212
▁leistungs	-14213
▁Angestellten	-14214
netze	-14215
▁einzelner	-14216
Par	-14217
Krit	-14218
spor	-14219
äden	-14220
utions	-14221
üchten	-14222
▁Spot	-14223
werbung	-14224
▁beträcht	-14225
▁Gor	-14226
anal	-14227
vermögen	-14228
▁Abteilung	-14229
▁nachvollzieh	-14230
hebt	-14231
bstahl	-14232
obs	-14233
▁Halbinsel	-14234
gret	-14235
▁Erwachsenen	-14236
ape	-14237
▁wohnen	-14238
▁Durchbruch	-14239
yphosat	-14240
▁dorthin	-14241
▁verfügbaren	-14242
OR	-14243
▁lauter	-14244
rechter	-14245
dner	-14246
▁Tode	-14247
▁Votum	-14248
▁gelaufen	-14249
▁Steigerung	-14250
▁derzeitige	-14251
Konflikt	-14252
▁Befugnisse	-14253
▁Jäger	-14254
ysi	-14255
ocht	-14256
troller	-14257
ulierte	-14258
spunkte	-14259
rid	-14260
▁Listen	-14261
▁Spannung	-14262
▁EUR	-14263
▁Vorbereit	-14264
▁These	-14265
▁Juristen	-14266
▁Urheberrecht	-14267
▁bereiten	-14268
8)	-14269
▁bekräft	-14270
üster	-14271
▁harm	-14272
nutzer	-14273
▁Sowjetunion	-14274
▁Brow	-14275
▁Done	-14276
schiebung	-14277
verfahrens	-14278
▁medizinische	-14279
▁Ehre	-14280
▁chem	-14281
▁Experte	-14282
▁Geschw	-14283
▁Sprech	-14284
▁Kopenhagen	-14285
Sport	-14286
versuche	-14287
▁Insider	-14288
Bundesstaat	-14289
▁Texas	-14290
ahne	-14291
▁klarer	-14292
▁erfunden	-14293
▁Kohäs	-14294
▁abgeschafft	-14295
▁verlässt	-14296
▁Fett	-14297
▁Disziplin	-14298
▁Versammlung	-14299
▁kaliforn	-14300
ileg	-14301
▁Internets	-14302
▁bereitgestellt	-14303
Branche	-14304
▁aufgeben	-14305
▁jüdischen	-14306
▁verschlüssel	-14307
stitu	-14308
counts	-14309
portal	-14310
▁Komponenten	-14311
spolitischen	-14312
▁Info	-14313
▁schuld	-14314
▁Kretschmann	-14315
▁Putins	-14316
▁Souveränität	-14317
▁Ford	-14318
▁Yücel	-14319
aber	-14320
▁18-	-14321
▁Schmerz	-14322
▁indirekt	-14323
9)	-14324
konflikt	-14325
zeitlich	-14326
▁afghan	-14327
▁erläuterte	-14328
▁polnischen	-14329
ehrten	-14330
▁brechen	-14331
fle	-14332
▁Befragung	-14333
▁Aachen	-14334
▁Allgemein	-14335
▁Eigentums	-14336
erz	-14337
▁Daran	-14338
▁Hunde	-14339
lers	-14340
▁Fertig	-14341
▁drehen	-14342
üde	-14343
▁fürchtet	-14344
Universität	-14345
▁Festlegung	-14346
▁Axel	-14347
▁Radik	-14348
▁antisemit	-14349
▁Dür	-14350
Media	-14351
26	-14352
ökonom	-14353
schäden	-14354
Gu	-14355
tend	-14356
▁Viet	-14357
▁gebunden	-14358
▁Botschaften	-14359
100	-14360
ring	-14361
▁Ras	-14362
▁Up	-14363
ektrum	-14364
▁nacht	-14365
▁Werten	-14366
▁unange	-14367
rente	-14368
DSL	-14369
demokraten	-14370
▁niederländische	-14371
Kolle	-14372
▁Fußgänger	-14373
▁Rend	-14374
▁Einwanderungs	-14375
▁NAT	-14376
gängen	-14377
▁Patch	-14378
▁drücken	-14379
▁geschah	-14380
▁Verzicht	-14381
hauptstadt	-14382
▁anzunehmen	-14383
Netzwerk	-14384
▁Prozesse	-14385
▁Seen	-14386
▁Verh	-14387
▁Beobachtung	-14388
▁Quoten	-14389
▁Schluß	-14390
kr	-14391
nacht	-14392
▁Bein	-14393
▁betragen	-14394
▁Ausstattung	-14395
▁Jün	-14396
istet	-14397
strei	-14398
konzerns	-14399
▁heftigen	-14400
▁Hut	-14401
▁besp	-14402
▁Liban	-14403
▁Bosnien	-14404
▁Jahrestag	-14405
bry	-14406
ugos	-14407
▁explizit	-14408
▁Warner	-14409
▁abgelaufen	-14410
stest	-14411
vi	-14412
Rech	-14413
ugh	-14414
▁festhalten	-14415
▁mod	-14416
▁Witz	-14417
▁Sergej	-14418
▁Shar	-14419
▁Kirch	-14420
▁nochmal	-14421
mäh	-14422
sache	-14423
▁Rade	-14424
Internet	-14425
▁Papiere	-14426
▁weiterge	-14427
▁Pok	-14428
betriebe	-14429
▁russischer	-14430
Aktion	-14431
stimmungs	-14432
Sicherheit	-14433
▁schlafen	-14434
▁partei	-14435
▁praktischen	-14436
▁Sä	-14437
▁enorme	-14438
▁Auswärtigen	-14439
▁po	-14440
▁Abitur	-14441
▁einher	-14442
▁ausführlich	-14443
▁ausgebaut	-14444
ähen	-14445
▁bestreitet	-14446
widr	-14447
pertin	-14448
▁super	-14449
▁weitaus	-14450
▁Benzin	-14451
iba	-14452
▁Schott	-14453
▁vorzugehen	-14454
▁Süddeutschen	-14455
▁herzlich	-14456
Alle	-14457
▁Sarah	-14458
▁Annäher	-14459
▁Projekts	-14460
einführung	-14461
▁Hals	-14462
▁Lasten	-14463
▁DPA	-14464
▁anony	-14465
▁separ	-14466
irgt	-14467
▁Bestätigung	-14468
äuschen	-14469
▁Ansprüche	-14470
▁Präsentation	-14471
▁führe	-14472
▁Ankunft	-14473
▁Colle	-14474
▁Ninten	-14475
▁Arsen	-14476
▁Küche	-14477
▁bekamen	-14478
▁trocken	-14479
▁zufällig	-14480
ssicherheit	-14481
uting	-14482
ögern	-14483
▁dopp	-14484
▁verpasst	-14485
▁Konkret	-14486
▁Call	-14487
▁lustig	-14488
▁Stufe	-14489
funktionen	-14490
Kandid	-14491
▁Indiz	-14492
▁Chefredakteur	-14493
ject	-14494
▁erör	-14495
▁widerspricht	-14496
Off	-14497
▁Trink	-14498
▁Verstöße	-14499
▁überleben	-14500
▁Kant	-14501
▁Milit	-14502
▁angefangen	-14503
▁erwarteten	-14504
fz	-14505
sofern	-14506
▁Schengen	-14507
▁unterscheidet	-14508
▁Gestalt	-14509
▁Entschädigung	-14510
arre	-14511
ägypt	-14512
▁Nachbarschaft	-14513
▁ereig	-14514
ople	-14515
▁Ryan	-14516
▁Raub	-14517
▁Router	-14518
▁Letzter	-14519
▁vorrang	-14520
missbrauch	-14521
kow	-14522
herap	-14523
▁Einkaufs	-14524
▁Intels	-14525
▁Ehemann	-14526
Rot	-14527
▁Allen	-14528
▁Wahlergebnis	-14529
▁betreffenden	-14530
▁€	-14531
▁Anteile	-14532
▁virtuellen	-14533
▁Blumen	-14534
spläne	-14535
▁Schulter	-14536
verhältnisse	-14537
wäsche	-14538
▁Wenige	-14539
▁Dav	-14540
ieger	-14541
▁drängt	-14542
▁Schwarzen	-14543
▁verbringen	-14544
▁Digit	-14545
kündigt	-14546
riminalität	-14547
▁anstehenden	-14548
▁Stift	-14549
▁Korrektur	-14550
lieferungen	-14551
oz	-14552
ota	-14553
Donald	-14554
▁gestohlen	-14555
▁Verbindungs	-14556
▁geriet	-14557
steh	-14558
▁Lärm	-14559
fektion	-14560
ammern	-14561
experte	-14562
▁gericht	-14563
▁hilf	-14564
ugt	-14565
/201	-14566
▁Französ	-14567
veranstaltung	-14568
").	-14569
liegenden	-14570
pend	-14571
ablen	-14572
▁Zerstörung	-14573
▁verantworten	-14574
QL	-14575
▁müh	-14576
▁Meyer	-14577
▁dynam	-14578
▁freier	-14579
orger	-14580
▁GT	-14581
▁Beton	-14582
ausgabe	-14583
▁07	-14584
▁öffentlicher	-14585
zusammen	-14586
▁betrieb	-14587
▁360	-14588
indel	-14589
abilit	-14590
▁gesenkt	-14591
▁ergänzen	-14592
bers	-14593
▁Neg	-14594
▁Wikileaks	-14595
▁Konfront	-14596
▁antwortet	-14597
▁Ursprünglich	-14598
▁Amnesty	-14599
▁Obergrenze	-14600
▁Bäume	-14601
stationen	-14602
urg	-14603
▁Mazed	-14604
▁https	-14605
▁Diagn	-14606
hend	-14607
▁Büros	-14608
▁Bünd	-14609
abteilung	-14610
ippt	-14611
▁Kit	-14612
ranke	-14613
▁Geschmack	-14614
▁fünften	-14615
igant	-14616
▁Gelb	-14617
▁drit	-14618
oglu	-14619
▁drastisch	-14620
▁erledigt	-14621
▁ungen	-14622
▁Masse	-14623
▁Glyphosat	-14624
▁Integrations	-14625
organ	-14626
▁Alpen	-14627
▁explod	-14628
▁weitreichen	-14629
▁Hochzeit	-14630
▁Strö	-14631
▁DNA	-14632
feier	-14633
▁Tunnel	-14634
schießen	-14635
inken	-14636
Frei	-14637
▁int	-14638
▁protestieren	-14639
▁Hilfen	-14640
▁versetzt	-14641
Clau	-14642
▁Anna	-14643
zuhalten	-14644
▁Tob	-14645
rund	-14646
▁angeklagt	-14647
▁Marokko	-14648
esprecher	-14649
▁Italiener	-14650
▁wofür	-14651
▁Atomkraft	-14652
▁einheitlichen	-14653
▁fällig	-14654
▁NA	-14655
▁Berechnungen	-14656
▁sexuell	-14657
ologien	-14658
[...]
